<unk>	0
<s>	0
</s>	0
▁the	-3.08561
,	-3.20644
.	-3.45384
▁and	-3.74309
▁to	-3.79502
▁of	-3.80606
▁in	-3.9057
-	-4.02049
▁aluminium	-4.23347
▁a	-4.24365
s	-4.35095
▁per	-4.44584
▁for	-4.79758
▁tonne	-4.84891
▁at	-4.90607
▁is	-4.90748
▁on	-5.00039
▁by	-5.05507
▁with	-5.10732
▁from	-5.15574
’	-5.30966
▁rmb	-5.36009
▁has	-5.36823
▁as	-5.39152
▁tonnes	-5.39212
▁price	-5.41927
▁us	-5.47087
▁that	-5.48696
▁its	-5.5156
▁	-5.60755
'	-5.63512
▁(	-5.67933
▁cent	-5.68947
▁this	-5.72154
▁will	-5.77528
▁million	-5.7825
▁are	-5.80761
▁it	-5.90483
▁an	-5.94877
▁company	-5.95971
▁production	-5.98245
▁be	-5.98614
)	-6.06051
▁year	-6.09281
▁china	-6.12659
ing	-6.16064
▁was	-6.18058
▁new	-6.19305
▁have	-6.21789
▁industry	-6.22664
▁market	-6.24069
▁alumina	-6.2591
▁“	-6.2726
▁which	-6.2879
▁said	-6.30034
▁also	-6.30339
▁prices	-6.34704
▁global	-6.36771
▁our	-6.37721
▁up	-6.40646
▁bauxite	-6.45012
▁we	-6.48734
▁or	-6.48957
:	-6.52503
/	-6.52826
▁lme	-6.61773
▁more	-6.62096
▁products	-6.62541
▁can	-6.66064
▁high	-6.6699
▁metal	-6.68244
▁been	-6.68801
▁"	-6.71348
▁their	-6.72333
▁energy	-6.76624
▁over	-6.81833
▁first	-6.81866
▁demand	-6.84536
▁inr	-6.8486
t	-6.86759
▁while	-6.88771
▁data	-6.89592
▁aluminum	-6.90551
▁than	-6.91503
$	-6.92807
▁recycling	-6.92976
▁primary	-6.94036
▁but	-6.97159
▁all	-6.98061
▁growth	-6.98309
▁one	-6.98385
ed	-6.98888
▁world	-6.98978
.”	-6.98998
▁according	-6.99462
▁capacity	-6.99644
▁project	-7.00985
▁scrap	-7.00992
▁india	-7.01167
▁expected	-7.01859
▁down	-7.03534
▁other	-7.03877
▁supply	-7.04115
▁during	-7.05598
▁not	-7.06504
▁were	-7.08419
▁total	-7.10042
;	-7.11132
▁after	-7.11366
▁into	-7.13127
▁ingot	-7.14811
▁increase	-7.15251
▁plant	-7.15526
▁last	-7.17249
▁business	-7.17316
on	-7.18379
▁two	-7.18472
▁may	-7.20807
▁about	-7.20852
▁technology	-7.22638
▁power	-7.23297
a	-7.23656
▁manufacturing	-7.24896
▁development	-7.25044
▁between	-7.25857
▁increased	-7.27106
▁most	-7.27258
▁group	-7.27261
▁sector	-7.27662
▁billion	-7.28361
▁alloy	-7.29032
▁low	-7.29097
▁metals	-7.29125
▁week	-7.2952
▁trade	-7.29718
▁these	-7.30008
▁mining	-7.3005
▁average	-7.3038
2	-7.32704
▁years	-7.33503
▁export	-7.33827
▁quarter	-7.34067
the	-7.34829
▁range	-7.34916
▁shfe	-7.35089
▁would	-7.3543
▁through	-7.36618
▁materials	-7.3669
▁they	-7.36718
▁contract	-7.37618
▁three	-7.37812
▁he	-7.37869
▁due	-7.37904
▁domestic	-7.38341
▁across	-7.38575
▁sustainability	-7.39207
▁operations	-7.39374
▁stood	-7.39633
d	-7.41213
▁further	-7.41641
▁value	-7.41686
▁government	-7.41887
▁usd	-7.42708
▁day	-7.42736
▁industrial	-7.42869
▁however	-7.42913
▁packaging	-7.43087
1	-7.43166
▁imports	-7.44616
▁higher	-7.44634
▁sustainable	-7.44718
month	-7.45301
▁import	-7.45617
o	-7.45671
year	-7.45712
),	-7.45963
▁carbon	-7.46052
▁including	-7.46393
,”	-7.46757
▁material	-7.46939
▁major	-7.47991
▁both	-7.48752
▁month	-7.49625
▁december	-7.49822
▁&	-7.50227
▁3	-7.51351
▁had	-7.51427
▁january	-7.51875
▁now	-7.51996
▁previous	-7.52726
▁cans	-7.52792
▁around	-7.52904
▁real	-7.52912
▁well	-7.53121
▁such	-7.53135
▁access	-7.53518
▁sales	-7.54105
▁q	-7.54136
▁process	-7.54678
▁analysis	-7.54973
▁today	-7.55052
▁end	-7.55119
▁exports	-7.55266
▁companies	-7.55315
▁support	-7.56066
▁product	-7.56771
▁june	-7.5732
▁industries	-7.57724
▁trends	-7.58404
▁significant	-7.58456
▁performance	-7.58553
▁spot	-7.58593
▁country	-7.58838
▁like	-7.59266
▁future	-7.6007
▁same	-7.60128
▁smelter	-7.60639
▁since	-7.60894
time	-7.61599
▁find	-7.61812
▁out	-7.62318
▁march	-7.62612
▁some	-7.62935
▁insights	-7.63093
▁only	-7.63231
▁international	-7.63232
▁offer	-7.63565
▁report	-7.63573
▁20	-7.64137
00	-7.64291
▁announced	-7.64342
▁cost	-7.6442
▁under	-7.64425
▁output	-7.6473
▁automotive	-7.6519
▁use	-7.65531
▁used	-7.65533
▁construction	-7.66196
we	-7.66245
▁smm	-7.66592
▁10	-7.6679
▁hydro	-7.66904
▁leading	-7.66912
▁vedanta	-7.66924
▁investment	-7.66932
▁compared	-7.67445
."	-7.67546
▁time	-7.67703
▁september	-7.68282
▁environmental	-7.68286
▁co	-7.68537
▁lower	-7.68563
driven	-7.68905
▁facility	-7.69425
▁exclusive	-7.69506
▁south	-7.70724
m	-7.7093
▁july	-7.71079
▁stand	-7.71677
▁steel	-7.71699
▁limited	-7.71986
▁period	-7.72043
▁state	-7.72214
▁chain	-7.72714
▁president	-7.72979
▁made	-7.73289
▁largest	-7.73573
3	-7.73663
▁chinese	-7.7369
▁shanghai	-7.74167
▁historical	-7.74293
depth	-7.74455
▁april	-7.74502
▁added	-7.7495
▁rise	-7.75824
▁october	-7.76123
▁indices	-7.76985
▁trading	-7.77035
▁stands	-7.77099
▁1	-7.77414
▁united	-7.77445
▁volume	-7.77644
▁emissions	-7.77993
▁exchange	-7.78037
▁august	-7.78295
▁long	-7.78865
com	-7.79172
▁months	-7.79625
▁solutions	-7.79833
▁november	-7.79842
▁net	-7.81502
▁customers	-7.81599
▁producers	-7.81742
▁u	-7.82027
▁recycled	-7.82094
▁key	-7.82311
▁bid	-7.82463
,"	-7.83359
▁3-	-7.83433
▁part	-7.83778
▁inventories	-7.8379
▁operating	-7.83909
▁economy	-7.84364
▁al	-7.84456
▁europe	-7.84565
://	-7.84692
▁director	-7.84989
▁second	-7.85976
▁2	-7.86262
▁http	-7.86314
▁costs	-7.86332
www	-7.86684
▁states	-7.86746
▁there	-7.86885
▁strong	-7.87114
▁consumption	-7.87176
▁when	-7.8886
to	-7.8894
▁cash	-7.89535
▁design	-7.89553
aluminium	-7.89775
▁system	-7.90294
alcircle	-7.90338
▁5	-7.90685
▁impact	-7.9089
▁european	-7.91072
▁being	-7.91346
▁local	-7.91673
▁alloys	-7.93167
▁markets	-7.93497
news	-7.93684
▁no	-7.93685
▁within	-7.93768
▁closed	-7.94177
▁ceo	-7.94271
▁economic	-7.94458
▁next	-7.94593
▁continue	-7.94868
▁decline	-7.94894
▁–	-7.94937
▁ltd	-7.95583
▁alcoa	-7.95622
▁respectively	-7.96437
▁current	-7.96457
▁north	-7.96506
in	-7.96825
▁so	-7.96952
▁quality	-7.97744
y	-7.97766
▁could	-7.98058
▁national	-7.9811
▁february	-7.9815
▁stock	-7.98333
▁raw	-7.99516
▁line	-7.99526
▁producer	-7.99653
▁executive	-7.9989
▁green	-8.00014
▁downstream	-8.00113
▁close	-8.0023
▁foil	-8.00716
▁thursday	-8.00726
▁warrants	-8.00812
▁estimated	-8.00924
▁make	-8.0146
▁projects	-8.02001
▁extrusion	-8.02168
▁where	-8.02279
).	-8.0258
▁30	-8.02609
▁australia	-8.0291
▁commitment	-8.03232
▁reported	-8.03268
▁set	-8.03476
based	-8.0352
▁agreement	-8.0373
▁chief	-8.03966
▁share	-8.04347
▁beverage	-8.04773
▁work	-8.05286
▁financial	-8.05387
▁rate	-8.05656
▁come	-8.058
▁rusal	-8.05873
▁refinery	-8.05973
▁any	-8.06073
▁revenue	-8.06686
▁management	-8.07509
▁4	-8.07695
▁50	-8.08183
▁electric	-8.0856
▁remained	-8.08868
▁standard	-8.09205
▁who	-8.09356
▁building	-8.09533
▁rio	-8.10284
▁annual	-8.1029
▁before	-8.10426
▁towards	-8.10484
▁friday	-8.11086
▁if	-8.11411
▁tariffs	-8.11666
▁imported	-8.12284
▁dropped	-8.12425
▁against	-8.12735
▁potential	-8.13036
▁recorded	-8.13422
▁third	-8.13759
▁premium	-8.13947
▁region	-8.14497
▁waste	-8.14699
▁expansion	-8.1503
4	-8.15211
▁crore	-8.15278
▁innovation	-8.15295
▁vehicles	-8.15424
▁initiative	-8.1546
▁asi	-8.15475
▁non	-8.15876
▁100	-8.15937
▁hindalco	-8.16112
▁smelters	-8.16113
▁following	-8.16182
▁focus	-8.16401
▁top	-8.16484
▁drop	-8.16758
▁percent	-8.17007
▁strategic	-8.17116
▁research	-8.17408
▁likely	-8.17419
▁19	-8.17507
▁full	-8.17635
▁water	-8.17981
▁already	-8.18118
▁five	-8.18174
▁his	-8.1821
▁recent	-8.18762
▁latest	-8.18886
▁many	-8.19863
▁18	-8.19965
▁firm	-8.19977
▁continued	-8.20284
▁solar	-8.20513
▁official	-8.2054
▁environment	-8.20676
▁uk	-8.20885
▁countries	-8.21038
▁monday	-8.2124
▁systems	-8.21365
▁technologies	-8.21499
▁using	-8.21647
▁growing	-8.21671
▁resources	-8.22206
▁tinto	-8.22399
▁reduce	-8.22465
▁east	-8.23134
▁each	-8.23505
▁2020	-8.23585
▁25	-8.23741
▁team	-8.24167
▁results	-8.24441
▁help	-8.24753
▁them	-8.24789
▁benchmark	-8.25145
▁making	-8.25405
▁half	-8.25412
▁produced	-8.25502
▁6	-8.26068
▁rose	-8.2617
▁profit	-8.26268
term	-8.26513
▁association	-8.27519
▁based	-8.27616
▁back	-8.27803
▁manufacturers	-8.2812
▁indian	-8.28346
▁canada	-8.28519
▁ega	-8.28546
carbon	-8.28842
▁corporation	-8.29076
▁15	-8.29426
▁equipment	-8.29935
▁safety	-8.30217
▁currently	-8.30245
▁move	-8.30275
▁forward	-8.30415
▁america	-8.30954
▁just	-8.31159
▁processing	-8.31365
▁plans	-8.31653
▁certification	-8.31807
▁even	-8.31826
▁provide	-8.3189
▁components	-8.31906
▁remain	-8.31949
▁novelis	-8.32048
▁renewable	-8.32232
▁very	-8.32265
▁people	-8.32324
▁among	-8.32517
▁meet	-8.32708
▁guinea	-8.3279
▁working	-8.32881
e	-8.33008
▁i	-8.33186
▁efficiency	-8.33502
▁shipments	-8.33512
▁gas	-8.33849
▁coal	-8.33902
▁tuesday	-8.34031
"	-8.34377
▁cut	-8.34857
▁produce	-8.34886
▁officer	-8.35079
▁battery	-8.35374
▁sectors	-8.35391
▁decreased	-8.35962
▁various	-8.35982
▁nalco	-8.36334
▁applications	-8.36373
▁wednesday	-8.36424
▁operational	-8.3645
▁facilities	-8.36871
▁vehicle	-8.37387
▁despite	-8.37721
▁role	-8.3832
▁level	-8.38665
▁advanced	-8.38805
.50	-8.39007
▁take	-8.39241
▁interest	-8.39431
▁recently	-8.39663
▁wire	-8.40053
▁highest	-8.40611
▁overall	-8.40693
▁reach	-8.40709
▁opening	-8.40858
▁need	-8.41165
▁still	-8.41642
▁four	-8.41691
▁commercial	-8.41714
▁fy	-8.42017
▁available	-8.42172
”	-8.42736
th	-8.42748
▁-	-8.42799
▁alba	-8.42959
▁large	-8.42987
▁increasing	-8.43193
▁came	-8.43212
▁without	-8.4326
▁london	-8.43338
▁board	-8.43601
▁brand	-8.44153
▁fell	-8.44162
▁inventory	-8.44229
of	-8.44403
▁m	-8.44542
▁2017	-8.44556
▁fall	-8.44957
▁how	-8.4497
▁change	-8.45153
▁general	-8.45355
▁electricity	-8.46039
▁2018	-8.46234
▁less	-8.46244
▁plan	-8.46392
ly	-8.464
▁partnership	-8.46651
▁ensure	-8.46707
▁look	-8.47004
i	-8.47199
▁significantly	-8.47228
▁important	-8.4729
▁12	-8.47626
▁14	-8.47656
▁stated	-8.47767
▁innovative	-8.47783
▁mr	-8.47919
▁futures	-8.48109
▁minister	-8.48158
▁parts	-8.48291
▁rising	-8.48807
▁because	-8.48808
▁21	-8.4881
▁remains	-8.49053
▁amount	-8.49295
▁strategy	-8.49981
▁‘	-8.50049
▁manufacturer	-8.50092
▁trend	-8.50181
▁record	-8.50199
▁casting	-8.50433
▁create	-8.5051
▁event	-8.50538
months	-8.50809
▁mine	-8.51093
▁another	-8.51283
▁plants	-8.51388
▁areas	-8.51425
▁drive	-8.51534
▁capital	-8.51602
▁position	-8.51795
▁australian	-8.52001
▁lightweight	-8.52527
▁7	-8.52831
▁approximately	-8.52875
▁you	-8.52951
c	-8.52999
▁2016	-8.53089
▁engineering	-8.53489
▁infrastructure	-8.53634
▁40	-8.54109
▁social	-8.54203
▁asia	-8.54865
▁result	-8.55138
▁way	-8.55355
▁see	-8.55661
▁designed	-8.55878
▁include	-8.55888
▁every	-8.55944
▁declined	-8.56448
▁says	-8.56599
▁short	-8.56719
▁kg	-8.57281
▁open	-8.57411
▁critical	-8.57413
▁car	-8.57479
▁services	-8.57496
▁dec	-8.5761
▁challenges	-8.57617
▁nearly	-8.57732
▁meeting	-8.57795
▁light	-8.5782
▁2019	-8.57972
▁addition	-8.57996
▁base	-8.58199
▁additional	-8.58301
▁effect	-8.58392
5	-8.58421
▁seen	-8.58562
▁2021	-8.58622
al	-8.58753
▁germany	-8.58876
▁collaboration	-8.59097
▁earlier	-8.59151
▁live	-8.59243
▁reduction	-8.59701
▁earnings	-8.59729
▁standards	-8.59782
▁totalled	-8.59796
▁opportunities	-8.59896
▁existing	-8.59942
▁central	-8.60173
▁efforts	-8.60231
▁found	-8.60598
▁driven	-8.60663
▁aerospace	-8.60724
▁several	-8.60949
▁order	-8.61055
re	-8.61301
▁american	-8.6132
▁mines	-8.6151
▁22	-8.61816
▁2023	-8.61926
▁below	-8.62119
▁positive	-8.62187
▁what	-8.62243
▁13	-8.62246
▁2015	-8.62339
▁area	-8.62342
▁pressure	-8.62532
▁opened	-8.62679
▁together	-8.62823
▁reduced	-8.6283
▁settlement	-8.62968
▁eu	-8.62986
▁technical	-8.62991
▁developed	-8.63289
▁chairman	-8.63366
▁footprint	-8.63629
▁russia	-8.63636
▁experience	-8.63759
▁billet	-8.63954
▁8	-8.64088
▁keep	-8.64189
▁employees	-8.64497
▁rolling	-8.64845
▁much	-8.65033
▁operation	-8.65159
▁closing	-8.65233
▁11	-8.65323
▁site	-8.65565
▁those	-8.65704
▁secondary	-8.65712
▁flat	-8.65741
▁uae	-8.65762
▁start	-8.65862
▁rates	-8.65903
us	-8.65995
▁exported	-8.66763
▁achieve	-8.66784
▁showed	-8.66838
▁hand	-8.66925
▁tariff	-8.67033
▁become	-8.67183
▁manager	-8.67186
▁producing	-8.67214
▁hover	-8.67423
▁term	-8.67462
▁settle	-8.6754
▁centre	-8.67551
▁number	-8.67713
▁then	-8.67805
▁2022	-8.68007
▁off	-8.6813
▁step	-8.68132
▁days	-8.68234
▁japan	-8.6844
▁decision	-8.68534
▁24	-8.68535
▁2021,	-8.68649
▁deal	-8.68688
▁reducing	-8.68804
up	-8.68927
▁asian	-8.69102
▁place	-8.69221
▁should	-8.6925
▁hike	-8.69267
▁sheet	-8.69449
▁traded	-8.69462
▁recovery	-8.69672
▁joint	-8.69941
▁9	-8.70047
▁solution	-8.70114
▁lots	-8.7055
▁supplier	-8.70578
▁along	-8.70773
▁ministry	-8.70905
▁plastic	-8.70921
▁build	-8.70986
▁held	-8.71116
▁y	-8.71183
▁copper	-8.71205
▁best	-8.71383
▁aims	-8.71454
▁leader	-8.71598
▁led	-8.72028
▁past	-8.72085
▁grow	-8.72164
▁e	-8.72293
▁tons	-8.72464
▁stocks	-8.72525
▁h	-8.72542
▁consumers	-8.72558
▁started	-8.72643
▁2025	-8.73029
▁fuel	-8.73133
▁circular	-8.73313
▁managing	-8.73359
▁sources	-8.73516
▁saw	-8.73568
▁2020.	-8.7357
▁processes	-8.73582
▁policy	-8.73691
▁do	-8.73712
▁enterprises	-8.73732
▁ball	-8.73954
▁information	-8.73999
▁needs	-8.74185
▁africa	-8.74202
▁yoy	-8.74221
▁ore	-8.74272
▁better	-8.74604
▁control	-8.74661
▁smelting	-8.74697
▁six	-8.74925
▁cancelled	-8.74946
▁entire	-8.75054
▁wuxi	-8.75303
▁offers	-8.7595
▁inc	-8.76273
▁shares	-8.76473
▁units	-8.76521
▁ended	-8.76967
▁providing	-8.77186
▁jobs	-8.77206
▁expand	-8.77519
▁transition	-8.77722
▁2018.	-8.77838
▁port	-8.77906
▁practices	-8.78011
▁press	-8.78019
▁23	-8.78154
▁launched	-8.78217
▁near	-8.78285
▁customer	-8.78645
▁rolled	-8.78738
▁17	-8.78776
▁integrated	-8.78908
▁improve	-8.79103
▁bahrain	-8.79324
day	-8.7933
n	-8.79386
▁odisha	-8.794
▁consumer	-8.79443
▁registered	-8.79465
▁partners	-8.79791
▁2024	-8.80192
▁brazil	-8.80305
▁service	-8.80313
▁60	-8.80372
this	-8.80442
▁phase	-8.80447
▁institute	-8.8051
▁levels	-8.80548
▁16	-8.80592
▁responsible	-8.80624
▁decrease	-8.80658
▁unit	-8.80688
▁launch	-8.80899
▁basis	-8.81037
▁early	-8.81082
▁lead	-8.81413
▁public	-8.81474
▁loss	-8.81486
▁body	-8.8165
▁mineral	-8.81657
▁dollar	-8.81676
▁2017.	-8.81842
▁climate	-8.81939
▁department	-8.82177
▁develop	-8.822
▁2023,	-8.82305
▁followed	-8.8241
▁suppliers	-8.82611
▁conference	-8.82703
▁vice	-8.82716
▁activities	-8.82758
▁sheets	-8.83149
▁transportation	-8.83278
▁conditions	-8.83278
mt	-8.83425
▁extrusions	-8.83428
▁ago	-8.83543
▁above	-8.83894
▁fully	-8.83917
▁2024,	-8.83977
▁source	-8.84762
▁almost	-8.84898
▁investments	-8.85277
▁core	-8.8533
▁received	-8.85398
▁grew	-8.85422
▁russian	-8.86137
▁businesses	-8.86464
▁reference	-8.86642
▁recyclable	-8.86733
▁slightly	-8.87233
▁looking	-8.87417
▁get	-8.87423
quality	-8.87566
&	-8.87731
▁powder	-8.8787
▁continues	-8.87904
▁unchanged	-8.87962
▁includes	-8.88347
▁city	-8.88418
▁bottles	-8.88427
▁generation	-8.88749
7	-8.88795
▁signed	-8.88924
▁improved	-8.89328
▁index	-8.89462
▁yet	-8.89713
▁measures	-8.89743
▁boost	-8.89836
▁tax	-8.89876
▁orders	-8.90011
▁worldwide	-8.90077
▁zero	-8.90108
w	-8.9024
▁initiatives	-8.90291
▁strength	-8.90383
▁auto	-8.90506
▁progress	-8.90613
6	-8.90687
▁achieved	-8.90747
▁heat	-8.90765
▁enhance	-8.9096
▁community	-8.91028
▁union	-8.91126
▁2025,	-8.91154
▁covid	-8.91212
▁built	-8.91269
▁reached	-8.91282
▁2019.	-8.91334
▁2019,	-8.91583
▁2022,	-8.91602
▁trump	-8.91636
▁'	-8.91861
▁duty	-8.91992
▁v	-8.92021
▁goods	-8.92091
▁ebitda	-8.92227
▁award	-8.92263
▁partner	-8.92492
▁series	-8.925
▁throughout	-8.92589
▁segment	-8.92686
▁re	-8.92967
▁located	-8.9299
▁again	-8.93045
▁model	-8.9305
▁offering	-8.93234
▁indonesia	-8.93288
▁provides	-8.93318
▁single	-8.93356
▁2018,	-8.93405
▁program	-8.93421
▁natural	-8.93544
▁comes	-8.93766
▁possible	-8.93767
▁clean	-8.93841
▁glass	-8.94148
▁cutting	-8.94472
▁deliver	-8.94735
▁2021.	-8.94855
▁middle	-8.94982
▁life	-8.95241
▁venture	-8.95243
▁globally	-8.95311
▁acquisition	-8.9557
▁shows	-8.95671
▁2020,	-8.96101
▁moving	-8.96488
▁far	-8.96495
▁foshan	-8.96585
▁able	-8.9662
▁stewardship	-8.96638
▁good	-8.96873
▁surge	-8.96927
▁coming	-8.96976
▁subsidiary	-8.97073
▁minerals	-8.97163
▁weight	-8.97178
▁small	-8.97228
▁oil	-8.97249
▁going	-8.97283
▁target	-8.97409
▁witnessed	-8.9763
▁portfolio	-8.97869
▁ongoing	-8.97994
it	-8.9801
▁benefits	-8.98071
▁few	-8.98157
▁billets	-8.98168
▁expects	-8.98248
▁mainly	-8.98346
8	-8.98392
▁de	-8.98408
▁2016.	-8.98472
▁hangzhou	-8.98492
▁programme	-8.98504
▁fourth	-8.98588
▁study	-8.98668
▁pounds	-8.9877
▁space	-8.98869
▁special	-8.99007
▁ingots	-8.99057
▁circle	-8.99267
▁great	-8.99346
▁opportunity	-8.99539
▁premiums	-8.99564
▁once	-8.99787
▁nation	-8.99909
▁platform	-8.9993
▁approach	-9.00183
▁completed	-9.00209
▁delivery	-9.00247
▁malaysia	-9.00422
▁published	-9.00434
▁developing	-9.00518
▁terms	-9.00711
▁point	-9.0083
▁mexico	-9.00841
▁digital	-9.00984
▁primarily	-9.01051
▁resource	-9.01067
▁cars	-9.01294
▁daily	-9.01395
grade	-9.01402
▁70	-9.01532
▁side	-9.01553
▁stable	-9.0157
▁biggest	-9.01683
▁statement	-9.01699
▁council	-9.017
▁west	-9.01939
▁anode	-9.02055
▁member	-9.02182
▁different	-9.02278
▁senior	-9.02589
▁multi	-9.02633
▁food	-9.02742
▁profiles	-9.02774
▁committed	-9.02877
▁emirates	-9.02915
▁rest	-9.0299
▁gongyi	-9.03157
▁members	-9.03482
▁r	-9.03994
▁reports	-9.04039
▁ahead	-9.04042
▁shandong	-9.0409
-19	-9.04144
▁main	-9.04183
▁expertise	-9.04259
▁volumes	-9.04263
▁w	-9.04555
▁features	-9.04557
▁worth	-9.04647
▁show	-9.04683
▁buyers	-9.04826
▁issues	-9.04877
▁2017,	-9.04939
▁allow	-9.04961
▁creating	-9.04968
▁constellium	-9.05034
▁chongqing	-9.05079
▁highly	-9.05306
▁rod	-9.05561
▁pre	-9.05569
▁transport	-9.05707
▁present	-9.05708
▁known	-9.05729
▁put	-9.05756
▁complete	-9.06202
▁crucial	-9.06356
usd	-9.06574
▁b	-9.06623
▁transformation	-9.06648
▁mt	-9.06658
for	-9.0668
▁unique	-9.06714
▁tianjin	-9.06737
▁bring	-9.06932
▁expenditure	-9.06946
▁given	-9.07115
▁comprehensive	-9.07133
▁regions	-9.07217
▁post	-9.07441
traded	-9.07561
▁shift	-9.07575
▁contribute	-9.07676
▁efficient	-9.07693
r	-9.0773
9	-9.08065
▁factory	-9.08086
▁henan	-9.08123
▁contracts	-9.08327
▁go	-9.08366
▁province	-9.08475
▁forecast	-9.0879
▁air	-9.088
▁survey	-9.0894
▁established	-9.08948
▁workers	-9.0914
▁requirements	-9.0922
▁release	-9.09259
▁until	-9.09527
▁successfully	-9.09539
▁land	-9.09582
▁income	-9.0964
▁your	-9.0974
▁wheels	-9.09868
▁capabilities	-9.09887
▁storage	-9.09956
▁required	-9.09976
▁content	-9.10091
▁vision	-9.10262
▁especially	-9.10324
▁particularly	-9.10458
▁semi	-9.10538
▁own	-9.11124
▁driving	-9.11259
▁robust	-9.11732
—	-9.1192
▁consecutive	-9.11924
▁released	-9.11942
▁times	-9.12169
ensuring	-9.12318
▁80	-9.12335
▁goal	-9.12447
▁regional	-9.1248
▁leadership	-9.12512
▁scale	-9.12771
▁eight	-9.12784
12	-9.1279
▁dr	-9.13055
q	-9.13062
0	-9.13203
▁outlook	-9.13212
with	-9.13299
▁investors	-9.13803
▁adjusted	-9.13863
▁final	-9.14109
▁success	-9.14149
▁panels	-9.14151
▁•	-9.14293
▁goals	-9.14316
▁cast	-9.14409
▁head	-9.14464
▁milestone	-9.14629
▁die	-9.14666
▁overnight	-9.14746
and	-9.14927
▁200	-9.14967
▁26	-9.1518
▁competitive	-9.15193
▁achieving	-9.15339
▁plates	-9.15718
▁amid	-9.1579
▁batteries	-9.15792
▁essential	-9.16074
?	-9.16363
▁metric	-9.16484
▁additionally	-9.16549
▁stake	-9.16551
▁hit	-9.16576
▁bank	-9.16815
▁western	-9.16816
▁must	-9.1683
▁collection	-9.16949
▁mill	-9.17005
▁assets	-9.17127
▁university	-9.17306
▁century	-9.17391
▁annually	-9.17496
▁2016,	-9.17509
356)	-9.17521
▁created	-9.17554
▁linyi	-9.17831
▁maintenance	-9.17837
▁foreign	-9.17905
▁substantial	-9.18147
▁supported	-9.18165
▁complex	-9.18284
▁duties	-9.18439
▁taking	-9.18514
as	-9.18584
▁proposed	-9.18841
▁reportedly	-9.18903
▁structure	-9.18914
our	-9.19067
▁gained	-9.19113
▁although	-9.19197
▁yesterday	-9.19242
▁metro	-9.19322
▁coffee	-9.19383
▁beyond	-9.19384
▁players	-9.19464
▁supplies	-9.19719
▁expanded	-9.19788
▁case	-9.1991
▁news	-9.20046
▁hydrogen	-9.20073
▁steady	-9.20336
▁cuts	-9.204
▁protection	-9.20646
▁purchase	-9.20694
▁invest	-9.20817
▁france	-9.20879
▁expanding	-9.21138
▁successful	-9.21205
▁lines	-9.21282
▁aim	-9.21319
▁marks	-9.21406
▁makes	-9.21541
▁concerns	-9.21611
▁manufacture	-9.21671
▁home	-9.21786
▁pandemic	-9.21944
▁explore	-9.21953
▁surged	-9.22203
▁subject	-9.22372
▁iron	-9.22571
▁points	-9.22741
end	-9.2286
▁original	-9.22877
▁related	-9.22989
▁application	-9.23018
owned	-9.23077
▁90	-9.23218
▁2023.	-9.23315
▁corporate	-9.23534
▁account	-9.2356
▁commission	-9.23571
▁supporting	-9.23651
▁taken	-9.23706
▁resistance	-9.23957
▁wide	-9.23979
▁projected	-9.24014
▁s	-9.2412
▁commodity	-9.24887
▁traditional	-9.24934
▁risk	-9.25043
▁remaining	-9.25188
bid	-9.25292
▁administration	-9.25383
▁automobile	-9.25396
p	-9.25437
▁security	-9.25459
▁improvement	-9.25613
▁direct	-9.25683
▁stage	-9.25803
▁reaching	-9.25804
▁overseas	-9.25813
▁pricing	-9.26031
▁modern	-9.26192
▁korea	-9.26236
▁usage	-9.26746
▁though	-9.26802
▁lowest	-9.26921
▁fiscal	-9.27049
▁changes	-9.27103
▁gains	-9.27118
▁establish	-9.27273
▁2015.	-9.273
▁targets	-9.27313
▁free	-9.27333
▁weak	-9.27387
▁sanctions	-9.27395
▁having	-9.27508
▁am	-9.2752
▁—	-9.27559
▁response	-9.27679
▁provided	-9.27719
▁here	-9.27727
▁return	-9.27758
▁recycle	-9.27775
▁health	-9.27822
▁planned	-9.27867
▁right	-9.28199
▁benefit	-9.28203
▁resulting	-9.28211
by	-9.28363
▁extended	-9.28368
▁initial	-9.28502
▁surface	-9.28595
▁run	-9.28711
▁park	-9.28736
▁action	-9.28815
▁c	-9.28986
▁crude	-9.28987
▁climbed	-9.29131
▁2022.	-9.29243
▁nine	-9.29271
▁marking	-9.29305
▁proud	-9.29319
▁red	-9.29334
▁purity	-9.29523
▁organisation	-9.29557
▁planning	-9.29791
▁form	-9.29792
▁usa	-9.29833
▁mid	-9.29848
▁secure	-9.29849
adc	-9.30107
▁excellence	-9.30246
week	-9.30438
▁solid	-9.3044
▁commerce	-9.30489
▁sale	-9.30718
▁eco	-9.30749
▁produces	-9.3093
▁situation	-9.30934
▁combined	-9.31099
▁dedicated	-9.31536
▁shenyang	-9.31609
▁noted	-9.3168
▁ev	-9.31874
▁heavy	-9.31924
▁clear	-9.32283
▁halt	-9.32332
▁continuous	-9.32364
▁customs	-9.324
▁properties	-9.32455
▁machine	-9.32509
▁beginning	-9.32533
12)	-9.32535
▁address	-9.32619
▁issue	-9.32804
▁rods	-9.32982
▁extruded	-9.3309
▁wind	-9.33105
▁28	-9.33323
▁italy	-9.33479
▁pay	-9.33688
▁doors	-9.33793
▁might	-9.33902
▁night	-9.34016
▁big	-9.34025
▁thousand	-9.34144
▁shanxi	-9.34184
▁2024.	-9.34381
▁introduced	-9.34446
▁scheme	-9.34466
▁extensive	-9.34542
▁effective	-9.34606
ve	-9.3469
▁27	-9.34702
▁finance	-9.34882
▁anti	-9.34973
▁selling	-9.35006
▁journey	-9.35025
▁anticipated	-9.35142
▁bin	-9.35182
▁previously	-9.35253
▁refineries	-9.35513
▁independent	-9.35808
▁uses	-9.36066
▁delivered	-9.36133
▁marketing	-9.36361
▁2014	-9.36554
excluding	-9.36632
▁downfall	-9.36645
▁strengthen	-9.36752
▁items	-9.36761
▁focused	-9.3678
▁session	-9.36881
▁hpa	-9.37309
▁etc	-9.37488
▁lithium	-9.37628
▁factors	-9.37707
▁revealed	-9.37777
▁she	-9.37836
▁review	-9.37895
▁yuan	-9.37938
▁sentiment	-9.3795
▁technological	-9.38075
▁transaction	-9.38099
▁annum	-9.38105
▁similar	-9.38155
▁sold	-9.38412
edge	-9.3851
▁holding	-9.38711
▁specific	-9.38745
▁enable	-9.38795
▁presence	-9.38833
▁losses	-9.39085
▁mark	-9.39092
▁gain	-9.39187
▁commented	-9.39265
▁experienced	-9.39373
l	-9.39387
▁brands	-9.39508
▁discount	-9.39608
▁shareholders	-9.397
▁options	-9.39767
▁debt	-9.39779
▁containers	-9.3981
▁ghana	-9.39917
▁35	-9.40008
▁giant	-9.40132
▁vital	-9.4026
▁brings	-9.40279
▁multiple	-9.40406
▁2015,	-9.40449
▁experts	-9.40523
▁stakeholders	-9.4056
▁31	-9.40623
▁electrical	-9.4068
▁want	-9.40978
▁face	-9.40981
▁crisis	-9.41011
▁affected	-9.41064
▁un	-9.41066
▁private	-9.41144
▁refining	-9.41171
china	-9.41224
▁network	-9.41363
▁list	-9.41403
▁issued	-9.41658
▁holiday	-9.41818
▁office	-9.41825
▁f	-9.41843
at	-9.41863
▁greater	-9.41933
▁positions	-9.41939
▁house	-9.41939
▁importance	-9.42009
▁falling	-9.42128
▁greenhouse	-9.4245
▁raised	-9.4257
▁seven	-9.42585
▁communities	-9.42688
▁represents	-9.42843
▁division	-9.42863
▁owned	-9.43014
▁150	-9.43076
▁took	-9.43084
▁thus	-9.4314
scale	-9.43171
▁installation	-9.43387
▁ever	-9.43412
▁hard	-9.43853
per	-9.44203
▁leaders	-9.44207
▁1,	-9.44313
▁meanwhile	-9.44328
▁delivering	-9.44409
▁double	-9.44427
▁alcircle	-9.44433
▁expectations	-9.44704
▁japanese	-9.44771
▁grown	-9.44891
g	-9.45016
▁generated	-9.45085
▁finished	-9.45482
▁toward	-9.45565
▁windows	-9.456
▁aircraft	-9.45679
▁indicates	-9.45894
32	-9.46039
▁ability	-9.46056
▁announcement	-9.46483
▁offset	-9.46484
▁implementation	-9.46528
▁directly	-9.46638
friendly	-9.46678
▁later	-9.46737
▁adding	-9.46994
▁does	-9.47123
▁details	-9.47235
b	-9.47258
▁accounted	-9.47261
▁certified	-9.4741
▁engine	-9.47572
▁weekly	-9.47782
▁testing	-9.47806
▁yunnan	-9.47882
▁confirmed	-9.47892
▁maintain	-9.47907
▁means	-9.47975
▁fund	-9.47988
▁visit	-9.48019
▁treatment	-9.48045
ferrous	-9.48089
▁beer	-9.48161
▁t	-9.48252
▁track	-9.48308
▁balance	-9.4842
▁competition	-9.48573
▁common	-9.48604
▁structural	-9.48666
▁shown	-9.48701
▁500	-9.49034
▁input	-9.49164
▁feature	-9.49254
▁serve	-9.49354
▁did	-9.49408
▁test	-9.49409
▁improving	-9.4941
▁2025.	-9.49428
▁pleased	-9.49521
▁bringing	-9.49733
380)	-9.49734
able	-9.49833
▁completion	-9.4996
▁season	-9.49992
▁canadian	-9.50053
▁thermal	-9.50126
▁front	-9.50145
▁flow	-9.50185
▁active	-9.50668
▁holdings	-9.50766
▁continuing	-9.50977
▁installed	-9.5111
▁discounts	-9.51114
▁soon	-9.51328
▁activity	-9.51348
▁committee	-9.51373
▁procurement	-9.5144
▁environmentally	-9.5148
▁campaign	-9.51497
▁huge	-9.51535
▁starting	-9.5156
▁jamaica	-9.51617
▁panel	-9.51757
▁shipment	-9.51856
®	-9.5203
ion	-9.52108
▁plate	-9.52415
+	-9.52456
▁reflects	-9.52481
▁reserves	-9.52483
▁expect	-9.52589
▁29	-9.52706
▁300	-9.52889
▁began	-9.53144
▁analysts	-9.5315
ched	-9.53155
▁act	-9.5326
▁status	-9.53413
added	-9.53434
lme	-9.53588
▁momentum	-9.5361
▁exploration	-9.53612
▁percentage	-9.53617
▁outside	-9.53626
▁allows	-9.53674
▁ready	-9.53691
▁versus	-9.53803
▁date	-9.53951
▁imposed	-9.54044
▁former	-9.54131
▁believe	-9.54146
▁recovered	-9.54231
▁settled	-9.54241
▁policies	-9.54376
▁extend	-9.5446
▁least	-9.54472
▁approval	-9.54542
▁know	-9.54599
▁promote	-9.54759
▁liquid	-9.54866
▁funding	-9.54898
▁x	-9.55132
▁field	-9.55147
▁statistics	-9.5516
▁bars	-9.55168
▁plunged	-9.5519
▁rail	-9.55215
▁whereas	-9.55295
▁sell	-9.55298
▁ford	-9.55331
▁shipping	-9.55346
k	-9.55359
20	-9.55423
▁secured	-9.55425
▁gulf	-9.55535
▁queensland	-9.55731
▁logistics	-9.55749
▁commodities	-9.55926
▁31,	-9.55966
▁setting	-9.56031
▁align	-9.56047
▁motor	-9.56116
▁structures	-9.5642
▁decisions	-9.56461
▁foundry	-9.56522
▁play	-9.56613
▁saudi	-9.5662
▁upcoming	-9.56627
▁speed	-9.56634
▁safe	-9.56635
▁monthly	-9.56686
▁earth	-9.56757
art	-9.56757
▁included	-9.56776
▁scheduled	-9.56937
▁cement	-9.56987
▁itself	-9.57018
▁thanks	-9.57024
class	-9.57101
▁peg	-9.57109
▁45	-9.57142
▁1,000	-9.57228
▁generally	-9.57267
▁regarding	-9.57273
▁adc	-9.57309
▁german	-9.57383
▁marked	-9.57394
▁secretary	-9.57402
▁cooperation	-9.57407
▁exhibition	-9.5741
▁agreed	-9.5741
▁100%	-9.57419
▁fire	-9.57579
▁federal	-9.57599
▁begin	-9.57712
▁add	-9.57956
h	-9.58056
▁2,000	-9.58089
▁choice	-9.58324
▁directors	-9.58344
▁contributing	-9.58496
▁broader	-9.585
.5	-9.58569
▁enhancing	-9.58604
▁road	-9.58644
▁raise	-9.58662
use	-9.58722
finished	-9.58916
▁nok	-9.58959
▁via	-9.58959
asi	-9.58965
▁chemical	-9.59115
▁sourcing	-9.59201
▁upward	-9.59209
▁cable	-9.59352
▁whether	-9.59512
▁lost	-9.59527
▁warehouses	-9.59543
▁note	-9.59578
mounted	-9.59585
▁needed	-9.59621
er	-9.59636
▁deposit	-9.59643
▁sorting	-9.59655
▁wheel	-9.59695
▁pilot	-9.59744
▁valuable	-9.59907
▁fast	-9.60002
▁officials	-9.60095
▁medium	-9.60119
▁highlights	-9.60316
▁dedication	-9.60416
▁furnace	-9.60471
▁decided	-9.60534
▁electronics	-9.60545
▁increasingly	-9.60588
▁ranging	-9.60643
▁training	-9.60654
▁behind	-9.60727
▁slight	-9.60728
▁moreover	-9.60733
▁late	-9.60834
▁window	-9.60887
▁certain	-9.60909
▁foster	-9.60943
▁lighter	-9.60951
▁models	-9.60993
▁machines	-9.61304
▁rare	-9.61431
▁responsibility	-9.61445
▁associated	-9.6156
▁75	-9.61642
▁clock	-9.61672
▁necessary	-9.61856
▁alongside	-9.61969
▁component	-9.62058
▁agency	-9.62068
▁showing	-9.6212
▁alternative	-9.62216
▁downward	-9.62445
▁challenge	-9.62663
▁involved	-9.62707
▁always	-9.62794
▁attributed	-9.62796
new	-9.6284
▁fact	-9.62922
▁guangxi	-9.63111
▁decarbonisation	-9.63113
▁size	-9.63179
▁knowledge	-9.63311
▁provinces	-9.63329
▁corresponding	-9.63415
▁brought	-9.63423
reflecting	-9.6364
▁assessment	-9.63723
x	-9.63727
▁decades	-9.63743
▁operate	-9.63774
▁frame	-9.63807
▁approved	-9.63843
▁expo	-9.6398
▁give	-9.64028
▁ground	-9.64059
▁court	-9.64152
▁machinery	-9.64165
▁peak	-9.64283
▁ramp	-9.64287
▁stay	-9.6449
▁newly	-9.64507
▁upon	-9.64508
▁hold	-9.64718
▁standing	-9.64852
▁district	-9.64905
▁turkey	-9.64913
▁grade	-9.64966
▁awards	-9.65119
▁prior	-9.65121
▁eur	-9.65174
▁metallurgical	-9.65388
▁effort	-9.65444
▁called	-9.65452
▁excellent	-9.65452
▁clients	-9.65469
▁works	-9.65677
▁bar	-9.65758
▁shared	-9.65856
▁cycle	-9.65942
▁accounts	-9.66104
prebaked	-9.66168
▁ma	-9.66217
▁manufactured	-9.66314
▁enterprise	-9.66326
▁distribution	-9.66536
▁firms	-9.6654
▁chemicals	-9.66608
purity	-9.67013
▁officially	-9.67047
▁considering	-9.67076
▁don	-9.67084
▁becoming	-9.67195
▁stronger	-9.67327
▁longer	-9.67328
▁provider	-9.6758
▁generate	-9.67809
▁holds	-9.67835
▁buyer	-9.67877
▁concluded	-9.67956
▁calculation	-9.67977
▁contribution	-9.67981
▁maintaining	-9.68198
▁ten	-9.68252
▁advantage	-9.68308
▁enhanced	-9.68415
▁developments	-9.68474
▁sites	-9.68543
▁jharsuguda	-9.68607
▁d	-9.68699
▁restrained	-9.68722
▁caused	-9.68865
▁closure	-9.68882
▁iran	-9.68954
▁comparison	-9.68981
▁contributed	-9.69051
▁update	-9.69239
▁participants	-9.6925
▁dubai	-9.69277
▁defence	-9.69386
▁sharp	-9.69416
▁diverse	-9.69607
▁regulatory	-9.69833
▁1.5	-9.69907
▁declared	-9.69948
f	-9.69975
▁upstream	-9.70077
dumping	-9.70118
▁corp	-9.70182
▁availability	-9.70184
▁hours	-9.70247
▁prime	-9.70386
▁hub	-9.70424
▁smart	-9.70575
▁tight	-9.70589
▁whole	-9.70629
an	-9.70695
intensive	-9.70806
▁p	-9.70885
▁productivity	-9.70961
▁representing	-9.7105
▁amag	-9.71133
▁too	-9.71149
▁30,	-9.71289
▁mechanical	-9.71291
▁dipped	-9.71412
▁vietnam	-9.71421
▁considered	-9.71465
50	-9.71504
▁helping	-9.71517
▁authorities	-9.71528
▁edition	-9.71675
▁excited	-9.71756
▁closely	-9.71757
▁example	-9.71843
▁therefore	-9.71878
▁traders	-9.71985
▁printing	-9.72061
▁emerging	-9.72105
▁moved	-9.7212
▁governance	-9.72217
▁investing	-9.72571
▁rm	-9.72607
▁updated	-9.72632
▁aerosol	-9.72783
▁nations	-9.72906
▁hope	-9.72956
▁hot	-9.7304
▁emission	-9.73136
▁joined	-9.73216
▁mixed	-9.7323
▁chalco	-9.73232
▁impressive	-9.73234
▁accounting	-9.73249
▁movement	-9.73253
▁employment	-9.73257
▁fob	-9.73264
▁decade	-9.73273
▁acquired	-9.73306
▁discussions	-9.73312
▁users	-9.73604
▁turn	-9.73675
▁reflect	-9.73733
▁landscape	-9.73765
▁ambitious	-9.73956
▁job	-9.74026
▁increases	-9.74243
▁capral	-9.74326
▁grid	-9.74459
▁challenging	-9.7466
free	-9.74868
▁reuters	-9.74895
▁told	-9.74943
▁cables	-9.74974
▁actively	-9.75036
▁margins	-9.75183
▁mw	-9.75191
▁slipped	-9.75246
▁operates	-9.75264
▁precision	-9.7531
▁center	-9.75475
▁buy	-9.75569
▁offered	-9.75646
▁reflected	-9.75924
▁austria	-9.75958
▁facing	-9.75987
▁purchasing	-9.76083
▁protect	-9.76117
▁enabling	-9.76199
▁weeks	-9.7621
alba	-9.76284
▁chains	-9.76363
▁kingdom	-9.76557
▁financing	-9.7656
▁paper	-9.766
▁2030	-9.76642
▁underscore	-9.76819
▁equity	-9.76819
▁highlighted	-9.76873
▁introduce	-9.769
▁till	-9.76928
▁authority	-9.77041
▁done	-9.77133
▁automakers	-9.77136
▁valued	-9.77203
▁went	-9.77239
▁workforce	-9.77404
▁alliance	-9.77456
▁credit	-9.77548
▁confidence	-9.77646
▁fair	-9.77677
▁restrictions	-9.7769
▁encourage	-9.77707
▁understanding	-9.7777
▁$	-9.77897
▁lot	-9.77941
▁dynamics	-9.77942
▁stop	-9.77997
▁alunorte	-9.78016
▁pace	-9.78061
▁framework	-9.78072
▁self	-9.78151
▁transmission	-9.78179
▁conducted	-9.78182
mm	-9.78222
▁competitiveness	-9.78257
▁old	-9.78267
▁why	-9.78387
▁elements	-9.7849
v	-9.78797
▁silicon	-9.78858
▁surplus	-9.7886
▁corrosion	-9.78874
▁media	-9.7947
▁organization	-9.7954
▁investigation	-9.79558
▁maximum	-9.79604
▁integration	-9.79604
▁creation	-9.79683
▁regulations	-9.79776
▁fresh	-9.79923
▁her	-9.79985
▁consolidated	-9.79992
▁ratio	-9.80002
▁paid	-9.80029
▁spread	-9.80101
▁county	-9.80111
▁option	-9.8017
million	-9.80183
▁mud	-9.80293
▁foundation	-9.8044
▁flagship	-9.80482
▁profile	-9.80748
▁mostly	-9.8086
▁carried	-9.80861
▁bottle	-9.80881
▁designs	-9.80887
tonne	-9.80905
▁3,000	-9.80954
quarter	-9.81031
▁besides	-9.8105
▁running	-9.81127
▁audit	-9.81153
▁deep	-9.81216
▁norway	-9.81229
▁g	-9.81421
▁row	-9.8144
largest	-9.81476
▁quarterly	-9.81476
▁relatively	-9.81482
▁n	-9.81514
price	-9.81514
▁commissioning	-9.81604
▁promoting	-9.81608
▁boast	-9.81845
▁receive	-9.81876
▁container	-9.81884
▁section	-9.81998
▁renowned	-9.81999
edged	-9.82079
▁greener	-9.82159
▁others	-9.82322
▁easy	-9.8237
▁ai	-9.82451
▁location	-9.82489
zero	-9.82494
▁pollution	-9.82499
▁supplied	-9.82507
nalco	-9.82513
▁online	-9.82562
▁transactions	-9.82578
over	-9.8263
▁spain	-9.82631
▁furthermore	-9.82634
▁chart	-9.82635
▁ban	-9.82702
▁rapid	-9.82709
▁bharat	-9.82753
▁push	-9.82821
▁difficult	-9.8284
▁accurate	-9.82851
▁mission	-9.83008
▁18,	-9.83105
▁internal	-9.83111
▁enough	-9.83131
▁little	-9.83134
▁package	-9.83157
▁bureau	-9.83259
▁unveiled	-9.83301
▁particular	-9.83492
▁advancing	-9.83514
▁norsk	-9.83519
▁arabia	-9.83629
▁exceptional	-9.83761
▁altech	-9.83814
▁mix	-9.83868
▁coating	-9.83953
▁modifications	-9.84089
▁user	-9.84142
▁reliable	-9.84158
▁retail	-9.84194
▁collected	-9.84462
▁implemented	-9.8461
▁railway	-9.84831
▁automation	-9.85071
▁supports	-9.85164
▁expressed	-9.85234
▁larger	-9.85245
▁crown	-9.85393
▁drops	-9.85409
▁ultra	-9.85592
▁additive	-9.85626
▁guizhou	-9.85727
se	-9.85823
▁northern	-9.8586
party	-9.85877
▁120	-9.86096
▁largely	-9.86208
▁rights	-9.86279
▁cells	-9.86321
▁shipped	-9.86384
▁science	-9.86567
▁l	-9.86691
▁slow	-9.86729
▁ideal	-9.86775
▁highlight	-9.8678
performance	-9.86885
▁exporter	-9.86916
▁labour	-9.87053
▁supplying	-9.87095
▁pro	-9.87299
▁concern	-9.87472
▁finally	-9.87495
▁follows	-9.87514
▁tubes	-9.87658
▁stability	-9.87721
▁edits	-9.87849
▁pivotal	-9.87857
▁save	-9.87914
▁250	-9.87922
▁zinc	-9.87997
▁explained	-9.87997
▁strengthening	-9.88066
▁eastern	-9.88077
▁fluoride	-9.88122
▁human	-9.8816
▁achievement	-9.88322
▁attention	-9.88391
▁acquire	-9.8843
▁plunge	-9.88538
▁cell	-9.8864
▁marine	-9.88666
▁require	-9.88668
▁join	-9.88752
▁castings	-9.88784
▁residue	-9.88878
▁family	-9.88935
▁accelerate	-9.88947
owing	-9.88957
▁geological	-9.89201
▁instead	-9.8921
▁worked	-9.89228
▁category	-9.89347
▁away	-9.89382
▁republic	-9.89471
▁lakh	-9.89549
▁entered	-9.89559
▁risks	-9.89598
▁resilience	-9.89612
▁notable	-9.89739
▁estimates	-9.89776
▁won	-9.89788
▁square	-9.89912
▁cover	-9.89986
▁oman	-9.8999
▁gränges	-9.90029
▁joining	-9.90106
▁monitoring	-9.90132
▁force	-9.90149
▁view	-9.90226
▁declines	-9.90268
▁rather	-9.90301
▁display	-9.90307
▁gdp	-9.90328
▁effectively	-9.90346
▁declining	-9.90437
▁seller	-9.90685
▁advance	-9.90754
▁scope	-9.9098
▁player	-9.91101
▁architectural	-9.91132
▁investor	-9.91245
▁history	-9.91266
▁perfect	-9.91293
▁asset	-9.91454
▁presented	-9.91478
▁invested	-9.91641
▁concept	-9.9167
▁appointed	-9.91713
▁white	-9.91731
▁400	-9.91752
▁say	-9.91823
▁rules	-9.91831
▁arm	-9.91891
▁maker	-9.91981
▁abu	-9.92023
▁negotiations	-9.92118
▁dross	-9.92254
▁seeking	-9.92385
▁faced	-9.9249
▁claims	-9.9263
global	-9.92688
▁reserve	-9.92718
▁helps	-9.92768
▁care	-9.92782
▁netherlands	-9.92852
▁ali	-9.92887
▁household	-9.92937
▁recognition	-9.92953
▁19,	-9.92971
▁african	-9.93017
▁events	-9.93062
▁jumped	-9.93152
▁buying	-9.932
▁dip	-9.9323
10	-9.93318
▁charge	-9.93331
▁ex	-9.93357
▁drinks	-9.93379
▁mm	-9.93773
▁profits	-9.93803
▁nickel	-9.93816
▁initiated	-9.93844
its	-9.93906
▁talks	-9.93909
▁consistent	-9.93925
▁drink	-9.93939
▁remarkable	-9.93943
▁block	-9.94085
▁custody	-9.94097
▁edge	-9.94355
▁society	-9.94371
▁durability	-9.94372
▁profitability	-9.94523
▁agreements	-9.94531
▁path	-9.94697
▁shape	-9.94789
▁sea	-9.94879
▁variety	-9.94946
▁aiming	-9.94959
▁gold	-9.94975
▁researchers	-9.95011
▁conventional	-9.95079
30	-9.95132
▁reduces	-9.95229
▁gmbh	-9.95387
▁door	-9.95408
st	-9.95412
▁flexible	-9.9555
▁think	-9.95617
▁segments	-9.95775
▁british	-9.95818
▁passenger	-9.95991
▁zone	-9.96152
▁2026	-9.96249
▁ukraine	-9.96335
▁electrolytic	-9.96404
▁proposal	-9.96585
▁figures	-9.96612
▁exciting	-9.96695
▁external	-9.96965
▁sapa	-9.97002
▁makers	-9.9701
▁composite	-9.97035
▁typically	-9.97141
ega	-9.97172
▁impacted	-9.97256
▁dhabi	-9.97429
▁property	-9.97432
▁arconic	-9.97442
▁implementing	-9.9745
▁outstanding	-9.97455
▁helped	-9.97494
▁resulted	-9.97508
▁balco	-9.97517
▁truck	-9.97553
▁break	-9.9768
▁takes	-9.97681
▁shortage	-9.97796
▁listed	-9.97867
▁enables	-9.97961
▁effects	-9.97996
▁delighted	-9.98028
25	-9.98066
▁10%	-9.98067
▁temperature	-9.9808
▁residents	-9.9812
▁savings	-9.9818
▁55	-9.982
▁manufactures	-9.98245
▁often	-9.98292
▁zealand	-9.98322
▁majority	-9.98329
▁reporting	-9.98397
▁bmw	-9.98487
▁friendly	-9.98503
▁method	-9.98528
▁2030.	-9.98533
▁equivalent	-9.98559
consumer	-9.98596
▁nature	-9.98629
▁hiked	-9.98689
”.	-9.98719
▁negative	-9.98754
tech	-9.98767
▁gradually	-9.98778
▁50%	-9.98799
▁uncertainty	-9.98922
▁assembly	-9.98927
▁budget	-9.99051
▁locations	-9.99229
▁chassis	-9.99234
▁actions	-9.99254
▁follow	-9.99445
▁prominent	-9.99497
▁enter	-9.99528
▁funds	-9.99553
▁innovations	-9.99597
▁call	-9.99618
▁impose	-9.99628
▁margin	-9.99912
▁figure	-9.99942
▁cities	-9.99976
▁prevent	-10.0002
from	-10.0005
▁advantages	-10.0007
▁95	-10.0008
▁strategies	-10.0012
▁requires	-10.002
▁charging	-10.0029
▁smaller	-10.003
extremely	-10.0043
▁parties	-10.0043
▁sets	-10.0049
▁steps	-10.0052
▁concerned	-10.0053
”,	-10.0055
▁dual	-10.0059
▁named	-10.0066
▁lack	-10.0069
getting	-10.0073
▁jiangsu	-10.0074
▁rs	-10.0077
production	-10.0115
▁guangdong	-10.012
▁alro	-10.0123
▁capacities	-10.0135
▁name	-10.0137
▁ports	-10.0142
▁immediate	-10.0148
▁kaiser	-10.0152
poised	-10.0163
▁32	-10.0164
▁2014.	-10.0166
▁ship	-10.017
▁founded	-10.0174
▁featuring	-10.0183
▁matter	-10.0208
▁superior	-10.0212
▁improvements	-10.0224
▁hong	-10.0239
▁course	-10.0254
▁reason	-10.026
▁110	-10.026
▁st	-10.0264
▁ending	-10.0273
▁giving	-10.0306
▁commenting	-10.0316
▁awareness	-10.0337
▁flexibility	-10.0337
▁capture	-10.0348
▁analyst	-10.0349
▁rating	-10.0351
▁roughly	-10.0353
▁arab	-10.036
▁2.5	-10.0362
▁esg	-10.0362
▁loan	-10.0367
▁plus	-10.0374
▁transfer	-10.0381
▁specifically	-10.04
▁depend	-10.041
▁demands	-10.0412
▁sharply	-10.0419
▁bike	-10.0422
▁1.2	-10.0429
▁grows	-10.0443
▁weekend	-10.0447
▁affect	-10.0449
▁demonstrates	-10.0452
▁cold	-10.0471
▁oxide	-10.0478
▁york	-10.0479
▁mentioned	-10.0483
data	-10.0488
▁upgrade	-10.0503
▁turnover	-10.0512
▁initially	-10.0516
efficient	-10.0519
▁methods	-10.052
▁war	-10.0523
aimed	-10.0526
▁cargo	-10.0526
▁noranda	-10.0527
▁thailand	-10.0545
▁feasibility	-10.0549
▁grant	-10.0556
▁room	-10.0556
▁forum	-10.0557
▁ways	-10.0558
▁apple	-10.056
▁exporters	-10.0573
▁sluggish	-10.0575
▁facilitate	-10.0588
▁rebound	-10.0593
▁65	-10.0605
▁deliveries	-10.0623
related	-10.0625
▁signs	-10.0626
indicating	-10.0639
▁forecasts	-10.064
▁purpose	-10.0642
▁mobility	-10.0647
▁my	-10.0666
▁bd	-10.067
▁recap	-10.0678
▁equipped	-10.0691
▁hybrid	-10.0707
▁10,000	-10.0716
▁ownership	-10.0721
▁utilisation	-10.0722
▁shut	-10.0723
▁recognised	-10.0726
▁handling	-10.0737
▁representatives	-10.0738
▁awarded	-10.0749
▁processed	-10.0754
▁rapidly	-10.0756
▁either	-10.0762
▁southern	-10.077
▁summit	-10.077
▁detailed	-10.0807
▁revenues	-10.0809
▁donald	-10.0835
▁vessel	-10.0839
▁leverage	-10.0846
green	-10.0849
▁$1	-10.0857
▁k	-10.0863
▁type	-10.0863
▁contrast	-10.0866
▁website	-10.087
▁70%	-10.087
▁strip	-10.0873
rolled	-10.0874
▁limit	-10.088
▁john	-10.0885
▁130	-10.0897
▁difference	-10.0905
▁colour	-10.0909
▁rebounded	-10.091
▁actual	-10.0911
!	-10.0926
▁2014,	-10.0928
▁tools	-10.0929
▁trucks	-10.0929
▁travel	-10.0945
▁black	-10.095
coupled	-10.0957
▁furnaces	-10.096
▁ceremony	-10.0968
▁ardagh	-10.0986
▁exceed	-10.0987
▁launches	-10.0993
▁criteria	-10.1001
▁participation	-10.1002
es	-10.1002
▁unwrought	-10.1002
▁potentially	-10.1016
▁economies	-10.1018
▁40%	-10.102
▁blocks	-10.1035
▁combination	-10.1041
▁wine	-10.1049
▁backed	-10.105
▁records	-10.1051
aden	-10.1053
▁impacts	-10.1057
▁strips	-10.1065
▁wall	-10.1066
▁luxury	-10.1069
▁33	-10.1099
▁extra	-10.1102
▁weaker	-10.1105
▁him	-10.1112
▁28,	-10.1113
▁deposits	-10.1131
▁15,	-10.1131
▁favourable	-10.1137
▁showcase	-10.1138
▁cross	-10.114
llowing	-10.114
preliminary	-10.115
▁adoption	-10.1154
▁touch	-10.1155
▁12,	-10.1159
▁met	-10.1161
▁links	-10.1179
▁confident	-10.1185
▁link	-10.1186
▁kentucky	-10.1188
▁objective	-10.1194
▁train	-10.1195
▁owners	-10.1196
▁shareholder	-10.1196
▁cause	-10.1204
▁notably	-10.1205
▁en	-10.1205
▁soared	-10.1206
▁headquartered	-10.1211
▁deficit	-10.1212
▁registration	-10.1213
▁exporting	-10.1215
▁13,	-10.1225
▁device	-10.1231
▁5,000	-10.1231
▁advancements	-10.1235
▁sourced	-10.1246
▁objectives	-10.1247
▁securing	-10.1258
▁cannot	-10.1259
ex	-10.1266
▁addressing	-10.1268
▁melting	-10.1272
▁latter	-10.1273
▁llc	-10.1274
▁gross	-10.1274
ic	-10.1275
▁compliance	-10.1276
▁article	-10.1276
▁aid	-10.1278
cost	-10.1279
▁pt	-10.1286
▁staff	-10.1288
▁money	-10.1291
▁demonstrated	-10.1296
▁sent	-10.1296
▁dynamic	-10.1301
or	-10.1305
▁fabrication	-10.132
▁adds	-10.1324
▁teams	-10.1326
▁faster	-10.1326
▁infinitely	-10.1326
▁owner	-10.134
▁principles	-10.1352
▁morning	-10.136
▁gets	-10.1362
▁expert	-10.1371
▁quickly	-10.1378
▁relationship	-10.1388
▁kong	-10.1394
▁numerous	-10.1395
▁captive	-10.1396
▁gives	-10.1397
▁pointed	-10.1405
▁partnerships	-10.1415
out	-10.142
▁inflation	-10.143
▁art	-10.1445
▁alone	-10.1452
▁individual	-10.1455
▁sports	-10.1456
▁ecosystem	-10.1459
▁iai	-10.1463
▁foils	-10.1463
▁boosting	-10.1468
▁16,	-10.1477
▁maintained	-10.1483
▁factor	-10.1493
▁hongqiao	-10.15
’20	-10.1523
high	-10.1529
▁capsules	-10.1529
▁school	-10.1531
▁physical	-10.1534
▁quebec	-10.1535
▁ireland	-10.1536
▁suitable	-10.1536
▁fallen	-10.1537
19	-10.155
▁round	-10.1557
▁replace	-10.156
▁gap	-10.1566
▁popular	-10.1571
▁custom	-10.1571
▁partially	-10.1589
▁fit	-10.1591
▁alupro	-10.1594
40	-10.1602
▁version	-10.1603
▁ton	-10.1604
▁serves	-10.1607
▁beijing	-10.1607
▁seeing	-10.162
▁freight	-10.1623
▁recover	-10.1623
▁aviation	-10.1625
▁600	-10.1625
▁21,	-10.163
house	-10.1636
▁hills	-10.1638
▁devices	-10.165
▁warrant	-10.1652
1,000	-10.1656
▁guidance	-10.166
▁relevant	-10.166
▁transform	-10.1665
▁selected	-10.1665
▁separate	-10.1666
▁posted	-10.1669
▁14,	-10.167
▁recyclability	-10.1678
▁canyon	-10.1697
▁founder	-10.1697
▁consist	-10.1702
▁really	-10.1707
▁slumped	-10.1719
▁types	-10.1727
▁globe	-10.1731
▁lanjigarh	-10.1732
▁fundamentals	-10.1732
off	-10.1733
▁raising	-10.1751
▁massive	-10.1767
▁suggests	-10.1772
▁believes	-10.1775
▁glencore	-10.1787
▁tense	-10.1791
60	-10.1794
▁disruptions	-10.1799
▁norwegian	-10.1804
▁machining	-10.1823
▁organisations	-10.1824
▁chinalco	-10.1826
▁welding	-10.1828
▁24,	-10.1831
▁engineers	-10.1832
▁6,	-10.1833
▁legal	-10.1839
▁identified	-10.184
▁deputy	-10.1841
▁coast	-10.1852
kg	-10.1853
▁inside	-10.1855
▁moment	-10.1857
▁applied	-10.1859
▁revised	-10.1859
▁implement	-10.1864
14	-10.1872
▁intelligence	-10.1877
6,000	-10.1878
▁tool	-10.1883
▁winter	-10.1887
▁kumar	-10.1894
▁ag	-10.1898
▁4,	-10.1907
▁testament	-10.1913
▁capable	-10.1915
▁motors	-10.1917
▁4,000	-10.1917
▁manage	-10.1924
▁learn	-10.1928
▁quite	-10.1932
▁planet	-10.1933
▁announce	-10.1949
▁poland	-10.1951
▁durable	-10.197
▁hydropower	-10.197
▁station	-10.1971
▁restart	-10.1979
▁nespresso	-10.1988
▁finish	-10.199
▁thank	-10.1991
▁sellers	-10.1993
▁commissioned	-10.1994
▁managed	-10.1996
▁extraction	-10.2025
▁aleris	-10.2026
▁heating	-10.2029
▁covers	-10.2031
▁left	-10.2035
▁11,	-10.2036
▁risen	-10.2042
▁capability	-10.2043
▁qatar	-10.2043
▁widely	-10.2049
▁lease	-10.2057
▁indicated	-10.2065
▁cap	-10.2074
▁soda	-10.2082
▁things	-10.2083
▁optimistic	-10.2099
▁4.0	-10.2117
▁introduction	-10.2118
life	-10.2118
▁frames	-10.2121
▁140	-10.213
▁formed	-10.2132
▁pacific	-10.2146
casting	-10.2151
▁evolving	-10.216
▁2,	-10.2162
▁belgium	-10.2193
user	-10.2199
▁coils	-10.2203
▁welcome	-10.221
▁17,	-10.2212
▁saying	-10.2221
▁semis	-10.2222
▁buildings	-10.2227
▁bodies	-10.2231
▁became	-10.2231
▁serving	-10.2233
▁covering	-10.2243
▁highs	-10.2261
▁summer	-10.2272
▁22,	-10.2284
▁commence	-10.2286
▁letter	-10.229
▁cooling	-10.2295
▁exploring	-10.2307
▁titanium	-10.2308
▁fleet	-10.2313
▁tech	-10.2316
▁party	-10.2322
▁leveraging	-10.2327
line	-10.2327
▁heart	-10.2328
▁23,	-10.2334
▁watch	-10.2339
▁spent	-10.2346
▁doing	-10.2362
▁silver	-10.2363
▁kept	-10.2364
▁class	-10.2364
▁washington	-10.2364
▁virtually	-10.2385
▁engaged	-10.2388
▁interior	-10.239
▁discuss	-10.2393
▁professionals	-10.24
▁volatility	-10.2403
alumina	-10.2403
▁geopolitical	-10.2422
▁marginal	-10.2423
▁proven	-10.2423
▁evs	-10.2429
▁dividend	-10.243
▁placed	-10.2433
▁switch	-10.2453
▁architecture	-10.2467
ml	-10.2468
▁image	-10.2469
▁carry	-10.2479
▁priority	-10.2481
▁extension	-10.2487
▁yacht	-10.2487
▁vessels	-10.2496
▁slower	-10.2501
▁o	-10.2519
▁powered	-10.2522
▁9,	-10.2531
▁36	-10.2546
▁problem	-10.2548
▁bottom	-10.2558
▁chair	-10.2559
co	-10.257
▁heavily	-10.2578
▁auction	-10.2581
▁apart	-10.2587
▁5,	-10.2596
▁rexam	-10.2619
▁26,	-10.2623
▁allowed	-10.2628
21	-10.2631
▁score	-10.2641
▁consider	-10.2656
▁plays	-10.2658
▁kind	-10.2661
▁super	-10.2663
▁7,	-10.2671
▁wider	-10.268
▁closures	-10.2687
▁quoted	-10.2697
▁excess	-10.2698
▁mou	-10.2706
▁5%	-10.2708
▁sees	-10.2715
▁circularity	-10.2717
▁jump	-10.2718
▁reliance	-10.2723
▁suspension	-10.2727
▁cater	-10.2736
▁promising	-10.2736
▁employs	-10.274
▁retain	-10.2785
▁34	-10.2786
▁mechanism	-10.2788
▁easily	-10.2796
▁prestigious	-10.2797
▁greece	-10.2797
▁dry	-10.2804
▁transparency	-10.2816
▁border	-10.2818
▁trust	-10.2829
▁warehouse	-10.283
▁forest	-10.2833
▁registering	-10.2835
▁mills	-10.2837
▁gcc	-10.2839
▁contributes	-10.2842
▁table	-10.2849
▁bulk	-10.2854
▁pure	-10.2865
▁studies	-10.2877
▁trial	-10.2877
▁everything	-10.2878
▁plc	-10.2878
▁taxes	-10.2879
▁destinations	-10.2887
▁granted	-10.2888
made	-10.2896
▁8,	-10.2902
there	-10.2902
▁nonferrous	-10.2903
▁demonstrate	-10.2905
▁km	-10.2915
]	-10.2916
▁bhd	-10.2918
▁french	-10.2919
shfe	-10.292
demand	-10.292
▁students	-10.2921
▁euro	-10.2933
▁military	-10.2938
tonnes	-10.2944
▁breakthrough	-10.2953
▁asked	-10.296
▁37	-10.2964
▁shifting	-10.2968
▁game	-10.2975
▁signing	-10.2976
▁27,	-10.2982
▁160	-10.299
▁engagement	-10.2991
▁44	-10.2993
▁reliability	-10.2999
effective	-10.3
▁mass	-10.3001
▁ease	-10.3007
▁completely	-10.3027
▁iceland	-10.304
u	-10.3043
▁intends	-10.3043
▁operators	-10.3049
▁conduct	-10.305
▁electronic	-10.3056
▁automobiles	-10.3057
▁centres	-10.3058
▁soft	-10.3062
▁italian	-10.3064
▁suggest	-10.3066
▁29,	-10.3075
▁host	-10.3096
▁estimate	-10.3133
▁culture	-10.3137
si	-10.3138
▁jointly	-10.3154
▁weather	-10.3162
▁southeast	-10.3163
▁specialist	-10.3165
en	-10.3179
▁changing	-10.3181
▁requirement	-10.3181
▁taweelah	-10.3186
▁gone	-10.3186
▁premier	-10.3192
▁programs	-10.3196
▁20,000	-10.3196
▁positioned	-10.3211
▁emphasised	-10.3213
▁visitors	-10.3213
▁turning	-10.3217
▁pioneering	-10.3219
value	-10.3224
▁safeguard	-10.3224
▁housing	-10.3224
▁finishing	-10.3229
▁resume	-10.3239
long	-10.3244
▁cagr	-10.3253
▁counts	-10.3258
▁[	-10.3271
▁claimed	-10.3274
▁importer	-10.3278
▁seek	-10.3278
▁load	-10.3281
tax	-10.3286
▁taiwan	-10.329
▁direction	-10.3302
▁education	-10.3305
▁normal	-10.3308
▁wish	-10.3311
▁hence	-10.3312
magazine	-10.332
▁rear	-10.3346
▁cases	-10.3349
if	-10.3353
▁molten	-10.3353
▁goes	-10.3355
▁beverages	-10.3363
▁served	-10.3369
third	-10.3378
▁crafted	-10.3386
▁slowdown	-10.3392
▁laboratory	-10.3396
▁prospects	-10.3398
▁180	-10.3406
▁broad	-10.3408
▁craft	-10.3409
▁proportion	-10.3409
▁relations	-10.3411
▁brazilian	-10.3418
strength	-10.3421
▁:	-10.3422
▁continuously	-10.3422
▁sa	-10.3424
▁gaining	-10.3428
▁owns	-10.3429
▁software	-10.3438
▁underlying	-10.3439
▁river	-10.344
▁emerged	-10.3441
▁reasons	-10.3443
▁construct	-10.3445
▁hikes	-10.3446
▁roll	-10.3453
▁possibility	-10.346
▁delivers	-10.3464
▁involves	-10.3467
▁targeted	-10.3474
▁tesla	-10.3481
▁appointment	-10.3481
▁announces	-10.3485
▁20,	-10.3491
▁pot	-10.3494
▁filing	-10.3503
▁marginally	-10.3505
▁gw	-10.3523
▁filed	-10.3525
▁shaping	-10.3526
▁roof	-10.3526
▁pods	-10.3534
▁encouraging	-10.3546
▁currency	-10.3547
making	-10.3551
▁85	-10.356
▁law	-10.3566
▁personal	-10.3568
▁generating	-10.357
▁rely	-10.3571
▁pv	-10.3579
▁architects	-10.3583
▁store	-10.3585
▁sweden	-10.3589
date	-10.3593
level	-10.3595
▁abx	-10.3596
▁wires	-10.3607
▁romania	-10.361
▁agarwal	-10.3611
▁bay	-10.3613
speed	-10.3618
▁delhi	-10.362
17	-10.3628
▁professional	-10.3634
▁pipes	-10.3641
▁learned	-10.3643
▁multinational	-10.3655
▁metres	-10.3655
▁adjustment	-10.3657
▁smooth	-10.3662
led	-10.3667
▁headquarters	-10.3668
▁register	-10.3672
▁island	-10.3673
▁simple	-10.3674
▁concrete	-10.3676
▁magnesium	-10.368
▁got	-10.369
▁macro	-10.3697
▁shredded	-10.3698
▁zhongwang	-10.3698
▁batch	-10.3699
▁skills	-10.3704
▁engines	-10.3705
▁purchased	-10.3718
▁forefront	-10.372
▁ultimately	-10.3722
▁scenario	-10.3724
▁entering	-10.3729
▁attractive	-10.3742
▁jaguar	-10.3743
▁consistently	-10.3745
▁trains	-10.3754
18	-10.3757
▁subsidies	-10.3765
▁interests	-10.3766
▁automated	-10.3766
showcasing	-10.3767
▁values	-10.3773
cola	-10.3783
▁linked	-10.3784
leading	-10.3787
▁coca	-10.3793
▁falls	-10.3807
▁medical	-10.381
▁48	-10.3811
▁entirely	-10.3819
▁temporary	-10.3831
▁interview	-10.3835
▁petroleum	-10.3854
▁observed	-10.3855
▁advancement	-10.3859
▁portion	-10.3861
introducing	-10.3875
▁sizes	-10.3881
▁pick	-10.3896
▁complement	-10.3897
▁daij	-10.3898
▁except	-10.3898
▁halted	-10.3902
▁urged	-10.3922
▁6,000	-10.3933
▁collaborative	-10.3941
▁fed	-10.3958
amidst	-10.3961
▁khalifa	-10.3966
▁predicted	-10.397
▁modules	-10.398
▁yearly	-10.3987
▁(99.99%	-10.3988
▁diversified	-10.3988
▁minimum	-10.3988
▁hands	-10.401
▁saturday	-10.4011
15	-10.4013
▁exceeding	-10.4016
▁closer	-10.4025
▁positioning	-10.4033
▁30%	-10.4039
▁38	-10.4056
▁reinforce	-10.4066
▁thereby	-10.4068
▁driver	-10.4095
▁becomes	-10.4101
▁coronavirus	-10.4102
▁arrivals	-10.411
▁2013	-10.411
▁yield	-10.4122
▁factories	-10.4124
▁memorandum	-10.4124
site	-10.4127
▁232	-10.4137
▁read	-10.4144
100	-10.4147
▁techniques	-10.4148
▁san	-10.4154
▁bullish	-10.4158
▁boat	-10.417
▁communication	-10.418
▁cbam	-10.4187
▁solomon	-10.4193
▁coil	-10.4195
,000	-10.4211
▁immediately	-10.422
▁2050	-10.4221
inch	-10.4237
▁dioxide	-10.4239
▁understand	-10.4252
▁sub	-10.4253
▁southwest	-10.4256
▁toyota	-10.4263
powered	-10.4265
▁cif	-10.4265
▁moves	-10.4267
▁earned	-10.4267
▁sustained	-10.4271
▁tube	-10.4273
▁engineered	-10.4274
▁floor	-10.4279
▁let	-10.4286
▁20%	-10.4294
▁something	-10.431
▁playing	-10.4313
▁focuses	-10.4313
energy	-10.4318
▁practice	-10.4325
▁roadmap	-10.4333
▁fossil	-10.4334
▁jan	-10.4339
back	-10.4339
generation	-10.434
▁presently	-10.4341
▁2030,	-10.4345
▁j	-10.4354
▁federation	-10.4356
▁receiving	-10.4358
▁gfg	-10.4358
▁dumping	-10.4367
▁discussion	-10.437
▁combine	-10.4373
▁egypt	-10.438
rmb	-10.438
▁airbus	-10.4383
▁reveals	-10.4385
▁3,	-10.4385
▁contractors	-10.4386
▁casthouse	-10.4395
▁covered	-10.4397
▁operated	-10.4397
▁vast	-10.4403
▁nanhai	-10.4403
▁looks	-10.4403
▁singapore	-10.4404
▁basic	-10.4404
▁returns	-10.4413
▁town	-10.4422
▁forms	-10.4422
▁minor	-10.4424
▁occurred	-10.4426
▁weigh	-10.4428
▁tiwai	-10.443
▁problems	-10.444
▁forced	-10.444
▁obtain	-10.4443
▁putt	-10.4445
▁scientific	-10.4451
▁locally	-10.4453
▁3.5	-10.4456
▁paul	-10.446
▁scandium	-10.446
▁cheaper	-10.4474
▁mobile	-10.4475
▁consultation	-10.4488
▁begun	-10.4499
▁analysed	-10.4499
▁governments	-10.45
▁1%	-10.4502
▁minimal	-10.451
▁interim	-10.4522
▁attract	-10.4534
▁spokesperson	-10.4545
▁informed	-10.4552
–	-10.4552
▁schedule	-10.4553
▁learning	-10.4562
▁avoid	-10.4569
▁totalling	-10.4571
season	-10.4583
▁please	-10.459
▁2026.	-10.4593
▁relief	-10.4594
▁gupta	-10.4595
▁deals	-10.4603
▁dispute	-10.4604
▁pushing	-10.4609
▁employee	-10.4611
▁turned	-10.4613
▁intensity	-10.4618
▁cleaner	-10.4623
▁speaking	-10.4626
▁me	-10.4632
▁expensive	-10.4642
▁calendar	-10.4642
▁coke	-10.4642
▁residential	-10.4643
▁story	-10.4644
▁lb	-10.4649
▁remove	-10.465
▁entities	-10.4665
▁pradesh	-10.4665
▁women	-10.4667
▁escalated	-10.4668
▁fifth	-10.4669
▁empower	-10.4675
▁practical	-10.4687
▁1.3	-10.4692
▁profitable	-10.4697
▁2%	-10.4697
▁idea	-10.4705
▁contributions	-10.4706
▁threat	-10.4707
▁conservation	-10.4712
▁sought	-10.4714
▁49	-10.4723
▁constructed	-10.4725
▁audi	-10.4727
▁mtpa	-10.4733
▁replacing	-10.4739
▁offshore	-10.4739
▁true	-10.4741
▁tensions	-10.4742
▁inner	-10.4747
▁1.1	-10.4748
▁participate	-10.4749
▁agenda	-10.4753
▁bridge	-10.4754
one	-10.476
▁25,	-10.4761
▁influence	-10.4769
▁feedstock	-10.478
▁cladding	-10.478
▁categories	-10.4787
13	-10.4796
▁lighting	-10.4804
▁sessions	-10.4809
▁unveil	-10.4812
▁cameroon	-10.4812
▁preferred	-10.4813
▁miner	-10.4832
▁experiencing	-10.4836
▁lifted	-10.4844
▁specialised	-10.4846
▁forces	-10.485
▁volatile	-10.4862
▁never	-10.4862
profit	-10.4869
▁employ	-10.4869
▁sole	-10.4874
▁recyclers	-10.4875
▁request	-10.4875
$2	-10.4882
▁extends	-10.4885
▁30,000	-10.4885
$3	-10.4887
▁aligned	-10.4888
▁aspects	-10.4892
▁bus	-10.4906
▁fluctuations	-10.4909
▁trajectory	-10.4911
▁curtain	-10.4911
▁considerable	-10.4911
▁uc	-10.4928
▁reuse	-10.4929
▁350	-10.4934
market	-10.4937
▁reality	-10.4937
▁rangebound	-10.4941
▁blue	-10.4943
▁wholly	-10.496
70	-10.4962
▁rover	-10.4962
16	-10.4975
7,000	-10.4976
▁outcome	-10.4981
▁caustic	-10.4985
▁michael	-10.4986
aluminum	-10.4997
▁170	-10.4997
▁reputation	-10.501
▁miss	-10.5013
▁recording	-10.5013
▁pet	-10.5015
▁forged	-10.5015
▁quick	-10.5026
▁notice	-10.5027
▁boeing	-10.5037
▁4%	-10.5044
▁trying	-10.5045
▁era	-10.505
▁resumption	-10.5056
▁czech	-10.506
▁biodiversity	-10.5061
▁hopes	-10.5062
can	-10.5064
▁political	-10.5066
▁rises	-10.5069
▁affairs	-10.5073
▁adjustments	-10.5082
▁extruders	-10.5083
▁david	-10.5085
▁shop	-10.5086
▁win	-10.5092
▁banks	-10.5096
▁1.6	-10.5106
▁perspective	-10.5108
▁representative	-10.5109
▁demonstrating	-10.5111
5,000	-10.5117
▁faces	-10.5118
▁commenced	-10.5119
growth	-10.5121
▁3%	-10.5121
liquid	-10.5123
▁100,000	-10.5126
▁47	-10.5129
▁assist	-10.513
▁celebrate	-10.5133
▁kalban	-10.5136
▁powerful	-10.5136
▁submitted	-10.5137
▁1,500	-10.5165
▁internationally	-10.5173
▁eliminate	-10.5181
▁graph	-10.5181
▁festival	-10.5186
▁execution	-10.5187
▁mind	-10.5187
▁sohar	-10.5188
▁domestically	-10.5189
ever	-10.52
▁leads	-10.5205
▁fundamental	-10.521
▁saving	-10.5211
▁cathode	-10.5212
▁individuals	-10.522
▁malaysian	-10.5221
▁1.4	-10.5234
▁stations	-10.5237
▁wood	-10.5244
▁assess	-10.5247
east	-10.5248
iai	-10.5252
▁rich	-10.5254
▁chand	-10.5255
▁shed	-10.5259
$1	-10.5261
▁pattern	-10.5264
▁laser	-10.5266
▁minim	-10.5271
india	-10.5274
▁expenses	-10.5281
▁numbers	-10.5282
▁1.8	-10.5284
▁cru	-10.53
▁specifications	-10.53
-150	-10.5301
▁boosted	-10.531
▁establishment	-10.5314
▁causing	-10.5315
▁young	-10.5316
▁sustain	-10.5316
▁switzerland	-10.5316
▁entry	-10.5317
▁seeks	-10.532
▁loop	-10.5326
▁repair	-10.5338
▁proprietary	-10.5341
▁truly	-10.5341
▁groundbreaking	-10.5342
▁25%	-10.5345
▁intended	-10.5347
▁appeal	-10.5364
▁subsequent	-10.5365
▁unwavering	-10.5367
▁electrolysis	-10.5367
▁2020”	-10.5367
▁reynaers	-10.5369
▁findings	-10.5373
▁wait	-10.5387
▁sign	-10.5392
▁element	-10.5403
including	-10.5407
▁bold	-10.5407
▁reverse	-10.5415
▁layer	-10.5417
▁sleek	-10.5418
▁tests	-10.5419
▁principal	-10.542
▁ambition	-10.5421
▁10-	-10.5434
▁enjoy	-10.5435
▁install	-10.5445
▁shutdown	-10.5448
▁strike	-10.5448
▁oems	-10.5459
▁ash	-10.546
loop	-10.5463
▁electrification	-10.5472
▁replacement	-10.5472
▁bags	-10.5474
▁engage	-10.5494
▁700	-10.5498
▁iranian	-10.5498
▁grades	-10.55
▁surrounding	-10.5502
▁identify	-10.5503
inr	-10.5503
▁programmes	-10.5506
ll	-10.5506
▁(99.996%)	-10.5523
▁steadily	-10.5523
▁leaving	-10.5524
▁payment	-10.5529
▁importers	-10.5531
▁anodes	-10.5537
▁levy	-10.555
▁securities	-10.555
▁resilient	-10.5551
▁characteristics	-10.5574
▁artificial	-10.5575
▁integrating	-10.5577
▁elevated	-10.558
▁50,000	-10.5585
=	-10.5589
▁winning	-10.5596
▁offerings	-10.5597
▁curb	-10.5598
▁62	-10.5603
▁consortium	-10.5603
▁xinjiang	-10.5603
▁urban	-10.5604
▁tested	-10.5604
▁rolls	-10.5605
▁resumed	-10.5611
▁connect	-10.5626
▁collect	-10.5629
23	-10.5634
▁feel	-10.5641
▁sure	-10.5647
▁railways	-10.5653
80	-10.5654
▁slump	-10.5658
▁represent	-10.5658
▁organised	-10.5659
▁rally	-10.5664
2,000	-10.5664
▁guarantee	-10.5682
▁permanent	-10.5682
▁straight	-10.5684
▁viable	-10.5685
▁500,000	-10.5688
first	-10.5699
metal	-10.57
▁arrive	-10.5709
▁comprises	-10.5716
▁govt	-10.5716
▁determined	-10.5718
mw	-10.5721
▁healthy	-10.5723
▁strategically	-10.5738
▁spring	-10.5744
september	-10.5753
▁constant	-10.5759
▁collective	-10.5761
▁patent	-10.5762
▁serious	-10.5762
▁6-7	-10.5763
▁apply	-10.5767
▁similarly	-10.5771
▁cheap	-10.5788
▁meters	-10.579
▁platts	-10.5797
▁predicts	-10.5803
sized	-10.5804
▁42	-10.581
▁lowered	-10.582
▁sufficient	-10.5824
▁indirect	-10.583
▁send	-10.584
▁compact	-10.5844
▁affecting	-10.5853
▁disruption	-10.5853
▁jean	-10.5854
▁handle	-10.5865
▁congratulate	-10.5866
▁poor	-10.587
scended	-10.5872
▁easier	-10.5872
▁damage	-10.5874
▁living	-10.5874
▁wales	-10.5878
▁certifications	-10.5884
▁46	-10.5894
▁outbreak	-10.59
▁measure	-10.5902
▁collaborate	-10.5904
▁presentation	-10.5908
▁obtained	-10.591
nd	-10.592
▁overcapacity	-10.5932
▁scientists	-10.5934
▁merger	-10.5936
▁2026,	-10.5954
▁strengthened	-10.5958
▁wants	-10.5962
▁promotion	-10.5962
▁substantially	-10.5963
90	-10.5971
▁stream	-10.5978
▁indigenous	-10.598
▁thrill	-10.5981
▁heightened	-10.5984
▁approvals	-10.5991
▁regular	-10.5995
▁targeting	-10.6004
▁coatings	-10.6008
▁dust	-10.6011
▁tailored	-10.6012
▁adopt	-10.6015
▁monitor	-10.6017
▁module	-10.6021
▁wave	-10.6032
▁cautious	-10.6035
▁virtual	-10.6037
▁utility	-10.6038
▁quarters	-10.6038
▁contact	-10.6039
▁refined	-10.6041
bound	-10.6047
air	-10.6055
▁ghg	-10.6056
▁unlikely	-10.6067
▁200,000	-10.6069
▁photovoltaic	-10.6073
▁efficiently	-10.6075
▁restraint	-10.6076
▁chamber	-10.6077
▁purchases	-10.6084
▁changed	-10.6091
▁minimise	-10.6092
▁listing	-10.6117
▁conductors	-10.6118
▁entity	-10.6121
▁trillion	-10.6122
▁baqali	-10.6123
▁everyone	-10.6124
▁enhances	-10.6125
9,000	-10.6127
ma	-10.613
▁assurance	-10.613
▁tim	-10.6131
▁roles	-10.6136
▁temperatures	-10.6139
▁creates	-10.614
▁li	-10.6148
▁fees	-10.6151
▁thin	-10.6159
▁vertical	-10.6159
▁achievements	-10.6163
▁operator	-10.6165
march	-10.6168
▁pack	-10.617
▁parliament	-10.6172
▁restructuring	-10.6177
▁canned	-10.6179
▁notes	-10.6183
▁ideas	-10.6185
▁exterior	-10.6187
▁façade	-10.6188
▁inspection	-10.6189
▁coaches	-10.6206
3,000	-10.6213
▁commitments	-10.6215
▁connection	-10.6219
▁39	-10.6226
▁situated	-10.6233
▁affordable	-10.6234
▁parent	-10.6234
▁failed	-10.6236
▁strongly	-10.6238
▁2,500	-10.6239
rd	-10.6249
▁fluctuating	-10.6261
▁modest	-10.6263
▁fixed	-10.6265
▁institutions	-10.6276
▁engineer	-10.6278
bauxite	-10.6281
▁reinforcing	-10.629
▁removal	-10.6292
▁wto	-10.6292
▁recognized	-10.6294
▁sri	-10.6303
june	-10.6309
▁quantity	-10.6319
▁800	-10.6319
▁aditya	-10.6319
▁<	-10.632
▁mercedes	-10.632
▁43	-10.6327
▁tender	-10.6332
▁drivers	-10.6338
▁incentives	-10.6341
▁iconic	-10.6348
may	-10.6356
▁utilised	-10.6361
▁lift	-10.6363
▁strive	-10.6372
priced	-10.638
▁$2	-10.6381
▁importing	-10.6387
▁comprising	-10.6405
▁conversion	-10.6405
▁accelerating	-10.6406
▁mitigate	-10.6428
▁simultaneously	-10.6433
▁citing	-10.6434
▁weakened	-10.6437
▁density	-10.6439
▁meaning	-10.6448
▁seems	-10.6451
▁pmi	-10.6455
▁paris	-10.6464
▁attended	-10.6466
▁inalum	-10.6475
▁respect	-10.6476
▁chance	-10.6479
▁ubc	-10.6481
▁constraints	-10.6485
▁expands	-10.6489
▁regard	-10.649
ary	-10.6492
is	-10.6496
▁ships	-10.6501
24	-10.6513
▁bolster	-10.652
▁assistance	-10.6521
▁aligning	-10.6524
▁14,000	-10.6527
▁28.	-10.6532
▁phone	-10.6539
▁flows	-10.6539
▁runs	-10.6541
▁confirms	-10.6545
▁hall	-10.6545
▁seamless	-10.6548
▁fuels	-10.6552
▁sun	-10.6559
▁1.	-10.6562
▁10,	-10.6566
▁regulation	-10.6568
▁stages	-10.6572
▁cumulative	-10.6577
▁settling	-10.6579
▁martap	-10.6585
▁transforming	-10.6585
ev	-10.6589
▁patented	-10.6589
▁plastics	-10.66
▁stringent	-10.6608
▁argentina	-10.6609
▁utilis	-10.6626
▁signals	-10.6626
incorporating	-10.6637
▁manganese	-10.6639
▁priced	-10.6651
▁connected	-10.6651
▁51	-10.6652
▁master	-10.6659
▁processors	-10.6665
▁nigeria	-10.6667
▁significance	-10.6667
▁congress	-10.6667
power	-10.6667
▁indonesian	-10.6677
26	-10.6684
▁estate	-10.6686
hpa	-10.6688
▁fastest	-10.6697
▁stainless	-10.6698
▁underway	-10.6698
▁loading	-10.6702
▁wet	-10.6711
▁street	-10.6717
▁adopting	-10.6719
▁liquidity	-10.6726
▁counter	-10.6736
smm	-10.6742
200	-10.6747
▁severe	-10.6749
▁potline	-10.675
▁ambitions	-10.6754
▁se	-10.6754
▁6%	-10.6755
▁unfair	-10.6756
▁birla	-10.6756
▁sense	-10.6759
▁capacitors	-10.6762
▁specially	-10.6768
▁exhibitors	-10.677
▁conflict	-10.6777
low	-10.6783
▁charges	-10.6784
▁played	-10.6785
▁coalition	-10.6787
▁ii	-10.6802
▁favour	-10.6807
▁demanding	-10.6814
▁extreme	-10.6816
▁legacy	-10.6816
est	-10.6817
▁peter	-10.6819
▁importation	-10.682
▁thousands	-10.6827
▁launching	-10.6832
TM	-10.6836
▁client	-10.6838
▁fiona	-10.6846
▁specialty	-10.6846
▁selection	-10.6847
▁degree	-10.6849
losing	-10.6852
▁amounting	-10.6855
▁delegates	-10.6859
▁suggested	-10.6859
▁witnessing	-10.6866
▁%	-10.6868
▁300,000	-10.6872
▁strict	-10.6874
▁strengthens	-10.6874
▁voluntary	-10.6876
▁spanning	-10.6878
bn	-10.6881
▁15,000	-10.6895
▁shortages	-10.6896
▁select	-10.6897
▁iphone	-10.6898
▁shall	-10.6902
▁shapes	-10.6904
▁context	-10.6906
▁disposal	-10.6906
28	-10.6909
▁mom	-10.6913
▁fluctuate	-10.692
▁hour	-10.6921
▁ocean	-10.6922
▁partnered	-10.6929
▁instance	-10.6931
▁12,000	-10.6931
▁intraday	-10.6937
▁designing	-10.6944
▁miners	-10.6944
▁adopted	-10.6946
▁pressures	-10.6949
▁jv	-10.6956
▁revolution	-10.6956
",	-10.6957
▁comprise	-10.696
▁qatalum	-10.6969
▁exemption	-10.6992
▁evidence	-10.6994
▁california	-10.6996
▁56	-10.7003
▁collaborated	-10.7012
go	-10.7016
▁fine	-10.7018
▁leap	-10.7021
▁keen	-10.7026
▁precise	-10.7026
▁subsidiaries	-10.7028
▁contains	-10.7032
▁returned	-10.7035
▁bearish	-10.7037
▁format	-10.7037
run	-10.7044
electric	-10.7044
▁organic	-10.705
▁intelligent	-10.7058
▁wealth	-10.7058
▁maritime	-10.706
▁witness	-10.706
▁chhattisgarh	-10.7061
▁suspended	-10.7064
▁designers	-10.7065
▁debut	-10.7077
▁displayed	-10.7079
▁landfill	-10.7086
▁procedures	-10.7088
▁diesel	-10.7091
▁usually	-10.7091
▁fewer	-10.7093
▁skilled	-10.7097
▁farm	-10.71
▁guinean	-10.7102
▁spending	-10.7102
world	-10.7106
▁fibre	-10.7114
▁evaluation	-10.7115
▁eventually	-10.7121
wide	-10.7121
▁contracted	-10.7128
▁unlock	-10.7128
▁professor	-10.7144
▁contain	-10.7147
▁comment	-10.7148
▁purposes	-10.7149
▁separation	-10.7151
▁weipa	-10.7151
▁mumbai	-10.7152
▁ytd	-10.7152
▁style	-10.7161
▁hosted	-10.7168
▁6063	-10.7183
▁gujarat	-10.7184
▁pound	-10.7185
▁behalf	-10.719
▁41	-10.7193
▁upgraded	-10.7194
▁speakers	-10.72
▁appropriate	-10.7213
▁bigger	-10.7214
▁furniture	-10.7214
▁unprecedented	-10.7214
▁renewed	-10.7216
▁upgrades	-10.7217
▁optimise	-10.7234
▁2012	-10.7235
".	-10.7236
▁lies	-10.724
▁question	-10.7241
▁emphasis	-10.7243
▁neutrality	-10.7246
▁cleaning	-10.7248
▁alcore	-10.7249
▁drilling	-10.7251
▁honoured	-10.7253
▁64	-10.7256
▁concerning	-10.7262
▁joins	-10.7268
▁promises	-10.7273
▁chosen	-10.7277
▁nationwide	-10.7277
▁designer	-10.7285
▁8,000	-10.7303
▁conglomerate	-10.7303
fy	-10.7304
▁unlike	-10.7308
▁condition	-10.7312
▁shifts	-10.7318
▁drives	-10.7318
▁relationships	-10.7319
▁mined	-10.7334
▁workshop	-10.7337
▁2050.	-10.7347
less	-10.7363
▁exposure	-10.7365
▁stopped	-10.737
▁verified	-10.7372
▁rule	-10.7388
▁finding	-10.7389
fabricated	-10.7396
(	-10.7401
▁57	-10.7406
▁7,000	-10.7418
▁exceeded	-10.7419
▁marketplace	-10.7433
▁technique	-10.7434
▁nuclear	-10.7435
▁forming	-10.7437
▁brewing	-10.7441
▁weakening	-10.7443
▁58	-10.7447
▁controlled	-10.7449
industry	-10.746
▁gac	-10.7464
▁smartphone	-10.7466
▁outdoor	-10.7467
▁combining	-10.7467
▁greenfield	-10.7467
▁brewery	-10.7468
▁perfectly	-10.7471
▁euros	-10.7476
▁deadline	-10.7497
▁bagged	-10.7498
resistant	-10.7525
waste	-10.7525
product	-10.7526
▁pieces	-10.7529
▁downturn	-10.7531
▁prepared	-10.7537
▁bill	-10.754
▁prepare	-10.7544
▁articles	-10.7545
▁priorities	-10.7563
▁muted	-10.7565
▁wanted	-10.7566
▁detail	-10.7566
▁compete	-10.7568
▁employed	-10.7575
▁piece	-10.7586
down	-10.7588
while	-10.7588
▁meets	-10.7594
▁simon	-10.7594
▁michigan	-10.7596
▁attempt	-10.7596
▁2.4	-10.7599
▁samples	-10.7601
▁sharing	-10.7603
▁59	-10.7603
▁0.5	-10.761
recycling	-10.7622
▁micro	-10.7624
▁efficiencies	-10.7627
350	-10.7632
▁pioneer	-10.7632
▁15%	-10.7633
▁welcomed	-10.7638
▁240	-10.764
▁updates	-10.7645
▁extent	-10.766
▁versatile	-10.766
▁widespread	-10.766
▁changzhou	-10.766
▁aughinish	-10.7661
▁constantly	-10.7662
ers	-10.7665
▁starts	-10.7673
▁$5	-10.7681
mou	-10.7689
▁manner	-10.7693
▁metallurgy	-10.7694
▁soil	-10.7694
▁express	-10.7698
▁paint	-10.7699
300	-10.7707
▁compensation	-10.7726
▁contemporary	-10.7726
▁concentrated	-10.773
▁descend	-10.7732
ising	-10.7737
import	-10.7747
hydro	-10.7753
▁indicate	-10.7757
▁interested	-10.7758
▁pots	-10.7758
▁utilization	-10.7759
▁incident	-10.776
▁zhejiang	-10.7761
▁ventures	-10.7763
▁chris	-10.7771
ai	-10.7775
▁creative	-10.7789
▁decreasing	-10.7791
▁accessories	-10.7792
▁volvo	-10.7792
▁thickness	-10.7792
▁oxygen	-10.7794
▁incorporated	-10.7799
▁trader	-10.78
▁surfaces	-10.78
▁oversupply	-10.7802
▁upside	-10.7807
retaliatory	-10.7825
▁seamlessly	-10.7827
▁theme	-10.7831
▁190	-10.7835
▁initiate	-10.7838
▁ron	-10.7848
▁lifting	-10.7849
▁steep	-10.7855
▁proper	-10.7857
▁disclosed	-10.786
▁54	-10.7867
these	-10.7868
▁la	-10.7873
▁26.	-10.7874
▁ge	-10.7889
▁shrunk	-10.7891
▁transformative	-10.7891
▁integrity	-10.7892
▁dependence	-10.7892
▁gallium	-10.7892
▁titled	-10.7895
▁topics	-10.79
▁feed	-10.7917
▁personnel	-10.7924
▁narrow	-10.7927
▁composition	-10.793
▁demonstration	-10.793
weight	-10.7936
▁usgs	-10.7939
▁mounting	-10.7939
▁rigorous	-10.7956
▁pursue	-10.7957
▁accessible	-10.7958
▁imposing	-10.796
▁array	-10.7961
▁inception	-10.7961
▁occasion	-10.7961
▁arrangement	-10.7964
▁spirit	-10.7965
▁commands	-10.7966
$15	-10.7968
▁reductions	-10.797
▁printed	-10.7976
▁anticipates	-10.7982
▁presents	-10.7983
benz	-10.7987
▁confirm	-10.7989
▁proactive	-10.799
▁preparing	-10.7992
▁weiqiao	-10.7992
▁dwindled	-10.7992
▁injury	-10.7993
▁hulamin	-10.7993
sheet	-10.8011
▁providers	-10.8017
▁comfort	-10.8025
▁52	-10.8025
▁stockpiling	-10.8025
▁refractory	-10.8026
▁hungary	-10.8026
▁holidays	-10.803
▁landfills	-10.8031
all	-10.8035
▁van	-10.8053
▁exhibit	-10.8056
founder	-10.8059
▁mongolia	-10.806
▁alpha	-10.8061
▁2.2	-10.8062
▁career	-10.8068
▁funded	-10.8069
▁tracking	-10.8072
▁orbite	-10.8078
▁compound	-10.808
▁evolution	-10.8094
▁deripaska	-10.8094
▁tomra	-10.8095
▁martin	-10.8102
side	-10.8104
▁camera	-10.8104
▁represented	-10.8106
▁delay	-10.8106
▁kilometres	-10.8109
▁dollars	-10.8114
▁fly	-10.8119
focused	-10.8119
▁bit	-10.812
▁guyana	-10.8128
▁easing	-10.8129
▁cop	-10.813
▁220	-10.8133
after	-10.8134
▁automaker	-10.8136
▁slowed	-10.8151
▁17.	-10.8151
▁(2022)	-10.8157
sme	-10.8158
▁2.3	-10.8159
▁illegal	-10.816
▁automatic	-10.8164
▁125	-10.8168
▁respective	-10.8172
▁claim	-10.8174
standing	-10.8175
▁1.7	-10.8193
▁possibilities	-10.8196
▁tensile	-10.8196
▁optimisation	-10.8202
▁inclusion	-10.8203
▁salt	-10.8204
▁richard	-10.8204
▁pipeline	-10.8204
▁places	-10.8204
▁executives	-10.8207
▁calls	-10.8214
▁7.5	-10.8221
▁hundreds	-10.8225
volving	-10.8226
▁230	-10.8226
neutral	-10.8227
▁themselves	-10.823
▁acquiring	-10.8231
▁laid	-10.8232
▁amounts	-10.8235
%	-10.824
▁discussed	-10.8248
am	-10.8259
▁steve	-10.8262
▁$10	-10.8264
▁territory	-10.8265
▁diversification	-10.8265
growing	-10.8266
▁gladstone	-10.8267
▁speira	-10.8267
▁fields	-10.8274
▁code	-10.8277
▁print	-10.8278
▁colours	-10.829
▁nanchang	-10.83
▁temporarily	-10.83
▁beneficial	-10.83
▁empty	-10.83
▁bought	-10.8301
▁comparable	-10.8301
▁consulting	-10.8302
▁doesn	-10.8304
▁acting	-10.8307
▁coc	-10.8308
ton	-10.831
▁kilogram	-10.8311
december	-10.8332
▁tom	-10.8333
▁salman	-10.8335
▁pull	-10.8336
8,000	-10.8342
▁robert	-10.8345
▁blend	-10.8362
▁tomorrow	-10.837
▁transparent	-10.837
22	-10.8373
▁partly	-10.8377
▁soaring	-10.8379
hitting	-10.839
▁emphasising	-10.8393
▁route	-10.8396
▁protecting	-10.8396
europe	-10.8401
▁consequently	-10.8405
▁happy	-10.8405
▁tandem	-10.8405
▁xinfa	-10.8405
▁match	-10.8411
emission	-10.8412
▁leave	-10.8419
▁sms	-10.842
▁collaborat	-10.8427
▁groups	-10.8428
▁doubled	-10.8429
▁eye	-10.8431
▁lightweighting	-10.844
▁emergency	-10.844
▁simply	-10.844
▁navigate	-10.844
▁recovering	-10.8446
▁combat	-10.8447
▁eased	-10.8451
▁reside	-10.8462
▁book	-10.8469
▁license	-10.8472
▁circal	-10.8476
▁tomago	-10.8477
▁lives	-10.8494
▁53	-10.8515
gb	-10.8521
▁receives	-10.8524
▁seem	-10.8527
▁pillars	-10.8534
▁curtail	-10.8539
▁signal	-10.8544
▁families	-10.8546
▁atmosphere	-10.8546
▁requiring	-10.8547
products	-10.8548
▁dependent	-10.8552
▁bell	-10.8556
▁guidelines	-10.8556
▁requested	-10.8559
▁22.	-10.8561
▁consideration	-10.8561
▁pressing	-10.8569
▁historic	-10.8581
attributable	-10.8582
▁shrank	-10.8582
▁subsequently	-10.8585
▁renewables	-10.8588
▁iso	-10.8592
▁11.	-10.8601
▁developer	-10.8602
▁honour	-10.8603
▁texas	-10.8618
▁destocking	-10.8618
▁treasury	-10.8618
▁jamalco	-10.862
▁scotland	-10.862
eu	-10.862
▁ebit	-10.8622
▁nearby	-10.8625
km	-10.8626
▁clearly	-10.8628
▁sensor	-10.8634
▁intention	-10.8643
▁check	-10.8647
temperature	-10.8652
▁origin	-10.8653
▁sophisticated	-10.8654
▁responsibly	-10.8654
▁averages	-10.8655
▁30.	-10.8655
▁conductivity	-10.8656
alloy	-10.8656
▁passed	-10.8663
▁andhra	-10.8664
▁networking	-10.8672
countervailing	-10.8685
▁murray	-10.869
▁chapter	-10.869
▁utkal	-10.8691
▁ohio	-10.8692
▁60%	-10.8694
▁rigid	-10.87
▁associations	-10.8702
▁cup	-10.8706
▁controls	-10.8712
▁boats	-10.8712
▁shaikh	-10.8726
▁forthcoming	-10.8726
▁feet	-10.8734
▁determine	-10.8736
▁permits	-10.8738
▁removed	-10.8743
▁sand	-10.875
500	-10.8754
▁pai	-10.8762
▁summary	-10.8763
▁branch	-10.8763
▁inaugurated	-10.8764
▁80%	-10.8766
▁influenced	-10.8772
▁attendees	-10.8776
▁destination	-10.878
▁2018-19	-10.8785
▁recycler	-10.8786
▁ecological	-10.8798
▁stopping	-10.8799
▁ram	-10.8806
▁organizations	-10.8813
▁governor	-10.8814
▁suv	-10.8821
▁97	-10.8822
press	-10.8825
▁formal	-10.8827
▁enforcement	-10.8836
▁alternatives	-10.8848
▁encouraged	-10.8854
▁respond	-10.886
▁packs	-10.8861
4,000	-10.8866
▁sound	-10.8868
supply	-10.8871
▁huzhou	-10.8872
▁alignment	-10.8873
▁presses	-10.8876
▁2.8	-10.8879
▁convert	-10.888
▁draw	-10.8888
▁8%	-10.889
▁failure	-10.8892
▁72	-10.8893
▁tan	-10.8897
▁2018-20	-10.8897
▁tower	-10.8899
▁harm	-10.8899
▁collecting	-10.8902
▁powders	-10.8907
▁consultancy	-10.8909
▁bhp	-10.8915
▁otherwise	-10.8916
▁talent	-10.8918
▁7%	-10.8921
▁placement	-10.8928
▁message	-10.8928
▁specialise	-10.8931
▁anil	-10.8937
▁enabled	-10.8944
▁function	-10.8945
▁21.	-10.8946
▁constructing	-10.8946
metre	-10.8946
▁feedback	-10.8947
▁beauty	-10.8947
▁participating	-10.8947
▁angul	-10.8948
▁acknowledged	-10.8949
▁flakes	-10.8961
▁fight	-10.8961
▁/	-10.8962
▁extract	-10.8973
▁pushed	-10.8973
▁drs	-10.8974
▁moderate	-10.8976
▁fans	-10.898
▁integral	-10.8984
▁graphite	-10.8985
▁warned	-10.8985
▁seasonal	-10.899
highlighting	-10.8992
▁hull	-10.9007
▁resolution	-10.9007
▁performed	-10.9017
▁northwest	-10.902
▁abundant	-10.902
▁accordance	-10.9021
▁incorporate	-10.9023
▁shelf	-10.9024
▁specialized	-10.9026
▁proudly	-10.9031
▁assessed	-10.9035
▁trusted	-10.9038
▁homes	-10.9039
▁alu	-10.9042
▁forging	-10.9044
▁prove	-10.9054
spired	-10.9059
▁imposition	-10.9059
▁combustion	-10.9059
▁jindal	-10.906
▁star	-10.906
▁3.3	-10.9072
▁slowing	-10.9079
▁hotel	-10.9081
▁club	-10.9088
▁tank	-10.9091
▁maximise	-10.9092
▁enormous	-10.9094
▁cargoes	-10.9098
▁inches	-10.9098
▁pharmaceutical	-10.9119
▁generations	-10.9124
▁licence	-10.9126
▁barriers	-10.9127
fired	-10.9136
▁tour	-10.9136
▁downtrend	-10.9136
▁minutes	-10.9148
▁mini	-10.9151
▁indicators	-10.9151
▁civil	-10.9153
▁expansions	-10.9156
▁trailer	-10.9159
▁31.	-10.9163
▁mere	-10.9164
▁midwest	-10.9168
▁plummeted	-10.9174
▁discovery	-10.9175
▁functional	-10.9176
▁prompt	-10.9181
▁wa	-10.9187
▁miles	-10.9196
▁stress	-10.9201
▁singh	-10.9208
▁convention	-10.9208
▁steam	-10.9211
▁assured	-10.9212
▁liberty	-10.9212
▁tata	-10.9213
▁safer	-10.9214
▁actually	-10.9215
ingot	-10.9231
▁4.5	-10.9231
▁2008	-10.9234
net	-10.9239
▁stores	-10.9245
▁98	-10.9246
▁dropping	-10.9249
▁cnc	-10.9251
▁outlined	-10.9252
deemed	-10.9254
▁explains	-10.9261
▁shifted	-10.9267
▁communications	-10.927
▁behaviour	-10.9272
▁race	-10.9275
but	-10.928
▁mysteel	-10.9286
primary	-10.9286
▁distinctive	-10.9288
▁houses	-10.9292
▁210	-10.9292
▁tightening	-10.9293
▁27.	-10.9299
▁15.	-10.93
▁parameters	-10.9302
▁showcases	-10.9308
▁sides	-10.9311
▁bright	-10.9318
▁oem	-10.9318
▁fulfil	-10.9324
august	-10.9325
▁movements	-10.9327
▁augment	-10.9327
▁2000	-10.9328
▁man	-10.933
▁ratings	-10.9331
▁lanka	-10.9334
touched	-10.9338
▁ordered	-10.934
▁arabal	-10.9341
saving	-10.9347
▁exception	-10.9348
z	-10.9353
▁gradual	-10.9362
▁convenience	-10.9363
▁permit	-10.9364
▁stranded	-10.9365
chinas	-10.9372
▁63	-10.9379
▁66	-10.9379
▁picture	-10.9382
▁isn	-10.9388
▁lining	-10.9395
▁tackle	-10.9397
800	-10.9401
sustainability	-10.9403
▁earning	-10.9406
▁organized	-10.9407
▁tough	-10.9411
▁replaced	-10.9415
slated	-10.9417
▁19,000	-10.9418
▁deck	-10.9418
▁disclosure	-10.9429
▁23.	-10.943
▁prototype	-10.9431
▁length	-10.9431
▁ceramic	-10.9433
▁meaningful	-10.9439
▁slash	-10.9439
▁basket	-10.9441
▁novel	-10.9441
▁kaolin	-10.9443
▁tier	-10.9446
▁8.	-10.9449
signifies	-10.9452
▁delayed	-10.9452
▁orbit	-10.9454
▁forecasted	-10.946
▁utilise	-10.9467
▁choose	-10.9468
▁king	-10.9468
▁americas	-10.9472
▁optimism	-10.948
▁progressing	-10.9483
▁usual	-10.9483
▁cape	-10.9486
▁pulled	-10.949
▁aec	-10.9491
▁schools	-10.9491
▁pvt	-10.95
▁crash	-10.951
thirds	-10.951
▁ab	-10.9514
▁denmark	-10.952
april	-10.952
▁provisional	-10.952
stakeholder	-10.952
▁75%	-10.9521
▁ranks	-10.9532
▁9.	-10.9533
▁alfed	-10.9534
▁plug	-10.9545
▁generates	-10.9546
▁task	-10.9548
▁immense	-10.9556
eliminating	-10.9558
▁fisher	-10.9559
▁split	-10.956
july	-10.956
▁baled	-10.9561
▁loans	-10.9565
▁ferrous	-10.9566
▁2.6	-10.9568
▁aspect	-10.9588
▁remote	-10.9596
▁modular	-10.9598
▁moratorium	-10.9598
▁alvance	-10.96
▁90%	-10.9601
▁mean	-10.9604
▁screen	-10.9614
▁cups	-10.9622
▁aesthetic	-10.9628
▁certificate	-10.9629
▁bond	-10.9638
▁institutional	-10.964
breaking	-10.964
▁recommended	-10.9641
▁carrying	-10.9643
▁reform	-10.9648
▁meant	-10.9648
▁quotas	-10.9651
▁16.	-10.966
▁2.1	-10.9664
vedanta	-10.9669
▁convenient	-10.9675
▁versatility	-10.9677
▁surging	-10.9678
▁hyundai	-10.9679
holiday	-10.968
october	-10.968
▁amrun	-10.968
billion	-10.9681
▁graphene	-10.9681
▁contractor	-10.9684
▁expecting	-10.9685
▁safely	-10.9686
▁matt	-10.9691
▁neutral	-10.9695
▁embark	-10.9697
▁stockpile	-10.9703
▁seminar	-10.9709
old	-10.9712
▁accommodate	-10.9712
▁decarbonise	-10.9713
water	-10.9717
▁worsley	-10.9718
▁happen	-10.9719
▁5.5	-10.9739
▁metallic	-10.9747
▁delays	-10.9749
ar	-10.9753
▁900	-10.9753
sanjeev	-10.9758
▁pakistan	-10.9758
▁stating	-10.9759
▁equal	-10.9761
▁heard	-10.9761
▁abroad	-10.9761
▁importantly	-10.9785
ad	-10.9793
▁twin	-10.9796
▁optimal	-10.9797
▁currencies	-10.9798
▁platforms	-10.9798
▁pride	-10.9798
▁agriculture	-10.9798
$10	-10.9799
▁nothing	-10.98
▁whilst	-10.98
▁documents	-10.98
no	-10.9804
▁lesser	-10.9806
▁weighed	-10.9813
▁drawing	-10.9814
▁roads	-10.9834
▁appearance	-10.9839
▁dudley	-10.9839
▁engaging	-10.984
▁customised	-10.984
▁portland	-10.9842
▁inked	-10.9842
▁outcomes	-10.9845
▁lab	-10.9849
75	-10.985
▁expenditures	-10.9856
▁landmark	-10.987
▁suit	-10.9872
▁evident	-10.9879
xxx	-10.9879
▁viability	-10.9879
▁monetar	-10.988
▁stance	-10.988
▁speciality	-10.988
▁13.	-10.988
▁deeper	-10.9881
▁decide	-10.9886
▁1.9	-10.9889
▁450	-10.9889
▁thought	-10.9891
600	-10.9895
▁app	-10.99
▁grand	-10.9908
▁spike	-10.9908
▁pahang	-10.992
▁bosnia	-10.992
▁esteem	-10.992
▁comply	-10.9921
▁thing	-10.9921
▁mozal	-10.9921
▁sunday	-10.9922
known	-10.9922
▁anniversary	-10.9923
producing	-10.9923
pacific	-10.9923
▁67	-10.9924
▁12.	-10.9926
▁11,000	-10.9933
▁buildup	-10.9936
▁aware	-10.9938
▁insight	-10.9959
▁considerably	-10.9961
▁commencement	-10.9961
▁upgrading	-10.9962
▁deployment	-10.9962
▁opens	-10.9968
▁headwinds	-10.9971
▁positively	-10.9983
fold	-10.9984
▁rein	-10.9991
▁spark	-10.9996
▁exclaimed	-11.0002
▁gave	-11.0002
▁definitive	-11.0002
▁prevailing	-11.0005
be	-11.0038
▁fear	-11.0039
▁champion	-11.0039
▁uncertainties	-11.0043
▁escalating	-11.0046
▁consumed	-11.0048
▁swiss	-11.005
▁3,500	-11.0063
▁2032	-11.0069
▁installing	-11.0077
▁projection	-11.0079
▁terminal	-11.0084
▁collectively	-11.0089
▁24.	-11.0094
▁shrink	-11.0104
▁diversify	-11.0107
▁conscious	-11.0118
▁difficulties	-11.0127
▁struggling	-11.0127
▁designated	-11.0128
▁finishes	-11.0128
▁hazardous	-11.0129
▁described	-11.0129
▁60,000	-11.0132
▁ends	-11.0132
▁improves	-11.0141
▁climb	-11.0142
▁330	-11.0143
▁pass	-11.016
▁ruling	-11.0168
▁depreciation	-11.0168
▁revolutionary	-11.017
▁95%	-11.0172
foot	-11.0174
listed	-11.0177
▁document	-11.0178
-1	-11.0184
▁remov	-11.0184
ness	-11.0198
▁wmt	-11.0203
▁containing	-11.0205
▁population	-11.0206
▁los	-11.0208
▁allocation	-11.0208
▁clearance	-11.0208
▁begins	-11.021
▁james	-11.021
▁mainstream	-11.0213
▁investigations	-11.0227
▁13,000	-11.0232
cast	-11.0241
▁proceeds	-11.0244
▁determination	-11.0251
▁agricultural	-11.0253
▁motorcycle	-11.0253
▁functionality	-11.0253
▁bilateral	-11.0253
▁96	-11.0254
▁hearing	-11.0256
▁perform	-11.0257
▁namely	-11.0259
how	-11.0264
▁showcased	-11.0268
▁turbines	-11.0268
▁0.2	-11.027
▁accelerated	-11.0271
plant	-11.0273
▁drinking	-11.0273
▁heads	-11.0294
▁video	-11.0294
▁lindian	-11.0296
▁buses	-11.0297
▁royal	-11.0299
▁mode	-11.0301
▁68	-11.0308
▁trials	-11.031
$5	-11.0311
▁voltage	-11.0314
▁29.	-11.0314
▁distributor	-11.033
▁recognise	-11.0333
▁phases	-11.0335
▁endeavour	-11.0337
▁churn	-11.0337
▁carolina	-11.0338
▁ties	-11.0339
▁decarbonization	-11.034
approved	-11.0344
▁2.7	-11.0345
▁2010	-11.0352
▁restrict	-11.0371
▁persistent	-11.0375
▁alüminyum	-11.038
▁ample	-11.0381
▁calcined	-11.0381
▁silica	-11.0382
certified	-11.0385
de	-11.0389
completing	-11.0394
man	-11.0407
▁2013.	-11.0409
▁alum	-11.0409
mining	-11.041
▁builds	-11.0412
▁georgia	-11.0422
▁semiconductor	-11.0424
▁dutch	-11.0424
▁holly	-11.0424
▁14.	-11.0425
▁mike	-11.0425
▁partnering	-11.0427
▁fuelled	-11.0432
▁stockpiles	-11.0432
▁implications	-11.0432
▁kt	-11.0439
▁elevate	-11.0445
▁6.5	-11.0445
▁liu	-11.0451
▁anchor	-11.0463
drove	-11.0463
ation	-11.0464
▁3.2	-11.0466
▁intent	-11.0467
▁procedure	-11.0467
▁undertaken	-11.0468
▁sequentially	-11.0468
▁specified	-11.0469
27	-11.0469
▁underscor	-11.0469
▁chennai	-11.0472
▁views	-11.0481
▁classic	-11.0488
▁longs	-11.0493
▁visual	-11.0496
▁installations	-11.0505
▁upper	-11.0507
▁uptick	-11.051
▁reusable	-11.051
▁laptop	-11.0511
▁approaches	-11.0513
duty	-11.0515
▁6.	-11.0521
▁person	-11.0525
▁acres	-11.0527
▁functions	-11.053
150	-11.0531
▁facades	-11.0533
▁3.6	-11.0539
▁utilize	-11.0547
▁guide	-11.0549
▁typical	-11.0551
▁tasmania	-11.0551
▁mutual	-11.0552
▁insulation	-11.0553
▁hardware	-11.0553
▁offices	-11.0554
▁studio	-11.0555
▁suffered	-11.0556
like	-11.0562
▁arrived	-11.0563
▁promotes	-11.0568
▁minimis	-11.0572
▁sixth	-11.0576
▁preserve	-11.0591
▁+	-11.0593
▁tremendous	-11.0594
▁preceding	-11.0597
▁notified	-11.0597
▁subdued	-11.0597
▁membership	-11.0598
▁amcor	-11.0598
▁vending	-11.0599
▁capex	-11.0603
president	-11.0603
▁gst	-11.0605
▁fluctuated	-11.0605
▁waiting	-11.061
▁md	-11.061
▁inaugura	-11.0611
▁25,000	-11.0611
")	-11.0614
▁z	-11.0616
▁0.1	-11.0619
▁curve	-11.0636
▁abdulnasser	-11.064
▁gm	-11.0641
▁kuantan	-11.0641
▁willingness	-11.0642
isation	-11.0644
▁buoyed	-11.0644
▁cmd	-11.0649
▁2011	-11.0652
le	-11.0662
▁bins	-11.067
▁balanced	-11.0672
▁competitors	-11.0682
▁vote	-11.0682
▁promise	-11.0684
_	-11.0685
▁parallel	-11.0685
▁backdrop	-11.0685
▁conducting	-11.0686
▁trimet	-11.0686
▁mitsubishi	-11.0687
▁curtailment	-11.0689
▁alcan	-11.0693
ia	-11.0693
▁105	-11.0694
▁couple	-11.0706
▁filling	-11.0706
▁9,000	-11.072
360	-11.0724
▁uphold	-11.0726
▁offtake	-11.0727
▁autonomous	-11.0728
▁boundaries	-11.0729
▁kazakhstan	-11.0729
▁symposium	-11.0729
▁extraordinary	-11.0729
▁sustainably	-11.073
▁alumex	-11.0731
▁conclusion	-11.0732
▁cabinet	-11.0732
▁superyacht	-11.0733
▁74	-11.0748
▁streams	-11.0758
▁managers	-11.0768
▁manual	-11.0772
▁census	-11.0773
▁kobe	-11.0774
economic	-11.0779
▁addressed	-11.0781
▁canpack	-11.0784
▁intensive	-11.0786
▁40,000	-11.0788
▁incorporates	-11.0793
▁bag	-11.0794
▁2.9	-11.0798
▁voice	-11.0817
▁christmas	-11.082
▁anodised	-11.082
▁14%	-11.0823
▁comments	-11.0824
▁slowly	-11.0825
▁insufficient	-11.0825
▁resolve	-11.0859
▁retailers	-11.0863
▁embracing	-11.0863
▁evaluate	-11.0864
▁gases	-11.087
▁conductor	-11.0873
▁educational	-11.0874
▁nzas	-11.0877
▁boom	-11.0878
▁quantities	-11.0908
▁noteworthy	-11.0908
▁glazing	-11.0908
▁maharashtra	-11.0908
▁oleg	-11.0909
▁vertically	-11.0911
▁background	-11.0912
▁lay	-11.0914
▁reforms	-11.0919
▁signall	-11.0932
▁cloud	-11.0946
▁ramping	-11.0951
▁urgent	-11.0952
▁agencies	-11.0953
▁incredible	-11.0953
▁rural	-11.0954
▁integrate	-11.0955
▁uacj	-11.0956
▁workplace	-11.096
▁shot	-11.0961
▁barrier	-11.0963
▁2013,	-11.0964
11	-11.0967
▁draft	-11.097
active	-11.0981
▁2.	-11.0991
wise	-11.0993
▁islands	-11.0998
▁heritage	-11.0999
▁1000	-11.0999
▁19.	-11.0999
▁78	-11.1
▁catering	-11.1
chalco	-11.1006
▁directed	-11.1011
$7	-11.1014
▁lands	-11.1016
▁box	-11.1032
▁ultimate	-11.1043
▁legislation	-11.1044
▁uncertain	-11.1045
▁podback	-11.1046
▁cornerstone	-11.1047
▁valco	-11.1053
▁augmented	-11.1055
▁hill	-11.1069
▁packaged	-11.107
▁facilitat	-11.1071
▁pursuing	-11.109
▁fill	-11.109
2022	-11.109
▁nissan	-11.1093
february	-11.1098
▁incentive	-11.11
▁maintains	-11.1101
▁18,000	-11.1107
,900	-11.1111
▁pm	-11.112
▁specialis	-11.1123
▁supreme	-11.1136
chain	-11.1139
▁bespoke	-11.1139
▁meetings	-11.1141
rich	-11.1142
▁emphasises	-11.1145
▁concentration	-11.1146
▁9%	-11.1147
▁william	-11.1148
▁cny	-11.1149
▁matters	-11.1151
▁displays	-11.1154
▁wear	-11.1169
▁metall	-11.1172
▁weighing	-11.1177
400	-11.1189
▁sections	-11.1191
▁discharge	-11.1191
▁variants	-11.1199
▁yachts	-11.1212
▁commercially	-11.1214
un	-11.1218
▁("	-11.122
35	-11.1225
▁harvey	-11.1229
▁shipbuilding	-11.123
▁transit	-11.1231
▁contamination	-11.1231
▁analytics	-11.1233
▁shipyard	-11.1236
▁0.10	-11.1238
▁surpassing	-11.1247
▁loaded	-11.1255
▁walls	-11.1258
origin	-11.126
▁age	-11.1264
▁inert	-11.1272
▁spanish	-11.1277
▁(2017)	-11.1278
▁households	-11.128
▁12%	-11.1282
zld	-11.1283
▁accepted	-11.1284
▁tin	-11.1285
▁requests	-11.1285
▁defined	-11.1285
▁biden	-11.1287
▁realized	-11.1292
3.1	-11.1293
▁sensors	-11.1303
▁exit	-11.1305
▁0	-11.1309
▁...	-11.1319
▁cycles	-11.132
▁alleged	-11.1323
▁sichuan	-11.1323
▁bankruptcy	-11.1323
▁270	-11.1327
conscious	-11.1332
▁assan	-11.1338
▁essentially	-11.1338
▁melt	-11.1345
▁featured	-11.1354
▁talk	-11.1355
▁eyes	-11.1356
▁coated	-11.1358
▁proposals	-11.1359
▁surges	-11.1359
▁abdulla	-11.1361
▁belt	-11.1364
▁enthusiasm	-11.137
▁optimising	-11.137
▁economically	-11.1373
▁distributed	-11.1373
45	-11.1377
▁0.3	-11.1378
▁preparation	-11.1383
▁breaking	-11.1386
▁77	-11.1388
▁transformed	-11.1394
ranked	-11.1395
▁colombia	-11.1397
ray	-11.1398
▁7.	-11.1399
uk	-11.1414
▁qualities	-11.1417
▁kerbside	-11.1417
▁accomplished	-11.1422
▁questions	-11.1422
built	-11.1426
▁imperative	-11.1429
▁inspire	-11.1432
▁revision	-11.1432
▁correction	-11.1439
▁2009	-11.1442
▁connecting	-11.1455
▁payments	-11.1459
▁span	-11.1466
▁provincial	-11.1466
▁epiq	-11.1466
▁anticipate	-11.1474
▁participated	-11.1477
▁hectares	-11.1479
▁brewers	-11.148
▁propel	-11.1492
▁99	-11.1494
▁believed	-11.1495
700	-11.1504
▁86	-11.1511
▁israel	-11.1512
▁slovakia	-11.1512
▁macroeconomic	-11.1513
▁britain	-11.1513
▁mozambique	-11.1514
▁swedish	-11.1515
▁cfo	-11.1518
▁alpart	-11.1518
▁revolutionise	-11.1526
▁exclusively	-11.1531
▁onto	-11.1552
▁returning	-11.1552
▁$3	-11.1553
▁4.1	-11.1559
▁regain	-11.1562
▁runaya	-11.1564
executive	-11.1571
november	-11.1571
▁provision	-11.1575
▁petition	-11.1575
▁continent	-11.1577
▁undergoing	-11.1579
▁sponsor	-11.1591
offer	-11.1593
than	-11.1605
▁victoria	-11.161
▁doubling	-11.161
▁qualified	-11.1612
▁smith	-11.1613
$17	-11.1617
shanghai	-11.162
▁prompted	-11.1621
▁channel	-11.1623
▁measured	-11.1623
▁originally	-11.1624
▁3.7	-11.1624
being	-11.1639
▁inter	-11.1642
▁zones	-11.1648
▁arrangements	-11.1649
▁valley	-11.1658
▁nanshan	-11.1659
▁mega	-11.167
▁formation	-11.1673
▁spoke	-11.1676
▁grain	-11.1679
▁innovate	-11.168
▁caps	-11.1682
▁daniel	-11.1705
▁withstand	-11.1706
▁relie	-11.1709
▁150,000	-11.1712
▁pending	-11.1713
▁golden	-11.1716
▁exemptions	-11.1717
▁spaces	-11.1718
cans	-11.1722
▁distinct	-11.1722
▁--	-11.1724
▁trades	-11.1724
▁ipo	-11.1725
▁capsule	-11.1725
▁jet	-11.1727
▁obligations	-11.1727
▁transported	-11.1733
▁18.	-11.1735
’19	-11.1737
state	-11.1739
▁3.4	-11.174
▁newest	-11.174
▁limits	-11.1744
▁norms	-11.1745
▁sort	-11.1746
▁spend	-11.1752
▁paragominas	-11.1755
▁applicable	-11.1756
▁qoq	-11.1756
▁healthcare	-11.1756
▁weakness	-11.1756
▁modernisation	-11.1756
▁acquisitions	-11.1756
▁children	-11.1757
▁asserted	-11.1757
▁escalation	-11.1759
▁compatible	-11.1763
▁pose	-11.1773
▁25.	-11.1775
▁pitch	-11.1784
▁76	-11.1789
▁gathering	-11.179
▁bulgaria	-11.1792
▁indiana	-11.1797
▁aasheim	-11.1805
▁patterns	-11.1805
▁satisfaction	-11.1805
▁egp	-11.1806
▁scaling	-11.1806
▁equally	-11.1807
▁jones	-11.181
▁search	-11.1811
▁banking	-11.1812
▁deeply	-11.1813
▁consuming	-11.1818
▁attain	-11.1818
▁$100	-11.1827
$20	-11.1827
alcoa	-11.1834
▁adapt	-11.1836
▁lid	-11.1837
▁260	-11.185
ised	-11.1851
65	-11.1852
▁infinite	-11.1853
▁felt	-11.1856
▁greenback	-11.1861
▁550	-11.1864
▁consequences	-11.1864
▁korean	-11.1868
▁optimised	-11.1868
baked	-11.1872
▁giants	-11.1875
▁film	-11.1877
▁crew	-11.1879
▁fabricators	-11.1885
▁routes	-11.1887
▁familiar	-11.1904
▁administrative	-11.1904
▁delegation	-11.1904
▁accumulated	-11.1905
▁composed	-11.1907
▁johnson	-11.1908
▁finalised	-11.191
▁awac	-11.1913
mtpa	-11.1916
▁narrowed	-11.1917
▁wins	-11.1922
▁niche	-11.1923
▁conveyor	-11.1925
▁17,000	-11.1925
▁lockdown	-11.1926
▁speaker	-11.1927
▁outage	-11.1929
rio	-11.1933
material	-11.1936
▁presentations	-11.1939
▁choices	-11.194
▁accept	-11.1945
▁cluster	-11.1953
▁lows	-11.1954
▁involvement	-11.1955
▁labor	-11.1955
▁nevertheless	-11.1955
▁samsung	-11.1955
▁precisely	-11.1957
▁antidumping	-11.1958
▁idled	-11.196
▁(“	-11.1961
▁extracted	-11.1966
na	-11.1968
▁stored	-11.1968
▁advances	-11.1968
▁bolstered	-11.197
▁pursuit	-11.1972
,540	-11.1973
▁contributor	-11.1976
▁$6	-11.1976
▁technically	-11.1981
▁$4	-11.1986
▁taste	-11.1996
▁raises	-11.1996
▁mount	-11.2003
▁translate	-11.2003
compromising	-11.2003
▁pave	-11.2004
▁synergies	-11.2004
during	-11.2004
▁acceptance	-11.2004
▁elysis	-11.2005
▁scott	-11.2006
▁rimowa	-11.2006
▁2.0	-11.2008
sustainable	-11.2016
▁0.4	-11.202
▁emerge	-11.202
▁20-	-11.2024
▁benchmarks	-11.2025
▁publicly	-11.2027
▁ambassador	-11.2027
▁facade	-11.203
▁pickup	-11.203
▁robot	-11.2041
▁earn	-11.205
▁apparent	-11.2052
▁intricate	-11.2055
▁capita	-11.2055
▁mytilineos	-11.2057
▁harmful	-11.2059
▁grounds	-11.2061
▁portable	-11.2064
▁fabricated	-11.2065
▁ibaas	-11.2066
▁280	-11.2068
▁giadec	-11.2072
▁flaunt	-11.2084
▁environments	-11.2086
da	-11.2089
77	-11.2095
▁cme	-11.2095
▁swift	-11.2104
▁eligible	-11.2106
▁nosedive	-11.2106
▁productive	-11.2107
▁overhead	-11.211
▁discovered	-11.2113
▁certainly	-11.2117
▁networks	-11.2118
winning	-11.2124
release	-11.2133
▁trees	-11.215
▁restore	-11.2153
▁thorough	-11.2154
▁visited	-11.2157
▁protective	-11.2157
▁gear	-11.2159
▁austal	-11.2159
▁400,000	-11.2161
▁rated	-11.2162
▁utilized	-11.2165
hindalco	-11.217
▁5-	-11.217
▁slabs	-11.217
▁71	-11.2171
▁names	-11.2176
▁departments	-11.2179
▁neighbour	-11.2181
▁economics	-11.2189
▁adhere	-11.2192
▁satisfy	-11.2208
▁4.	-11.221
▁aludium	-11.2212
▁allocated	-11.2214
▁policymakers	-11.2215
▁guests	-11.2222
▁potlines	-11.2224
▁bse	-11.2228
▁wherein	-11.2241
▁69	-11.2244
▁approaching	-11.2246
▁4.2	-11.2248
project	-11.2248
▁laws	-11.2249
▁minimize	-11.2257
▁grateful	-11.2259
▁ones	-11.226
jebel	-11.2261
▁racing	-11.2261
▁exposed	-11.2264
▁magnetic	-11.2266
▁depends	-11.2266
▁restricted	-11.2271
▁effectiveness	-11.2273
▁exhibited	-11.2273
>	-11.2286
▁mirror	-11.2289
▁lake	-11.2294
▁timeline	-11.2298
▁firmly	-11.2303
▁radiators	-11.2305
▁striking	-11.2309
▁intensified	-11.2311
▁visible	-11.2311
▁campus	-11.2312
▁lifecycle	-11.2312
▁diluted	-11.2312
▁museum	-11.2313
▁siemens	-11.2313
▁hebei	-11.2315
digit	-11.2318
▁projections	-11.2321
▁ms	-11.2331
▁useful	-11.2332
▁everyday	-11.2335
▁collaborations	-11.2339
tier	-11.234
▁spotlight	-11.2341
that	-11.2342
▁diligence	-11.2363
▁somewhat	-11.2367
▁uptrend	-11.2371
▁elected	-11.2372
russia	-11.2376
,060	-11.2379
ready	-11.238
900	-11.2381
▁73	-11.2384
▁isri	-11.2387
alloyed	-11.2391
▁attributes	-11.2391
▁catalyst	-11.2394
▁appliances	-11.2394
▁84	-11.2402
▁robotics	-11.2407
▁latin	-11.2408
▁sek	-11.2409
▁61	-11.2413
▁absence	-11.2415
▁elsewhere	-11.2415
▁rallied	-11.2416
▁anticipation	-11.2416
▁lights	-11.2417
▁instrumental	-11.2417
▁noise	-11.2419
▁evaluated	-11.2423
he	-11.2425
▁stressed	-11.2429
▁strengths	-11.2432
▁82	-11.2435
▁oversee	-11.2436
▁opinion	-11.2444
see	-11.2444
▁credits	-11.2447
▁approached	-11.2448
age	-11.2449
▁try	-11.2449
ization	-11.2454
▁count	-11.2463
▁experiences	-11.2467
▁spokesman	-11.2468
el	-11.247
▁sumitomo	-11.247
▁thick	-11.2471
▁addresses	-11.2472
▁inputs	-11.2472
▁sport	-11.2481
▁reused	-11.2482
south	-11.2483
▁sliding	-11.2488
▁predict	-11.2489
▁renovation	-11.2497
▁rock	-11.2497
▁developers	-11.2502
▁specification	-11.2503
▁noting	-11.2504
▁asx	-11.2504
▁chip	-11.2507
changing	-11.2508
▁ross	-11.2519
▁adverse	-11.252
▁connectivity	-11.2522
▁honda	-11.2523
▁constrained	-11.2526
▁logistical	-11.2532
▁dubal	-11.2532
▁curtailed	-11.2535
▁115	-11.2538
▁posts	-11.2545
▁announc	-11.2554
▁transitioning	-11.2556
▁unparalleled	-11.2574
▁spectrum	-11.2575
▁anodized	-11.2577
▁canning	-11.2579
▁250,000	-11.258
▁21,000	-11.2583
▁floating	-11.2585
$22	-11.2585
▁celebrated	-11.2588
▁1,200	-11.2588
north	-11.259
▁calling	-11.2594
prices	-11.2598
▁flavour	-11.2598
series	-11.2599
▁recycles	-11.2599
▁embrace	-11.26
▁computer	-11.2609
,700	-11.2613
▁shell	-11.2617
▁ranking	-11.2621
▁streamline	-11.2623
▁nasa	-11.2623
▁redefine	-11.2627
ka	-11.2627
▁recession	-11.2628
▁adjacent	-11.2628
▁accuracy	-11.2628
▁bloomberg	-11.2628
▁nemak	-11.2629
▁meridian	-11.263
▁derived	-11.2634
▁winners	-11.2636
≤	-11.2641
▁sells	-11.2642
group	-11.2643
▁mp	-11.2643
kind	-11.2646
▁shorts	-11.2646
▁pod	-11.2652
▁kwh	-11.2653
▁talking	-11.2653
▁91	-11.2658
▁93	-11.266
▁circuit	-11.2665
▁absolute	-11.268
ra	-11.2681
▁cultural	-11.2681
‐	-11.2681
▁kalimantan	-11.2682
▁optimization	-11.2682
▁virgin	-11.2682
▁passion	-11.2682
▁zorba	-11.2682
▁restocking	-11.2683
▁distinguished	-11.2685
▁unless	-11.2686
▁maan	-11.2687
▁executed	-11.2687
▁assessments	-11.2691
▁associates	-11.2693
asia	-11.2693
▁slim	-11.2694
through	-11.2697
ce	-11.2697
▁trays	-11.2697
cbam	-11.2699
▁probe	-11.2704
▁suite	-11.2709
▁arrival	-11.2715
▁flight	-11.2719
western	-11.2729
▁attracting	-11.2729
▁seat	-11.2733
▁eleven	-11.2734
▁mohammed	-11.2736
▁sierra	-11.2739
▁overcome	-11.274
▁steering	-11.2742
▁specialists	-11.2746
pressure	-11.2752
▁81	-11.2755
▁et	-11.2762
▁involve	-11.2764
▁dialogue	-11.2767
▁audience	-11.2768
▁youth	-11.277
▁turbine	-11.2772
▁3.1	-11.2781
▁12-	-11.2786
▁chose	-11.2788
▁aggressive	-11.2788
▁adequate	-11.2789
utilizing	-11.279
▁steadfast	-11.279
▁signature	-11.279
▁foundries	-11.279
▁reshaping	-11.2791
▁overview	-11.2792
▁discarded	-11.2793
▁topline	-11.2798
▁qr	-11.2799
▁megawatts	-11.2802
▁remelting	-11.2808
▁slid	-11.2817
▁pipe	-11.2825
▁quota	-11.2826
▁expectation	-11.2826
▁variant	-11.2826
▁logo	-11.2828
▁$50	-11.2829
▁milestones	-11.2837
▁beautiful	-11.2843
▁magazine	-11.2844
▁proximity	-11.2844
▁satish	-11.2845
▁nonetheless	-11.2845
▁grants	-11.2846
▁carefully	-11.2846
▁québec	-11.2846
▁montenegro	-11.2846
▁calculated	-11.2848
▁inclusive	-11.2854
55	-11.2854
▁cartons	-11.2862
▁finnis	-11.2873
▁slips	-11.2886
29	-11.2889
▁surpass	-11.2891
▁stayed	-11.2891
▁forge	-11.2895
▁divert	-11.2899
▁braidy	-11.29
▁dominant	-11.29
▁nameplate	-11.2901
▁sharma	-11.2901
▁dominated	-11.2907
▁resistant	-11.2909
▁pool	-11.2915
▁vat	-11.2918
▁hai	-11.2921
▁climbing	-11.2927
▁title	-11.2929
eastern	-11.2933
▁hurt	-11.2934
▁hits	-11.2935
▁height	-11.2936
▁reaction	-11.2937
▁outer	-11.2937
▁broke	-11.2943
▁2019-20	-11.295
▁el	-11.2953
destined	-11.2955
▁relentless	-11.2955
▁sparkling	-11.2955
▁finland	-11.2955
smelter	-11.2962
▁proved	-11.2964
▁gmg	-11.2965
▁realised	-11.2966
▁schemes	-11.2971
recycled	-11.2976
▁4,500	-11.2978
▁andrew	-11.299
▁burden	-11.2993
▁alloyed	-11.2994
▁abb	-11.2996
▁83	-11.2998
▁bare	-11.3001
urging	-11.3002
▁gauge	-11.3002
▁hubs	-11.3009
▁encompasses	-11.3011
▁porsche	-11.3011
▁anything	-11.3012
▁89	-11.3013
▁pledged	-11.3015
▁deployed	-11.3018
▁triggered	-11.3019
▁arena	-11.303
▁der	-11.3032
piece	-11.3039
▁papers	-11.305
▁suspend	-11.3052
▁contraction	-11.3052
▁optimize	-11.3059
▁0.8	-11.3059
▁appreciate	-11.3061
▁dunkerque	-11.3068
▁workshops	-11.307
covid	-11.3085
▁filled	-11.3085
users	-11.3086
▁0.6	-11.3088
▁flavours	-11.3089
▁gearing	-11.3089
▁timely	-11.3089
▁recommendations	-11.3092
▁timing	-11.3108
▁sam	-11.3112
▁fives	-11.3114
▁carrie	-11.3121
▁750	-11.3121
make	-11.3122
▁endeavours	-11.3123
▁ontario	-11.3123
▁probably	-11.3123
▁dealers	-11.3125
▁speeds	-11.3127
▁extensively	-11.3137
square	-11.3141
when	-11.3141
rusal	-11.3145
▁tap	-11.3145
▁paise	-11.3161
looking	-11.3164
▁bis	-11.3164
▁airport	-11.3164
▁sq	-11.3169
▁ir	-11.3171
▁aluminij	-11.3181
▁120,000	-11.3184
▁11%	-11.3185
▁particles	-11.3188
▁reviewed	-11.3188
▁takeover	-11.3189
▁avenues	-11.3193
coated	-11.3198
,600	-11.3204
▁mayor	-11.3208
▁ring	-11.3208
▁promoted	-11.3215
▁undertaking	-11.322
▁measurement	-11.3221
▁jamaican	-11.3228
▁5.3	-11.3229
▁topic	-11.323
rise	-11.3231
▁$20	-11.3232
▁decisive	-11.3233
▁averaged	-11.3235
▁england	-11.3236
▁dnv	-11.3236
85	-11.3236
▁tri	-11.3236
▁amazon	-11.3236
▁placing	-11.3236
▁defense	-11.3237
▁complexity	-11.3237
▁anodizing	-11.3237
▁volkswagen	-11.3237
▁embedded	-11.3241
tpy	-11.3248
▁converted	-11.3251
▁600,000	-11.3261
export	-11.327
▁electrolyte	-11.3277
▁village	-11.3279
▁slab	-11.3279
▁concession	-11.328
▁guarantees	-11.3282
▁passengers	-11.3282
▁solve	-11.3288
standard	-11.3293
▁tennessee	-11.3293
▁insurance	-11.3293
▁wrought	-11.3293
▁trash	-11.3295
▁invited	-11.3299
▁icsoba	-11.3299
▁circumstances	-11.3302
▁refill	-11.3306
▁resort	-11.3308
blank	-11.3312
they	-11.3325
▁shortly	-11.3326
▁advisor	-11.3333
95	-11.3337
▁wake	-11.3339
▁lineup	-11.3342
▁stone	-11.3344
ie	-11.3344
▁influx	-11.3348
▁counterpart	-11.335
▁alabama	-11.3351
▁scottish	-11.3352
▁demerger	-11.3352
▁hillside	-11.3352
▁cited	-11.3352
▁supportive	-11.3353
gen	-11.3353
▁advisory	-11.3354
▁credentials	-11.3354
▁wireless	-11.3355
▁2007	-11.3355
▁cobalt	-11.3356
▁baseline	-11.3357
▁startup	-11.3361
▁amp	-11.3367
▁traditionally	-11.3368
▁greatly	-11.3372
▁trailers	-11.3377
▁peers	-11.339
$6	-11.3391
▁acid	-11.3396
▁cooper	-11.3397
▁joe	-11.34
▁href	-11.3408
▁royalty	-11.3408
▁pegged	-11.3409
▁tubing	-11.3414
capacity	-11.3417
▁4.4	-11.3417
▁opt	-11.3419
,010	-11.3421
▁aesthetics	-11.3422
article	-11.3427
rs	-11.3433
specific	-11.3434
▁charged	-11.3435
▁nearing	-11.3444
▁hospital	-11.3454
▁intervention	-11.3454
▁consequence	-11.3454
▁label	-11.3459
▁capitalise	-11.3461
▁ml	-11.3465
▁thomas	-11.3466
▁epidemic	-11.3466
▁propulsion	-11.3467
▁nano	-11.3467
▁traction	-11.3467
▁loses	-11.3467
,460	-11.3467
▁atlantic	-11.347
body	-11.347
▁powerhouse	-11.3475
▁farmers	-11.3482
▁enthusiasts	-11.3486
▁22,000	-11.3488
▁quotes	-11.3493
▁0.7	-11.3497
000	-11.3499
47	-11.35
▁consumes	-11.3507
▁associate	-11.3509
▁composites	-11.3509
▁interesting	-11.3512
▁student	-11.3516
250	-11.3516
amongst	-11.3523
▁intermittent	-11.3524
▁glut	-11.3524
▁khalid	-11.3525
▁giddings	-11.3525
▁packages	-11.3526
▁famous	-11.3528
▁submit	-11.3529
▁3.8	-11.3531
▁chequer	-11.3533
▁87	-11.3536
▁shri	-11.3538
▁sample	-11.3539
efficiency	-11.3546
positioned	-11.3546
▁wang	-11.3546
▁sculpture	-11.3572
▁exempt	-11.3575
▁welcomes	-11.3579
▁afternoon	-11.3583
▁originating	-11.3584
▁circulation	-11.3584
▁preserving	-11.3584
▁sdn	-11.3584
▁decarbonising	-11.3584
▁morgan	-11.3585
▁tourism	-11.3585
▁traffic	-11.3588
▁16,000	-11.359
▁garmco	-11.3591
▁cylinder	-11.3591
▁negatively	-11.3592
referred	-11.3595
▁lastly	-11.3603
▁historically	-11.3603
most	-11.3604
reuters	-11.3607
ii	-11.3615
▁inspections	-11.3617
▁par	-11.3621
▁bless	-11.3623
▁artist	-11.3624
▁appear	-11.363
▁recognis	-11.3631
▁registers	-11.3636
▁constitute	-11.3643
▁visibility	-11.3643
▁rehabilitation	-11.3643
▁diversity	-11.3644
▁breweries	-11.3644
▁invite	-11.3647
▁drawn	-11.365
▁max	-11.3652
▁appears	-11.3652
▁versions	-11.3656
▁love	-11.3656
▁slashed	-11.3658
▁reveal	-11.3664
▁zhang	-11.3665
esg	-11.3666
▁ap	-11.367
▁kilograms	-11.3684
$25	-11.3691
▁bath	-11.3692
▁haul	-11.3694
▁ceiling	-11.3697
▁vibrant	-11.3702
▁popularity	-11.3702
▁kolkata	-11.3702
▁twenty	-11.3703
▁intend	-11.3705
”)	-11.3708
metals	-11.371
▁strides	-11.3712
▁ice	-11.3717
▁proof	-11.372
▁trigger	-11.3724
▁reinforced	-11.3724
▁suited	-11.3733
0%	-11.3737
▁smes	-11.3749
▁enhancement	-11.3754
▁tension	-11.3756
▁ride	-11.3758
mp	-11.376
▁calcination	-11.3762
▁stimulus	-11.3762
▁coverage	-11.3763
▁opposition	-11.3763
▁releases	-11.3763
▁measuring	-11.3763
▁missouri	-11.3764
▁prize	-11.3768
▁desired	-11.3768
▁subsidy	-11.3777
▁degrees	-11.3779
af	-11.3785
▁prospect	-11.3792
▁converting	-11.3796
▁puts	-11.3798
▁spin	-11.38
▁channels	-11.3801
▁backing	-11.3802
▁94	-11.3803
'>	-11.3804
▁publication	-11.3815
▁pathway	-11.3816
▁machined	-11.382
▁mountain	-11.3821
▁twice	-11.3822
▁henderson	-11.3823
▁intellectual	-11.3823
▁scarcity	-11.3823
▁oceania	-11.3824
▁fantastic	-11.3824
▁logan	-11.3825
▁triple	-11.3826
▁taha	-11.3827
▁13%	-11.3828
▁audits	-11.3837
▁approve	-11.3838
core	-11.3857
,200	-11.3864
▁relative	-11.3869
380	-11.387
▁regime	-11.3874
▁valuation	-11.3874
▁reaffirm	-11.3874
▁aai	-11.3875
▁winner	-11.3875
▁execute	-11.3878
▁rep	-11.3881
▁lianyungang	-11.3883
▁goldman	-11.3884
▁varied	-11.3884
▁romanian	-11.3889
▁5.	-11.3891
▁walling	-11.3898
▁1.25	-11.3905
chinese	-11.3906
despite	-11.3906
ha	-11.3908
▁provisions	-11.3923
▁thinking	-11.3936
▁undertake	-11.3938
te	-11.3938
▁shaped	-11.3939
▁sequential	-11.3942
▁sudden	-11.3942
▁pará	-11.3944
▁standalone	-11.3945
▁endurance	-11.3945
▁customized	-11.3946
▁throughput	-11.3948
▁hind	-11.3952
▁bikes	-11.396
▁eafa	-11.3963
▁tanks	-11.3969
range	-11.3979
▁fee	-11.3984
▁3.0	-11.3984
,500	-11.3989
▁desire	-11.3992
,570	-11.3992
▁academic	-11.3998
▁negotiation	-11.4
▁paving	-11.4006
▁sturdy	-11.4006
▁prospective	-11.4006
▁comfortable	-11.4007
▁19,300	-11.401
▁disrupted	-11.4011
▁5.1	-11.4013
▁striv	-11.4017
evs	-11.4017
▁certificates	-11.402
▁friction	-11.402
$12	-11.4021
▁35,000	-11.4028
▁di	-11.4028
scrap	-11.4029
balco	-11.4029
▁croatia	-11.4033
▁restarted	-11.4036
▁5.7	-11.4038
▁foot	-11.4043
▁spans	-11.4048
▁earths	-11.4051
▁instruments	-11.4052
▁concentrate	-11.4056
▁accordingly	-11.4056
▁reache	-11.4061
fe	-11.4068
▁lochaber	-11.4068
▁intense	-11.4069
▁tracks	-11.4073
▁invests	-11.4075
▁dips	-11.4076
▁jw	-11.4087
oriented	-11.4091
$28	-11.4091
▁litres	-11.4096
▁develops	-11.4098
▁6.3	-11.4107
▁entrepreneurs	-11.412
▁hydraulic	-11.4121
▁declaration	-11.4126
▁mandatory	-11.4129
▁mohamed	-11.4129
▁stepped	-11.413
meter	-11.413
,730	-11.4134
50/	-11.4144
ghg	-11.4147
$24	-11.4149
▁attracted	-11.4153
▁ripple	-11.4156
▁135	-11.416
▁exhibits	-11.4179
dmt	-11.4185
▁college	-11.4186
▁slide	-11.4189
▁municipal	-11.4191
▁ourselves	-11.4192
▁optical	-11.4192
▁supposed	-11.4192
▁pennsylvania	-11.4192
▁dried	-11.4194
▁nokia	-11.4194
▁bidding	-11.4195
▁92	-11.4196
▁separately	-11.4199
▁sept	-11.4207
top	-11.421
west	-11.4211
sector	-11.4211
▁80,000	-11.4211
▁skin	-11.4215
▁premises	-11.4217
$4	-11.4228
▁epa	-11.4231
oil	-11.4238
▁hydroelectric	-11.4241
due	-11.4243
▁aud	-11.425
▁bicycle	-11.4252
▁occur	-11.4252
▁satellite	-11.4252
▁uninterrupted	-11.4253
▁bigmint	-11.4254
▁precious	-11.4257
▁commissioner	-11.4257
▁internet	-11.4258
▁metre	-11.4259
▁20,100	-11.426
▁distance	-11.4261
novelis	-11.428
▁trim	-11.4281
$14	-11.4286
la	-11.4293
car	-11.4317
▁diamond	-11.4317
▁speech	-11.4317
▁chicago	-11.4318
▁keynote	-11.4318
▁prosperity	-11.4318
▁concurrently	-11.4318
▁polymer	-11.4319
▁indeed	-11.432
▁slovenia	-11.4321
▁2005	-11.4327
▁seventh	-11.4337
$30	-11.4339
▁crores	-11.434
▁jack	-11.4342
▁perth	-11.4342
edition	-11.4344
▁cosmetics	-11.4347
▁nov	-11.4355
▁performing	-11.4357
▁absorb	-11.4358
▁click	-11.4362
pack	-11.4367
▁du	-11.4371
ng	-11.4374
▁walk	-11.4377
▁coo	-11.4378
▁eager	-11.438
▁consensus	-11.4381
▁clay	-11.4382
▁dramatically	-11.4382
▁sydney	-11.4383
▁krasnoyarsk	-11.4383
▁properly	-11.4385
▁energies	-11.4387
▁accredited	-11.4388
▁gathered	-11.439
▁sensitive	-11.4396
▁bonds	-11.4397
▁jnarddc	-11.4398
▁#	-11.4401
▁2050,	-11.4403
$8	-11.4404
▁seats	-11.4406
▁protocols	-11.4406
▁brief	-11.4413
▁bi	-11.4415
▁persist	-11.4416
▁connections	-11.4417
win	-11.4423
accompanied	-11.4423
▁campaigns	-11.4429
39	-11.4433
▁deploy	-11.444
▁spare	-11.4442
▁incredibly	-11.4446
▁worries	-11.4446
▁arriving	-11.4446
▁mexican	-11.4446
▁marubeni	-11.4447
▁controlling	-11.445
conformances	-11.4453
▁strongest	-11.4454
▁moon	-11.4455
▁dive	-11.4461
risk	-11.4463
▁omc	-11.4463
▁inherent	-11.4472
▁packed	-11.4474
▁phones	-11.4475
ized	-11.4476
,660	-11.4478
▁agree	-11.4485
41	-11.4485
size	-11.4486
point	-11.4491
▁cy	-11.4495
▁prioritise	-11.4505
▁layout	-11.451
▁assistant	-11.451
▁azerbaijan	-11.4511
▁google	-11.4512
building	-11.4513
▁broken	-11.4513
▁greatest	-11.4514
▁tied	-11.4515
▁socio	-11.4522
▁welded	-11.4523
▁surpassed	-11.4523
$19	-11.4529
,790	-11.4536
january	-11.4537
▁presenting	-11.4544
propelled	-11.4549
▁underline	-11.4562
▁broaden	-11.4566
▁refine	-11.4568
▁procure	-11.457
▁layers	-11.4571
▁lifespan	-11.4571
▁bayuquan	-11.4575
▁ducab	-11.4575
▁inauguration	-11.4575
▁injuries	-11.4575
▁scrutiny	-11.4576
▁colorado	-11.4576
▁powertrain	-11.4577
▁consultant	-11.4577
▁5.2	-11.4583
ier	-11.4583
▁saint	-11.4595
▁delve	-11.4599
hour	-11.4599
steel	-11.4602
▁bad	-11.4607
▁discover	-11.461
▁flood	-11.4611
▁speak	-11.4619
navigating	-11.464
▁auxiliary	-11.464
▁graham	-11.464
▁bhubaneswar	-11.4641
▁oswego	-11.4641
▁partial	-11.4641
▁tetra	-11.4642
▁fusion	-11.4642
▁exactly	-11.4642
▁mubadala	-11.4642
▁wishes	-11.4643
▁northeast	-11.4645
▁binding	-11.4659
▁1990	-11.4663
▁2017-19	-11.4666
ukraine	-11.4668
▁lasting	-11.4675
ti	-11.4676
▁cool	-11.4682
▁shock	-11.4689
▁5.4	-11.4695
evaluating	-11.4706
▁pune	-11.4707
▁exact	-11.4707
▁remarked	-11.4707
▁boxes	-11.4709
▁reasonable	-11.471
▁complaint	-11.4711
▁strain	-11.4717
▁frp	-11.472
today	-11.4723
▁defines	-11.4723
▁heights	-11.4728
canada	-11.4735
▁rescue	-11.4738
▁shrinking	-11.4739
▁happening	-11.4742
▁filter	-11.4747
▁ras	-11.4748
▁clearing	-11.4753
▁consolidation	-11.4772
▁kallevik	-11.4772
▁capesize	-11.4773
▁worst	-11.4774
▁19,200	-11.4777
▁35%	-11.4779
▁lose	-11.4782
▁undergo	-11.4785
▁6.2	-11.4791
▁$15	-11.4795
general	-11.4799
awaited	-11.4801
▁0.9	-11.4803
▁gather	-11.4809
▁fun	-11.481
▁ip	-11.4816
ri	-11.4818
add	-11.482
▁ad	-11.4824
▁depth	-11.4827
68	-11.4833
▁negotiate	-11.4834
way	-11.4836
▁consolidate	-11.4837
▁louisiana	-11.4839
▁gansu	-11.4839
▁hilde	-11.484
▁stricter	-11.4841
▁albras	-11.4841
▁gaming	-11.4841
▁inspiring	-11.4843
▁19,400	-11.4843
▁brake	-11.4847
▁yard	-11.485
▁hd	-11.485
▁mcx	-11.4851
drs	-11.4854
▁encompassing	-11.4858
53	-11.4867
technology	-11.4868
▁rain	-11.4883
▁underpin	-11.4885
▁proceedings	-11.4894
▁fan	-11.4905
▁moisture	-11.4906
▁portugal	-11.4906
▁brass	-11.4906
▁mandate	-11.4907
▁transferred	-11.4907
▁virginia	-11.4907
▁hydroxide	-11.4907
▁goyal	-11.4907
▁vacuum	-11.4907
$13	-11.4908
▁rejected	-11.491
▁platinum	-11.4912
▁16%	-11.4914
▁18%	-11.4914
360)	-11.4914
since	-11.4919
▁mi	-11.4923
▁responded	-11.4923
▁2002	-11.4927
▁cm	-11.4928
▁lessen	-11.4929
▁19,800	-11.4933
▁1,250	-11.4935
▁appoint	-11.494
▁correct	-11.4946
ted	-11.4948
▁wines	-11.495
▁toll	-11.4952
▁19,600	-11.4953
either	-11.4955
▁identifying	-11.496
650	-11.4962
▁semiconductors	-11.4973
▁adani	-11.4974
▁modernization	-11.4975
▁hedging	-11.4975
▁thyssenkrupp	-11.4975
▁tokyo	-11.4975
▁renault	-11.4975
▁sapphire	-11.4975
▁recognises	-11.4975
▁phinergy	-11.4976
▁hawesville	-11.4976
▁gove	-11.4977
▁jlr	-11.498
▁booth	-11.4981
▁coastal	-11.4982
▁extruder	-11.4982
▁pathways	-11.4983
▁assembled	-11.4983
36	-11.4983
▁cabin	-11.4983
▁egyptalum	-11.4984
▁closes	-11.4986
▁happened	-11.4989
▁75,000	-11.4992
wmt	-11.4999
▁processor	-11.5003
▁root	-11.5008
more	-11.5009
▁limitations	-11.501
▁deco	-11.5011
,300	-11.5012
▁slag	-11.5021
▁spearhead	-11.5024
▁wise	-11.503
▁360	-11.5031
▁5.8	-11.5032
rate	-11.5035
▁nevs	-11.5038
ball	-11.5038
tic	-11.5039
▁realise	-11.5039
▁profound	-11.504
▁idle	-11.504
▁progressive	-11.504
▁divisions	-11.5041
▁continuity	-11.5042
▁jiangxi	-11.5042
▁uniform	-11.5042
▁occupation	-11.5043
▁thriving	-11.5043
▁vimetco	-11.5044
▁urge	-11.5045
▁illustrated	-11.5045
▁emphasized	-11.5047
▁regulators	-11.505
▁accident	-11.505
▁promised	-11.5051
▁philippines	-11.5054
▁des	-11.5054
$26	-11.5058
▁bench	-11.5062
▁gt	-11.507
▁2027.	-11.5088
1,600	-11.5098
▁ramped	-11.51
▁dock	-11.5102
ca	-11.5109
▁creativity	-11.511
▁cubic	-11.5111
▁torque	-11.5111
▁upswing	-11.5111
▁turnaround	-11.5112
▁warmly	-11.5112
▁justice	-11.5112
▁absorption	-11.5112
▁kwinana	-11.5112
▁nsw	-11.5114
▁leakage	-11.5116
▁gwh	-11.5121
▁★)	-11.513
▁2,750	-11.513
▁27,000	-11.5133
▁refiners	-11.5139
▁dong	-11.517
▁intra	-11.5173
▁biz	-11.5174
▁ft	-11.5177
▁inspiration	-11.5178
▁backbone	-11.518
▁celestial	-11.5181
cl	-11.5182
▁brl	-11.5182
▁verification	-11.5183
▁accreditation	-11.5184
▁20,400	-11.5186
▁stakeholder	-11.5186
▁holders	-11.5187
▁keyboard	-11.519
▁sez	-11.5192
▁rick	-11.5193
▁carmakers	-11.5193
▁diameter	-11.5194
▁cbg	-11.5196
▁warning	-11.5198
4,100	-11.52
▁disputes	-11.5204
▁800,000	-11.5206
▁picked	-11.5207
precision	-11.5211
▁saved	-11.5211
▁auctions	-11.5222
▁citizens	-11.5228
ft	-11.5234
,170	-11.5241
99	-11.5241
▁impurities	-11.5249
▁alufoil	-11.5249
▁ranshofen	-11.5249
▁revival	-11.5249
▁entrepreneur	-11.5249
▁mln	-11.5252
▁fitted	-11.5253
▁19,500	-11.5254
▁knots	-11.5254
▁streamlined	-11.5257
▁preference	-11.5259
▁robotic	-11.5267
▁adher	-11.5271
▁treated	-11.5272
▁24,000	-11.5272
▁$60	-11.5277
▁mo	-11.5279
▁teamed	-11.5282
▁emerges	-11.5287
uae	-11.5291
-20	-11.5293
,890	-11.5295
j	-11.53
▁€	-11.53
▁explored	-11.531
▁roofing	-11.5316
▁screw	-11.5317
▁valid	-11.5318
▁appetite	-11.5319
▁academy	-11.5319
▁ordinary	-11.5319
▁saguenay	-11.5319
▁investigate	-11.532
▁tenure	-11.532
▁lunar	-11.5321
▁formwork	-11.5322
▁tighter	-11.5323
▁fiji	-11.5324
▁20,300	-11.5326
▁kitchen	-11.5328
▁tree	-11.5337
formally	-11.5343
88	-11.5348
▁epc	-11.5348
▁88	-11.5348
bodied	-11.5351
business	-11.5351
national	-11.5351
▁outperform	-11.5351
▁skill	-11.5354
▁2040	-11.5354
▁considers	-11.5354
light	-11.537
will	-11.5373
▁320	-11.5373
▁weaken	-11.5374
▁setup	-11.5383
▁collapse	-11.5384
▁scaled	-11.5387
responsibilities	-11.5389
▁residual	-11.5389
▁duffel	-11.539
▁allied	-11.5391
▁digitalisation	-11.5392
▁debate	-11.5392
▁consistency	-11.5392
▁expend	-11.5393
▁unfairly	-11.5394
▁threatened	-11.5395
▁17%	-11.5395
▁restarting	-11.5398
▁colleagues	-11.5405
▁380	-11.5408
▁election	-11.5408
▁regarded	-11.5413
phase	-11.5416
▁ores	-11.5419
▁rivals	-11.5421
output	-11.5422
31	-11.5428
▁extracting	-11.5429
▁goa	-11.5433
2/	-11.5439
$18	-11.544
▁hundred	-11.5444
▁4.8	-11.5444
backed	-11.545
▁motion	-11.5453
▁foam	-11.5455
57	-11.5457
▁stabilise	-11.5459
ão	-11.5459
▁steinert	-11.5461
▁trafigura	-11.5463
▁serbia	-11.5463
▁tightness	-11.5463
▁dumped	-11.5465
▁evolved	-11.5466
▁explosion	-11.5468
▁compelling	-11.5469
▁appreciated	-11.5469
▁celebration	-11.5473
▁hedge	-11.5477
▁downside	-11.5478
ne	-11.5489
$23	-11.5493
▁periods	-11.5494
▁adjust	-11.5502
▁remelt	-11.5503
,780	-11.5505
▁tar	-11.5509
▁proceed	-11.5515
▁fraction	-11.5518
▁cardboard	-11.5531
▁gratitude	-11.5531
▁music	-11.5532
▁anodising	-11.5532
▁freedom	-11.5532
▁dominance	-11.5533
▁naval	-11.5533
▁ningbo	-11.5533
▁tangible	-11.5534
▁$0.01	-11.5534
▁injection	-11.5535
▁southland	-11.5537
▁twh	-11.5537
▁substitute	-11.5539
▁meantime	-11.554
59	-11.5542
▁exceptionally	-11.5543
▁notification	-11.5544
▁lifestyle	-11.5546
▁certifie	-11.5547
▁antam	-11.5547
▁employer	-11.5548
▁width	-11.5549
▁wing	-11.555
▁roller	-11.555
▁movers	-11.5568
▁kw	-11.557
industrial	-11.5571
▁columbia	-11.5573
,090	-11.5575
▁sponsors	-11.5578
▁hp	-11.5579
▁2017-20	-11.5584
▁si	-11.5593
bike	-11.5593
▁shutdowns	-11.5598
▁jeff	-11.5603
▁foremost	-11.5603
▁swing	-11.5603
▁hyderabad	-11.5604
▁exploitation	-11.5604
▁yarwun	-11.5604
▁gary	-11.5605
▁charles	-11.5606
▁beam	-11.561
▁brown	-11.5611
▁longstanding	-11.5612
cu	-11.5615
▁resolved	-11.5618
▁tailings	-11.5621
▁naturally	-11.5632
▁consultations	-11.5633
what	-11.5634
linked	-11.5638
▁permission	-11.5643
▁le	-11.5646
lasting	-11.5648
▁lu	-11.5648
2023	-11.5665
▁edges	-11.5669
ah	-11.567
▁safeguarding	-11.5675
▁wrote	-11.5676
▁dramatic	-11.5676
▁competing	-11.5676
▁mahindra	-11.5676
▁advice	-11.5677
▁roy	-11.5678
▁79	-11.5681
▁refillable	-11.5682
▁csr	-11.5684
▁shops	-11.5685
▁su	-11.5691
▁instrument	-11.5692
▁submission	-11.5692
▁reactor	-11.5693
▁bed	-11.5694
wire	-11.5699
05	-11.5702
2024	-11.5704
▁3.9	-11.5705
mn	-11.5708
border	-11.5711
$11	-11.5717
▁realm	-11.5722
▁snap	-11.5723
▁aggregate	-11.5723
▁prefer	-11.5726
▁gen	-11.573
▁football	-11.5735
▁benefiting	-11.5735
meticulously	-11.5741
beit	-11.5744
▁survive	-11.5744
▁synergy	-11.5749
▁detroit	-11.5749
▁celebrating	-11.5752
▁anhui	-11.5755
▁discipline	-11.5761
▁suffering	-11.5762
▁pivot	-11.5762
▁ann	-11.5762
▁2,250	-11.5764
▁log	-11.5765
▁2006	-11.5769
▁$200	-11.5772
▁310	-11.5774
▁ingredients	-11.5784
▁lids	-11.5795
wheel	-11.5799
land	-11.5803
▁carrier	-11.5807
merete	-11.5807
▁dated	-11.5808
▁scenarios	-11.5811
▁hurdles	-11.5812
▁conserve	-11.5816
▁albanese	-11.5822
▁scalable	-11.5822
▁demanded	-11.5823
▁fashion	-11.5823
▁luggage	-11.5823
▁patrick	-11.5823
▁calderys	-11.5823
▁smartphones	-11.5824
▁quantum	-11.5824
▁advised	-11.5824
▁circlebiz	-11.5824
▁hint	-11.5825
▁|	-11.5825
▁reading	-11.5831
▁struggle	-11.5836
120	-11.5837
▁independence	-11.5838
ability	-11.5841
▁revealing	-11.5848
▁pump	-11.5848
borne	-11.5857
called	-11.5858
▁transporting	-11.5861
metallurgical	-11.5862
▁rebate	-11.5864
▁4.7	-11.5868
sales	-11.5878
▁patents	-11.5879
48	-11.5882
▁spirits	-11.5883
▁mould	-11.5886
going	-11.5888
▁reshape	-11.5891
▁pati	-11.5894
▁amazing	-11.5896
▁karmøy	-11.5896
▁prioritising	-11.5896
▁optimum	-11.5897
▁limestone	-11.5897
0,000	-11.5897
▁chile	-11.5897
▁thai	-11.5898
▁kitimat	-11.5898
▁staggering	-11.5899
▁motorcycles	-11.59
▁alcomet	-11.59
▁maximize	-11.5903
▁excluded	-11.5904
▁george	-11.5906
▁analyse	-11.5909
▁indirectly	-11.5909
kt	-11.5912
10/	-11.5914
two	-11.5915
▁relation	-11.5917
▁2035	-11.5919
stop	-11.5919
▁pak	-11.5922
stage	-11.5925
’22	-11.5926
▁cr	-11.5932
voltage	-11.5933
bullish	-11.5933
▁nev	-11.5951
▁dam	-11.5951
▁dimensions	-11.5953
▁graphics	-11.5953
▁nor	-11.5958
▁exhaust	-11.5959
▁lg	-11.5965
▁arc	-11.5969
▁hopeful	-11.597
▁ciprián	-11.5971
▁philosophy	-11.5971
▁blister	-11.5972
▁ferry	-11.5972
▁chemistry	-11.5973
▁prolonged	-11.5973
▁sortera	-11.5975
▁opposed	-11.5976
▁enduring	-11.5976
▁climbs	-11.598
▁sme	-11.5981
▁revive	-11.5981
▁yen	-11.5982
▁wan	-11.5984
▁(31	-11.5987
▁2001	-11.5988
taining	-11.599
▁70,000	-11.599
▁guided	-11.5991
▁bio	-11.5993
▁ceramics	-11.5994
▁deploying	-11.5995
▁vs	-11.5999
▁soars	-11.6
royce	-11.6007
inventories	-11.6008
european	-11.601
▁screening	-11.6012
red	-11.6018
$29	-11.6019
▁breaks	-11.6024
450	-11.6025
▁inch	-11.6028
▁berlin	-11.6028
foil	-11.6029
▁examine	-11.6033
coc	-11.6041
▁blow	-11.6043
▁$30	-11.6043
▁exchangers	-11.6045
▁sen	-11.6046
▁anglo	-11.6046
▁turkish	-11.6047
▁crunch	-11.6048
▁twist	-11.6048
8,100	-11.605
▁shield	-11.605
proof	-11.6051
litre	-11.6053
▁lng	-11.6056
▁austrian	-11.6056
▁riding	-11.6056
▁225	-11.6056
▁sig	-11.6057
▁pty	-11.6059
▁consume	-11.6062
▁audio	-11.6064
waiting	-11.6064
▁dc	-11.6068
▁contained	-11.6068
▁commit	-11.6069
▁expense	-11.607
▁$1.5	-11.607
mg	-11.6072
▁landing	-11.6078
▁separated	-11.6079
▁whereby	-11.608
▁bear	-11.6083
expected	-11.6084
▁diversifying	-11.6084
▁spa	-11.6089
▁unlocking	-11.6099
ni	-11.6099
▁coach	-11.6105
member	-11.6105
▁feels	-11.6109
▁assume	-11.6116
▁kerr	-11.6119
▁prince	-11.6121
▁sachs	-11.6122
possibly	-11.6122
▁longevity	-11.6122
▁dependency	-11.6122
▁intact	-11.6122
▁levied	-11.6122
▁negotiating	-11.6122
▁predominantly	-11.6123
▁matalco	-11.6123
▁virus	-11.6125
▁journal	-11.6128
▁else	-11.6132
▁happens	-11.6138
▁rooftop	-11.6144
▁mit	-11.6144
▁architect	-11.6146
▁5000	-11.6148
▁$500	-11.615
trade	-11.6153
▁portal	-11.6155
$35	-11.6156
▁costly	-11.6157
shaped	-11.6161
▁founding	-11.6163
ally	-11.6165
▁eyeing	-11.6168
,310	-11.6171
98	-11.6173
▁solidify	-11.6176
▁outlines	-11.6181
selling	-11.6186
▁spray	-11.6188
▁ethical	-11.6196
▁words	-11.6198
▁counsel	-11.6198
▁accumulation	-11.6198
▁exemplified	-11.6198
▁korba	-11.6198
▁police	-11.6198
▁adaptability	-11.6198
▁depressed	-11.6199
▁appreciation	-11.6199
▁stepping	-11.62
▁complementary	-11.62
▁compressed	-11.62
▁beach	-11.6204
li	-11.6205
cut	-11.6206
▁fears	-11.6207
ro	-11.6208
▁fairly	-11.6212
▁hydrate	-11.6215
64	-11.6216
▁tasks	-11.6219
▁reporters	-11.622
posed	-11.6221
▁generator	-11.6223
▁msmes	-11.6226
▁slip	-11.6227
▁boosts	-11.623
type	-11.6232
▁1,750	-11.6233
▁aside	-11.6237
2021	-11.6238
▁6061	-11.6241
▁370	-11.6246
▁5.6	-11.6246
▁lock	-11.6248
▁bolstering	-11.6253
war	-11.6256
3)	-11.626
star	-11.6263
▁preferences	-11.6263
▁tea	-11.6267
▁distribute	-11.627
kw	-11.6272
▁curated	-11.6276
▁henry	-11.6276
▁$25	-11.6279
▁severely	-11.6281
▁written	-11.6282
▁optimized	-11.6286
▁290	-11.629
▁evolve	-11.6294
▁pillar	-11.6306
▁£1	-11.631
busch	-11.6314
packaging	-11.6315
▁causes	-11.6317
10,000	-11.6325
▁dividends	-11.6326
▁map	-11.6331
95,000	-11.6334
ceo	-11.6337
melting	-11.6344
▁weld	-11.635
▁entries	-11.6353
▁unfavourable	-11.6353
▁harsh	-11.6353
▁clarity	-11.6353
▁intermediate	-11.6353
▁definitely	-11.6354
▁trivium	-11.6354
▁warehousing	-11.6354
makers	-11.6358
▁20,200	-11.636
▁allies	-11.636
▁jisco	-11.6363
▁tooling	-11.6364
▁formats	-11.6369
▁specializes	-11.6372
board	-11.6377
▁dream	-11.638
▁tu	-11.6381
strong	-11.6385
▁passing	-11.6392
▁acer	-11.6392
dollar	-11.6393
▁vp	-11.6394
▁175	-11.6397
▁pop	-11.6398
▁concludes	-11.6403
ups	-11.6405
,185	-11.6405
▁packing	-11.6415
▁battle	-11.6422
▁19,700	-11.6427
izing	-11.6428
▁depict	-11.643
aught	-11.643
▁methodology	-11.6431
▁unmatched	-11.6431
▁feasible	-11.6431
cing	-11.6431
▁fatigue	-11.6431
▁honeycomb	-11.6431
▁morocco	-11.6431
▁qinghai	-11.6431
▁classified	-11.6433
▁bayer	-11.6433
▁modified	-11.6434
▁sky	-11.6444
▁brock	-11.6445
▁minda	-11.6445
▁corner	-11.6448
▁sealing	-11.645
▁independently	-11.6451
▁ps	-11.6453
▁objects	-11.6455
67	-11.6457
▁shortfall	-11.6457
▁fruit	-11.6459
reliant	-11.6472
processing	-11.6482
fuel	-11.6485
▁7.4	-11.6493
pplying	-11.6506
▁2027	-11.6506
▁exhibitions	-11.6507
▁meadow	-11.651
▁prowess	-11.651
▁thinner	-11.651
▁grey	-11.651
▁billiton	-11.651
▁trophy	-11.6511
▁praised	-11.6511
▁xi	-11.6523
▁alike	-11.6534
▁cancellation	-11.6537
▁”	-11.6537
dustrialisation	-11.6538
▁stadium	-11.6538
▁horizon	-11.6539
▁magnets	-11.654
▁fabricator	-11.6542
▁enclosures	-11.6546
▁tell	-11.6548
development	-11.655
facility	-11.6551
mobility	-11.6551
▁stretch	-11.6558
▁da	-11.6566
▁worker	-11.6566
ta	-11.6567
▁2012,	-11.6569
▁000	-11.6575
▁protected	-11.6575
certification	-11.6578
,800	-11.6582
▁restarts	-11.6586
▁theoretical	-11.6587
▁structured	-11.6588
▁clarified	-11.6589
▁fenestration	-11.6589
▁traceability	-11.6589
▁luxembourg	-11.6589
▁pullback	-11.659
▁alouette	-11.659
▁antaike	-11.659
▁leather	-11.659
▁restoration	-11.659
▁bangladesh	-11.6591
▁0.07	-11.6593
▁390	-11.6596
ting	-11.6597
▁didn	-11.6602
emissions	-11.6603
▁gaps	-11.6609
1020	-11.661
▁thrive	-11.6611
$33	-11.6611
▁exercise	-11.6612
▁pledge	-11.6613
▁sanction	-11.6615
▁conclude	-11.6615
ir	-11.6616
▁accomplishment	-11.662
▁asking	-11.6621
,340	-11.6623
▁drag	-11.6627
hours	-11.6628
,260	-11.663
changer	-11.6631
37	-11.6634
went	-11.6636
▁statements	-11.6637
▁bound	-11.6642
▁4.3	-11.665
▁oct	-11.6654
▁acp	-11.6658
▁ensured	-11.6658
di	-11.6659
▁165	-11.666
ge	-11.6661
49	-11.6665
▁unexpected	-11.6668
▁anheuser	-11.6669
▁decorative	-11.6669
▁exemplifies	-11.6669
▁utilities	-11.6669
▁entertainment	-11.6669
▁spacecraft	-11.6669
▁meckering	-11.6669
▁automatically	-11.667
▁pretty	-11.667
▁continually	-11.667
▁outlets	-11.667
▁wholesale	-11.667
▁agrees	-11.667
▁irish	-11.6671
▁cfr	-11.6671
▁govern	-11.6673
▁kit	-11.6676
▁fiber	-11.6677
▁argued	-11.6677
▁assorted	-11.6678
7,600	-11.6679
me	-11.6679
lb	-11.6683
▁widening	-11.6685
▁varying	-11.6685
▁concepts	-11.6686
▁parks	-11.6688
▁answer	-11.6691
▁23,000	-11.6693
▁pa	-11.6698
▁dealing	-11.6701
▁underscored	-11.6725
cycle	-11.6727
▁wagons	-11.6733
▁interact	-11.6738
fi	-11.6739
▁honor	-11.6743
billet	-11.6745
wheeler	-11.6745
▁milan	-11.6746
▁invaluable	-11.675
santee	-11.675
▁executing	-11.675
▁allotted	-11.675
▁arbitrage	-11.675
▁plasma	-11.675
▁anywhere	-11.6751
▁sodium	-11.6751
▁greek	-11.6752
▁filtration	-11.6752
▁turns	-11.6752
▁directorate	-11.6752
▁denotes	-11.6753
▁bronze	-11.6755
▁duration	-11.6756
▁shareholding	-11.6756
▁stories	-11.6762
▁shrinks	-11.6762
ity	-11.6767
▁formula	-11.6769
▁2003	-11.677
▁technologically	-11.677
▁ch	-11.6771
▁mechanisms	-11.6783
46	-11.6786
▁(1)	-11.6788
▁145	-11.6789
,400	-11.679
▁pact	-11.6792
▁ib	-11.6795
2025	-11.6802
▁item	-11.6807
▁educate	-11.6812
▁accus	-11.6814
▁sum	-11.6823
$21	-11.6828
▁stimulate	-11.6829
veraging	-11.6831
▁identity	-11.6831
▁parity	-11.6831
▁düsseldorf	-11.6831
▁florida	-11.6831
▁boyne	-11.6832
▁drastically	-11.6832
▁johor	-11.6832
▁alumetal	-11.6832
▁alumil	-11.6832
▁dte	-11.6834
▁older	-11.6835
▁noble	-11.6836
▁2009,	-11.6836
▁4.6	-11.6838
▁none	-11.684
-25	-11.6862
▁captured	-11.6863
warrant	-11.6865
▁fertiliser	-11.6865
5/	-11.687
▁fyi	-11.6871
▁(2)	-11.6873
▁robots	-11.6876
ltd	-11.6877
▁ion	-11.6879
ac	-11.6879
cc	-11.6882
drink	-11.6886
▁interiors	-11.6887
97	-11.6893
ver	-11.6894
▁saf	-11.6906
▁divergence	-11.6913
▁eurozone	-11.6913
▁moscow	-11.6914
▁wisconsin	-11.6914
▁remainder	-11.6914
▁uneven	-11.6915
▁league	-11.6915
▁brussels	-11.6916
▁convertible	-11.6916
▁attached	-11.6917
▁divided	-11.6917
▁vale	-11.6917
79	-11.6918
▁succeed	-11.6919
▁milling	-11.6927
,020	-11.6929
▁counterparts	-11.6932
▁bowl	-11.6933
▁bridges	-11.6935
▁formerly	-11.6944
▁judge	-11.6946
▁configuration	-11.695
aai	-11.6951
▁vendors	-11.6954
▁principle	-11.6955
▁132	-11.6956
▁bottled	-11.6958
$40	-11.696
▁spectro	-11.6973
▁cameras	-11.6977
ment	-11.6982
▁mitigat	-11.6984
▁applies	-11.6996
▁retirement	-11.6996
▁karnataka	-11.6996
▁pinjarra	-11.6996
▁issuance	-11.6996
▁warrick	-11.6997
▁grinding	-11.6998
▁acceleration	-11.6998
▁swiftly	-11.6999
▁21%	-11.7006
▁builders	-11.7007
▁utensils	-11.7007
38	-11.7009
,290	-11.7011
▁warming	-11.7014
▁concessions	-11.7016
▁420	-11.7017
▁dispose	-11.7019
▁28,000	-11.702
▁pen	-11.7021
▁flooding	-11.7022
▁yielded	-11.7028
rod	-11.7029
▁pc	-11.7033
▁speculation	-11.7033
▁em	-11.7035
▁collector	-11.7037
ounce	-11.7039
▁ha	-11.7041
▁tpy	-11.7051
,870	-11.7055
▁mar	-11.7055
▁majorly	-11.7055
▁variations	-11.7056
▁intake	-11.7057
$27	-11.7063
▁$300	-11.7067
relating	-11.7073
solar	-11.7076
▁craftsmanship	-11.7079
▁universities	-11.7079
▁refrain	-11.7079
▁indispensable	-11.7079
▁stunning	-11.7079
▁cooperative	-11.7079
track	-11.7079
▁egyptian	-11.708
navratna	-11.708
▁impressed	-11.708
▁navy	-11.7081
▁mutually	-11.7083
▁frank	-11.7088
▁aerosols	-11.7089
▁pvc	-11.709
il	-11.709
▁toxic	-11.709
gw	-11.709
,840	-11.7093
▁modi	-11.7097
performing	-11.7102
▁dominate	-11.7113
▁sugar	-11.7117
▁laying	-11.7117
▁4000	-11.7118
▁allegations	-11.7119
▁towers	-11.712
▁psu	-11.712
▁venue	-11.7121
ter	-11.7122
▁lee	-11.7123
▁realization	-11.7124
tm	-11.7125
▁realisation	-11.7128
▁treat	-11.713
▁hi	-11.7133
▁illustrates	-11.7134
▁usb	-11.7138
▁cope	-11.7139
volume	-11.7142
frame	-11.7147
56	-11.7151
▁suppress	-11.7152
,710	-11.7158
▁consultants	-11.7161
▁brandtzæg	-11.7163
▁incorporation	-11.7163
▁arbitration	-11.7164
▁visakhapatnam	-11.7164
▁coors	-11.7165
▁quest	-11.7167
▁stark	-11.7169
▁perspectives	-11.7171
$9	-11.7171
▁mention	-11.7171
▁qamco	-11.7172
▁mild	-11.7174
not	-11.7176
▁reopening	-11.7179
▁benefited	-11.7182
▁men	-11.7183
▁sorted	-11.7187
proving	-11.7191
▁exclusion	-11.7202
▁barge	-11.7204
▁abr	-11.721
australian	-11.7211
▁crane	-11.7215
▁maximis	-11.7218
▁attend	-11.7224
my	-11.7229
▁detect	-11.7239
▁rob	-11.724
▁lifetime	-11.7242
▁squeeze	-11.7242
▁frequent	-11.7245
▁galaxy	-11.7248
▁taint	-11.7248
▁stylish	-11.7248
▁2019-21	-11.7248
▁hamilton	-11.7248
▁pottangi	-11.7248
conjunction	-11.7248
▁twelve	-11.7248
▁refractories	-11.7249
▁skyrocketed	-11.725
▁capped	-11.7251
▁iii	-11.7252
▁shelves	-11.7253
▁jim	-11.7254
▁pe	-11.7254
▁20,500	-11.7255
,630	-11.7257
▁reaffirmed	-11.726
▁19,100	-11.7261
▁envision	-11.7285
imports	-11.7286
▁amendment	-11.7291
▁eps	-11.7292
white	-11.7295
▁stakes	-11.7297
36,000	-11.7299
▁claiming	-11.7299
designed	-11.73
▁8.5	-11.7302
▁1.14	-11.7303
▁encompass	-11.7303
▁60-	-11.7311
▁4.9	-11.7312
induced	-11.7314
et	-11.7323
▁explicit	-11.7333
▁preservation	-11.7333
▁18,800	-11.7333
▁asahan	-11.7333
▁rubber	-11.7334
▁birmingham	-11.7334
▁outotec	-11.7336
▁reiterated	-11.7337
vehicle	-11.7338
▁6.1	-11.7338
▁19,900	-11.7341
▁19%	-11.7344
▁(3	-11.7344
,510	-11.7346
▁safeguards	-11.7347
▁counted	-11.7348
▁1,400	-11.7353
▁heading	-11.7355
so	-11.7357
▁lotte	-11.7361
now	-11.7362
▁155	-11.7365
▁simulation	-11.7376
356	-11.738
established	-11.7384
▁2011,	-11.7384
▁institution	-11.7388
.48	-11.7396
▁integrates	-11.7405
▁footprints	-11.7417
▁abdul	-11.7419
▁releasing	-11.7419
▁brownfield	-11.7419
▁holistic	-11.7419
▁mundra	-11.7419
▁svein	-11.742
▁confirmation	-11.742
▁billionaire	-11.7421
▁welcoming	-11.7421
▁fittings	-11.7422
▁anrak	-11.7423
▁underpinn	-11.7426
▁eighth	-11.743
▁stack	-11.7431
▁$1.2	-11.7433
▁grace	-11.7433
32,	-11.7433
▁prof	-11.7433
▁104	-11.7434
▁2004	-11.7436
66	-11.7437
▁bonded	-11.7442
20,000	-11.7444
buy	-11.7447
▁sits	-11.7448
▁uniquely	-11.745
▁quotations	-11.745
▁lag	-11.7456
▁650	-11.7457
▁impairment	-11.7461
▁seal	-11.7462
▁doubt	-11.7464
▁ingredient	-11.7464
▁tonnage	-11.7467
delhi	-11.7468
▁checks	-11.7469
▁valve	-11.7469
▁codes	-11.7481
-5-	-11.7494
▁ro	-11.7498
thinking	-11.75
launches	-11.7501
▁expedite	-11.7501
44	-11.7503
▁$7	-11.7504
▁atlanta	-11.7506
▁clientele	-11.7506
▁0.05	-11.7507
▁oplinger	-11.7507
▁paramount	-11.7507
▁email	-11.7507
▁penetration	-11.7507
▁gateway	-11.7507
▁choosing	-11.7508
▁0.20	-11.7508
▁nadu	-11.7508
▁bridgnorth	-11.7509
▁smarter	-11.7511
▁card	-11.7513
▁transformers	-11.7514
3/	-11.7515
▁cba	-11.7518
▁tvs	-11.752
non	-11.7525
establishing	-11.7527
bank	-11.7536
▁52-	-11.7539
▁pharmaceuticals	-11.7542
▁kinds	-11.755
▁qualification	-11.7553
▁recommendation	-11.7554
▁indicator	-11.7555
▁renewal	-11.7555
▁leaves	-11.7564
ian	-11.7565
▁0.25	-11.7567
▁thinks	-11.7582
▁incidents	-11.7586
▁mounted	-11.759
▁attempts	-11.7591
wa	-11.7592
▁expansive	-11.7594
▁vulnerable	-11.7594
▁investigating	-11.7594
▁incurred	-11.7594
▁dingsheng	-11.7594
▁kalahandi	-11.7595
eivind	-11.7596
▁timber	-11.7596
qfy	-11.7597
▁herzegovina	-11.7597
acre	-11.7598
▁arranged	-11.7598
▁reciprocal	-11.7601
▁crushing	-11.7602
premium	-11.7603
$16	-11.7606
,590	-11.7606
▁kick	-11.7611
▁128	-11.7613
▁feb	-11.7613
▁cmi	-11.762
wto	-11.762
▁monitored	-11.7625
▁5,500	-11.7628
▁1,600	-11.7635
▁storm	-11.7637
▁competence	-11.7637
▁supplement	-11.7637
▁1.02	-11.7638
▁alert	-11.7639
▁paste	-11.7642
▁cosmetic	-11.7642
developed	-11.7642
▁rival	-11.7643
▁enclosure	-11.7643
ebitda	-11.7645
▁crystal	-11.7645
▁trace	-11.765
▁pumps	-11.7659
,640	-11.7662
▁spur	-11.7664
▁106	-11.7668
works	-11.7669
▁0.11	-11.7669
▁throw	-11.7672
▁$2.5	-11.7672
,875	-11.7675
▁144	-11.7677
▁ahmed	-11.768
▁excessive	-11.7681
▁beneficiation	-11.7682
▁welfare	-11.7682
▁0.03	-11.7684
▁fellow	-11.7684
▁pyrogenesis	-11.7684
▁rajasthan	-11.7684
▁wiring	-11.7685
▁tamil	-11.7685
▁visionary	-11.7686
▁disciplined	-11.769
▁tried	-11.7697
▁specializ	-11.7698
▁establishe	-11.7708
▁compliant	-11.7708
▁scored	-11.771
▁phased	-11.7715
69	-11.7717
propelling	-11.7722
▁hon	-11.7725
▁finds	-11.7728
▁artwork	-11.7732
scandium	-11.7734
ham	-11.774
um	-11.7761
▁bo	-11.7771
▁damanjodi	-11.7772
▁necessity	-11.7772
▁sherwin	-11.7772
▁electrified	-11.7772
▁undergone	-11.7772
▁android	-11.7772
▁detection	-11.7773
▁apex	-11.7773
▁balancing	-11.7774
▁capturing	-11.7775
▁aerobal	-11.7779
▁widened	-11.778
▁smoothly	-11.778
▁loads	-11.7782
▁anyone	-11.7784
▁housings	-11.7785
▁incremental	-11.7785
▁caution	-11.7785
ch	-11.7786
▁9.5	-11.7796
▁90,000	-11.7799
▁1.05	-11.7799
9,350	-11.7802
6,600	-11.781
▁surprise	-11.7813
▁representation	-11.7822
▁obligation	-11.7823
pandemic	-11.7824
however	-11.7825
three	-11.7825
▁mwh	-11.7826
▁dent	-11.7827
▁manifest	-11.7829
▁generators	-11.7833
ial	-11.7833
▁pad	-11.7836
▁lend	-11.7848
▁ferrari	-11.7857
▁inflow	-11.7859
▁beers	-11.7861
▁nyinahin	-11.7861
▁götz	-11.7862
▁utmost	-11.7862
▁agility	-11.7862
▁muscle	-11.7862
▁minority	-11.7862
▁commencing	-11.7863
▁regardless	-11.7865
▁0.08	-11.7865
▁6000	-11.7866
▁emea	-11.787
▁permitting	-11.7871
▁beat	-11.7872
▁rakes	-11.7874
extrusion	-11.7876
▁gauges	-11.789
▁tall	-11.7891
▁foods	-11.7894
▁evening	-11.7894
aec	-11.79
,580	-11.7903
pv	-11.7909
▁resemble	-11.791
keeping	-11.7912
▁refiner	-11.7913
▁pixel	-11.7913
▁fabric	-11.7914
▁cairn	-11.7915
▁functioning	-11.7916
▁page	-11.7926
▁emits	-11.7932
alu	-11.7935
2)	-11.7946
▁pioneers	-11.795
▁koraput	-11.7953
▁continuation	-11.7953
▁accessibility	-11.7953
▁tajikistan	-11.7953
▁compare	-11.7953
▁excellency	-11.7953
▁bottling	-11.7954
▁yamaha	-11.7954
▁endlessly	-11.7954
▁formulated	-11.7954
▁petrol	-11.7955
▁ecovadis	-11.7955
▁underground	-11.7955
▁permitted	-11.7959
▁595	-11.7961
▁tightened	-11.7961
▁3,250	-11.7961
▁warranty	-11.797
▁talked	-11.7972
do	-11.7977
▁deepen	-11.7978
▁tag	-11.7982
▁ca	-11.7982
▁1.0	-11.7982
▁downtime	-11.7984
▁6.7	-11.7991
100/	-11.7993
,690	-11.7994
61	-11.7996
▁reliant	-11.7997
▁acts	-11.8
▁reviewing	-11.8003
▁fluid	-11.8006
$50	-11.8009
▁narrowing	-11.801
,475	-11.8013
▁calculations	-11.8014
950	-11.8017
▁alter	-11.802
hand	-11.8026
take	-11.8026
▁curbs	-11.8032
,740	-11.8035
▁careful	-11.8043
attributing	-11.8044
▁angeles	-11.8045
▁jordan	-11.8045
▁microsoft	-11.8045
▁contractual	-11.8046
▁manchester	-11.8046
▁lean	-11.8046
▁gravity	-11.8046
▁stellantis	-11.8046
▁swisstek	-11.8047
▁20,800	-11.8049
▁rush	-11.8051
▁communicated	-11.8051
▁stemm	-11.8057
▁sealed	-11.8062
under	-11.8063
▁difficulty	-11.8069
▁briefing	-11.8074
▁headed	-11.8085
▁booming	-11.8088
arabian	-11.8089
▁metrics	-11.8091
▁tenders	-11.8091
▁responding	-11.8097
▁plunges	-11.8097
▁facilitated	-11.8098
,190	-11.8098
▁interface	-11.8099
▁conversation	-11.8101
▁protocol	-11.8102
▁wrap	-11.8102
▁continents	-11.8106
▁litter	-11.8108
em	-11.8114
build	-11.8118
▁additions	-11.8124
,520	-11.8125
▁download	-11.8135
▁elegant	-11.8137
▁gramercy	-11.8137
▁incurring	-11.8137
▁beacon	-11.8137
▁supervision	-11.8137
▁commendable	-11.8138
▁tapan	-11.8138
▁consent	-11.8139
▁bechtel	-11.8141
▁dragge	-11.8142
va	-11.8142
▁20,600	-11.8143
▁prevention	-11.8144
33	-11.8146
▁koon	-11.8147
▁broadly	-11.8147
▁magnet	-11.8147
▁atewa	-11.815
▁12.5	-11.8152
▁mrai	-11.8155
▁hair	-11.8159
▁approx	-11.8166
▁spreads	-11.8169
▁residues	-11.8182
550	-11.8183
effect	-11.8183
▁bir	-11.8187
▁plateau	-11.8193
▁routine	-11.8193
▁stick	-11.8194
▁agent	-11.8195
higher	-11.8196
play	-11.8197
▁parker	-11.82
revolutionising	-11.8204
▁2009.	-11.8214
▁unveiling	-11.8215
▁mena	-11.8219
▁clark	-11.8219
▁peninsula	-11.8229
20/	-11.8231
▁interactive	-11.8231
▁melbourne	-11.8231
▁royalties	-11.8231
▁oxidation	-11.8232
▁assemblies	-11.8234
▁sweeping	-11.8236
▁tumbled	-11.8236
▁2.5%	-11.8236
▁unions	-11.824
▁succeeded	-11.8241
spite	-11.8242
▁vande	-11.8258
▁disrupt	-11.8259
▁exchanges	-11.8271
cutting	-11.8282
▁suvs	-11.8282
▁films	-11.8286
critical	-11.8287
▁pavilion	-11.8288
▁calciner	-11.8289
russian	-11.829
▁seltzer	-11.829
▁pit	-11.829
▁sedan	-11.8291
▁death	-11.8291
▁restriction	-11.8293
▁kap	-11.8298
▁ian	-11.8304
▁appealing	-11.8306
▁1.08	-11.8312
▁separat	-11.8312
▁slumps	-11.8313
▁accidents	-11.8314
▁7.6	-11.8316
ty	-11.8316
▁exploit	-11.8317
▁incessant	-11.8323
▁geology	-11.8325
▁predictive	-11.8325
▁readily	-11.8325
▁municipality	-11.8325
▁legislative	-11.8325
▁shutting	-11.8326
▁shenhuo	-11.8326
▁maturity	-11.8326
▁polestar	-11.8327
▁mecfor	-11.8327
▁outreach	-11.8327
▁noticeable	-11.8328
▁citic	-11.8328
▁rank	-11.8329
men	-11.8329
▁danieli	-11.8329
▁dependable	-11.8329
▁band	-11.833
▁subsidized	-11.833
▁sheds	-11.8332
▁18,900	-11.8332
▁trending	-11.8337
▁55,000	-11.834
▁ask	-11.834
investment	-11.8344
▁2,700	-11.8345
.80	-11.8346
▁attained	-11.8347
▁recovers	-11.8347
▁villages	-11.8349
▁visits	-11.835
▁pat	-11.835
▁breakthroughs	-11.8355
,240	-11.8357
▁nbs	-11.8365
▁forgings	-11.8366
,410	-11.8371
,830	-11.8375
▁compromise	-11.8376
▁refund	-11.8381
▁accomplish	-11.8383
both	-11.8387
▁inks	-11.8393
7,900	-11.8396
▁18,600	-11.8396
▁alf	-11.8398
▁minute	-11.8399
ner	-11.8402
▁dow	-11.8402
▁1.16	-11.8404
▁reed	-11.8405
▁collects	-11.8406
▁1,700	-11.841
▁rebuild	-11.8412
ory	-11.8416
▁adherence	-11.842
▁newer	-11.842
▁ancillary	-11.842
▁validation	-11.842
▁levies	-11.8421
▁streamlining	-11.8421
▁brisbane	-11.8421
▁modelling	-11.8421
▁patra	-11.8424
▁louis	-11.8424
▁capitalisation	-11.8424
▁700,000	-11.8425
▁absolutely	-11.8425
▁clearances	-11.8426
▁uplift	-11.8427
▁maxion	-11.8427
▁achenbach	-11.8428
▁45%	-11.8428
nm	-11.8433
cap	-11.8435
▁farms	-11.8438
▁talented	-11.8444
▁$40	-11.8445
▁titan	-11.8447
▁rewards	-11.8448
▁aero	-11.8449
▁stocking	-11.8451
▁barr	-11.8453
half	-11.8453
▁explain	-11.8454
▁schedules	-11.8457
▁tend	-11.846
▁deliberate	-11.8461
manufacturing	-11.8477
▁accommodation	-11.8477
controlled	-11.8478
▁recognize	-11.8479
▁340	-11.848
▁licenses	-11.8481
▁variable	-11.8482
01	-11.8484
▁corona	-11.8485
kwh	-11.8485
▁bidder	-11.8486
▁hu	-11.8486
°	-11.8495
▁decreases	-11.8504
▁acknowledges	-11.8509
▁bounce	-11.8512
▁repairs	-11.8514
▁creek	-11.8516
▁ethos	-11.8516
▁specify	-11.8516
▁favorable	-11.8517
turn	-11.8517
▁rainfall	-11.8517
▁digestion	-11.8517
▁perhaps	-11.8517
narendra	-11.8518
▁storing	-11.8519
▁native	-11.8519
▁floated	-11.8522
▁insulated	-11.8523
102)	-11.8525
▁cues	-11.853
▁disc	-11.853
▁trans	-11.8533
▁intensifying	-11.8534
▁examples	-11.854
▁foray	-11.8542
1,100	-11.8544
▁0.27	-11.8548
▁6.6	-11.8551
▁guard	-11.8554
▁2,400	-11.8555
▁coup	-11.8557
▁soar	-11.8561
▁3.38	-11.8572
mill	-11.8574
degree	-11.8576
gac	-11.8585
stock	-11.8598
▁tug	-11.8599
▁134	-11.8601
feasibility	-11.8601
▁brakes	-11.8606
▁defend	-11.8611
▁pleasure	-11.8613
▁rayagada	-11.8613
▁bonnell	-11.8613
▁laboratories	-11.8614
▁kelly	-11.8614
▁futuristic	-11.8615
▁ni	-11.8615
▁denko	-11.8615
▁symbol	-11.8615
▁26%	-11.862
▁wastewater	-11.862
▁dx	-11.862
▁metalmatters	-11.8622
▁restora	-11.8623
▁bahraini	-11.8624
▁enthusiastic	-11.8627
set	-11.8628
▁ideally	-11.8629
▁bids	-11.863
▁leone	-11.8631
entrepreneurship	-11.8632
▁cleared	-11.8633
▁shredder	-11.8634
▁redirect	-11.8637
▁aug	-11.864
▁booked	-11.8641
ga	-11.8645
ler	-11.8645
58	-11.8651
▁1.12	-11.8661
▁cranes	-11.8664
▁124	-11.8666
,130	-11.8667
▁6.9	-11.8668
construction	-11.8672
approximately	-11.8674
▁refinance	-11.8674
inalum	-11.8675
▁lawsuit	-11.8679
.06	-11.868
▁withdraw	-11.8681
▁livelihood	-11.8681
▁object	-11.8681
▁111	-11.8682
▁sciences	-11.8684
,370	-11.8685
ine	-11.8689
▁conditioning	-11.8689
▁feeling	-11.869
▁carton	-11.8692
▁oz	-11.8694
▁185	-11.8696
▁2017-18	-11.8698
,620	-11.8699
▁modes	-11.8704
paired	-11.8711
▁whom	-11.8711
▁testimony	-11.8711
▁kevin	-11.8711
▁akufo	-11.8711
▁heineken	-11.8712
▁coordination	-11.8712
▁accountability	-11.8713
▁certainty	-11.8713
▁distributors	-11.8713
▁jewellery	-11.8713
▁evtec	-11.8715
▁wrapped	-11.8715
▁formability	-11.8716
▁regularly	-11.8719
▁fulfilling	-11.872
▁$90	-11.8722
▁18,500	-11.8723
▁20,900	-11.8724
▁referr	-11.8724
▁(4	-11.8725
87	-11.8726
▁2307	-11.8726
ble	-11.8727
,140	-11.8734
.40	-11.8735
▁painting	-11.8739
▁palm	-11.874
▁1,300	-11.874
.5/	-11.8743
▁imidro	-11.8744
▁enjoyed	-11.8746
▁energi	-11.8747
▁exist	-11.8755
marc	-11.876
▁branding	-11.8761
reports	-11.8762
▁430	-11.8769
▁ka	-11.8769
usgs	-11.8773
▁flying	-11.8777
▁database	-11.8779
▁brewer	-11.8781
▁pulse	-11.8782
▁peace	-11.8784
▁poly	-11.8785
▁tray	-11.8788
96	-11.8791
▁1.18	-11.8792
▁ra	-11.8799
▁assisting	-11.8801
▁gerald	-11.8805
,720	-11.8807
▁researcher	-11.8809
▁universal	-11.8809
▁braking	-11.881
▁germain	-11.881
▁tapping	-11.881
▁refinancing	-11.881
▁sitting	-11.8811
▁turnkey	-11.8811
▁maiden	-11.8811
▁petcoke	-11.8811
▁sheikh	-11.8812
▁harbor	-11.8812
▁nitride	-11.8812
▁xiaomi	-11.8813
▁basically	-11.8813
▁hosting	-11.8815
ba	-11.8817
▁180,000	-11.8818
▁permanently	-11.8818
▁negotiated	-11.8819
▁stamping	-11.8821
▁imf	-11.8821
34	-11.8823
▁po	-11.8824
▁usmca	-11.8825
ps	-11.8825
▁exempted	-11.8826
▁accurately	-11.8827
▁102	-11.8828
▁hospitals	-11.8831
▁guaranteed	-11.8833
▁pays	-11.8835
▁rails	-11.8836
▁wages	-11.8839
drive	-11.8841
,525	-11.8848
grows	-11.8849
▁nio	-11.885
▁counting	-11.885
▁1200	-11.885
▁lion	-11.8851
▁reward	-11.8857
▁az	-11.8865
▁wage	-11.8865
▁1,800	-11.887
▁poses	-11.887
best	-11.8878
52	-11.8878
▁entrance	-11.8878
▁predecessor	-11.8879
▁paradigm	-11.888
▁tailor	-11.8881
▁language	-11.8881
▁guest	-11.8882
▁linkage	-11.8882
▁hear	-11.8885
atuk	-11.8889
addo	-11.8893
▁ec	-11.8895
▁atomic	-11.8895
▁peoples	-11.8898
▁economical	-11.8904
▁bull	-11.8908
▁kleinfeld	-11.891
▁purification	-11.891
▁dinner	-11.891
▁cardiff	-11.8911
▁advertising	-11.8911
▁bloc	-11.8912
rahul	-11.8912
▁supervisory	-11.8914
▁polluting	-11.8915
▁ppg	-11.8916
▁normally	-11.8921
▁ct	-11.8923
▁eeg	-11.8927
8,500	-11.8932
▁catch	-11.8932
▁army	-11.8935
▁forever	-11.8938
▁pan	-11.8941
profile	-11.8944
▁6.8	-11.8945
▁painted	-11.8952
▁habits	-11.8959
cy	-11.8964
▁inbev	-11.8965
work	-11.8968
▁yields	-11.8972
cash	-11.8975
ling	-11.8977
▁belief	-11.8978
▁classification	-11.8982
▁indication	-11.8983
▁imbalance	-11.8983
▁domain	-11.8984
▁differences	-11.8986
▁printer	-11.8987
▁coincide	-11.8988
▁40-	-11.8988
▁offload	-11.899
▁msme	-11.8995
▁spurr	-11.8999
▁lenders	-11.9
▁leases	-11.9002
▁pr	-11.9004
heat	-11.9005
▁wild	-11.9006
▁18,300	-11.9007
ash	-11.9008
▁boffa	-11.9011
▁retaliation	-11.9011
▁arizona	-11.9012
▁ventilation	-11.9012
▁masdar	-11.9012
▁dairy	-11.9012
,480	-11.9012
▁cockpit	-11.9012
▁magnitude	-11.9012
▁charity	-11.9012
▁chairperson	-11.9013
▁mississippi	-11.9014
▁pittsburgh	-11.9014
▁concord	-11.9015
104)	-11.9017
▁nominal	-11.9019
▁discussing	-11.902
▁suggestions	-11.9021
▁440	-11.9025
▁busy	-11.9026
jason	-11.9026
▁enhancements	-11.9027
▁settings	-11.9027
▁lotus	-11.9028
▁0.15	-11.903
wheelers	-11.9031
▁refreshing	-11.9031
,430	-11.9033
▁lending	-11.9035
▁1.06	-11.9037
▁moulding	-11.9042
▁missed	-11.9049
▁ac	-11.9058
▁casthouses	-11.9059
▁yang	-11.9063
▁133	-11.9066
nt	-11.9069
▁feeding	-11.9075
▁2027,	-11.9078
▁chunk	-11.9082
ies	-11.9082
▁advocat	-11.9083
▁define	-11.9083
▁timeframe	-11.9086
▁threshold	-11.9086
▁withdrawal	-11.9089
▁560	-11.909
os	-11.9094
▁missing	-11.9096
▁avenue	-11.91
,440	-11.9102
▁complaints	-11.9109
▁separators	-11.911
madhya	-11.9113
▁plunging	-11.9113
▁simard	-11.9113
▁sultanate	-11.9113
▁unrest	-11.9114
▁foreseeable	-11.9115
▁impossible	-11.9115
▁cake	-11.9115
▁heidi	-11.9115
▁1.07	-11.9116
▁substitution	-11.9116
▁pierre	-11.9116
▁authorised	-11.9117
▁adversely	-11.9117
▁170,000	-11.9119
recycle	-11.9119
▁stays	-11.9122
▁22%	-11.9123
1,500	-11.9125
▁sr	-11.9128
▁bob	-11.9129
▁metallica	-11.9132
$100	-11.9137
operation	-11.9138
750	-11.9139
);	-11.9143
▁technicians	-11.9144
▁iot	-11.9145
paying	-11.9146
▁melted	-11.9147
▁0.21	-11.9148
▁26,000	-11.9149
▁11.5	-11.915
,100	-11.915
5%	-11.9152
working	-11.9153
▁alloying	-11.9156
▁ministers	-11.9156
▁experiment	-11.9161
▁brew	-11.9162
,610	-11.9163
▁dark	-11.9168
hoping	-11.9175
▁waves	-11.9177
environmental	-11.9177
international	-11.9179
▁1.27	-11.918
▁completes	-11.918
▁das	-11.918
▁bintan	-11.9182
110	-11.9185
▁onwards	-11.9188
▁analyses	-11.9189
▁escalate	-11.9189
▁command	-11.919
▁mayer	-11.919
▁interaction	-11.9191
▁williams	-11.9192
only	-11.9195
▁initiat	-11.9196
incl	-11.92
▁culminat	-11.92
▁vary	-11.9201
▁screens	-11.9207
42	-11.9209
’23	-11.9211
▁9.8	-11.9214
▁seize	-11.9215
▁horizontal	-11.9215
89	-11.9216
▁0.02	-11.9216
▁unemployment	-11.9217
▁klaus	-11.9217
▁macquarie	-11.9218
▁steelworkers	-11.9218
▁108	-11.9218
▁hiring	-11.9218
▁repurposed	-11.9219
lo	-11.9219
▁satisfied	-11.9219
▁slovalco	-11.9219
▁6.4	-11.922
▁350,000	-11.9221
▁alcohol	-11.9221
▁jain	-11.9224
even	-11.9226
▁derivatives	-11.9226
▁haven	-11.9229
▁mature	-11.9233
org	-11.9235
▁harnessing	-11.9236
▁shorter	-11.9236
54	-11.9239
▁innovators	-11.9245
▁adjusting	-11.9247
▁eos	-11.9248
▁subjected	-11.9248
▁handled	-11.925
,150	-11.926
▁kilo	-11.9267
▁cards	-11.9268
▁2028.	-11.9268
▁1500	-11.9273
▁frameworks	-11.9275
some	-11.9277
▁obstacles	-11.9277
▁matching	-11.9278
▁br	-11.9279
respective	-11.9283
,975	-11.9284
mi	-11.9285
▁bua	-11.9288
▁bourse	-11.9292
▁carriers	-11.9295
▁corridor	-11.9297
▁outflow	-11.93
▁275	-11.9306
▁inland	-11.9309
ya	-11.9311
▁0.22	-11.9316
▁highway	-11.932
▁successive	-11.932
▁montreal	-11.9321
▁lorin	-11.9321
▁readiness	-11.9321
▁gender	-11.9321
▁sunlight	-11.9321
▁taylor	-11.9322
▁diplomatic	-11.9322
▁jsw	-11.9323
▁computing	-11.9323
▁orange	-11.9323
▁befesa	-11.9324
▁frequently	-11.9324
▁suzhou	-11.9324
▁alucam	-11.9325
▁donated	-11.9326
▁refused	-11.9326
▁vinacomin	-11.9327
▁repeated	-11.9327
▁21,100	-11.9329
▁shedding	-11.933
▁sit	-11.9332
▁103	-11.9333
▁bald	-11.9338
▁recyclables	-11.9342
▁entitle	-11.9342
▁documented	-11.9345
▁midal	-11.9347
▁born	-11.9347
plus	-11.9348
▁threats	-11.9353
▁web	-11.9354
▁ph	-11.9356
company	-11.9356
▁warm	-11.9361
▁seating	-11.9362
well	-11.937
▁alan	-11.9371
▁apt	-11.9374
ji	-11.9376
6,200	-11.9379
▁fix	-11.9381
▁electro	-11.9384
▁waters	-11.9384
▁aren	-11.9385
century	-11.9387
registered	-11.9389
highest	-11.9389
▁recommend	-11.9393
3,800	-11.9397
▁tradition	-11.9399
32’	-11.94
3,600	-11.94
,940	-11.94
▁scientist	-11.9403
▁ess	-11.9403
▁innovator	-11.9405
▁planes	-11.9408
rm	-11.941
.45	-11.9416
07	-11.9417
▁resist	-11.9421
▁pause	-11.9422
▁megawatt	-11.9423
▁observes	-11.9425
▁kamsar	-11.9426
▁gasoline	-11.9426
▁burgeoning	-11.9426
▁banned	-11.9426
▁degradation	-11.9426
▁1970	-11.9427
▁limerick	-11.9427
▁offsetting	-11.9428
▁convinced	-11.9429
▁impactful	-11.9429
▁shaw	-11.943
▁lime	-11.9433
▁encountered	-11.9434
▁eminent	-11.9434
▁cooking	-11.944
▁smb	-11.9441
▁sanctioned	-11.9442
▁2010,	-11.9442
▁restored	-11.9448
▁0.33	-11.945
▁7.3	-11.945
▁bearing	-11.9458
▁respected	-11.9463
▁libs	-11.9465
service	-11.9468
▁123	-11.9472
▁correcti	-11.9473
▁announcements	-11.9475
▁seconds	-11.9483
,670	-11.9486
▁und	-11.9488
headquartered	-11.9495
▁pond	-11.9498
▁widen	-11.9501
▁usher	-11.9504
▁nordic	-11.9508
▁weighted	-11.9509
▁senator	-11.951
▁textiles	-11.951
plates	-11.9511
▁capacitor	-11.9512
▁21,800	-11.9513
86	-11.9513
▁reflection	-11.9513
▁refresh	-11.9513
▁2028	-11.9517
▁wi	-11.9521
▁decarbonize	-11.9527
▁embodie	-11.9529
▁glad	-11.953
,070	-11.953
▁citi	-11.9532
optimizing	-11.9532
sufficiency	-11.9532
▁procuring	-11.9532
▁suzuki	-11.9532
▁slaven	-11.9532
▁agile	-11.9533
▁sarawak	-11.9533
▁contrary	-11.9533
▁sparklo	-11.9534
▁anticipating	-11.9534
▁outdated	-11.9534
▁husnes	-11.9535
▁rashid	-11.9535
▁quicker	-11.9535
emergence	-11.9537
▁boke	-11.954
▁900,000	-11.954
▁assumed	-11.9542
▁guiding	-11.9545
▁midlands	-11.955
▁1980	-11.9552
tec	-11.9567
09	-11.9567
▁recognizes	-11.957
$32	-11.9579
▁dates	-11.9581
ppa	-11.9582
centric	-11.9585
▁jumps	-11.9586
such	-11.9594
▁fin	-11.9595
▁icra	-11.96
http	-11.9602
reliance	-11.9602
chairman	-11.9602
▁repeat	-11.9605
around	-11.9607
▁mono	-11.9609
▁graduate	-11.9613
▁grappl	-11.9614
▁departure	-11.962
▁hood	-11.9622
▁airlines	-11.9623
▁avoiding	-11.9626
▁£2	-11.963
▁advocate	-11.9635
▁bluetooth	-11.964
▁geometry	-11.964
▁species	-11.964
▁hospitality	-11.964
▁sovereign	-11.9641
▁bosai	-11.9641
▁vietnamese	-11.9641
▁reusing	-11.9641
▁dicastal	-11.9642
▁earmark	-11.9643
▁conveyed	-11.9643
▁complicated	-11.9644
▁fusina	-11.9645
▁annualized	-11.9645
▁postponed	-11.9645
▁looming	-11.9646
▁commemorate	-11.9647
▁sidelines	-11.9652
▁cradle	-11.9653
▁$150	-11.9656
▁au	-11.9657
38,000	-11.9658
ung	-11.9659
▁abhij	-11.9659
▁matched	-11.9672
▁forth	-11.9679
▁foresees	-11.968
.6%	-11.9684
60/	-11.9688
▁2025:	-11.969
met	-11.9695
▁radio	-11.9699
▁dan	-11.9705
▁sail	-11.9706
giadec	-11.9711
which	-11.9711
jean	-11.9711
,225	-11.9712
▁119	-11.9719
▁backlog	-11.9725
▁breakdown	-11.9728
▁tribal	-11.9729
▁casing	-11.9732
▁emphasise	-11.9732
▁tackl	-11.9737
-18	-11.9737
▁echo	-11.974
▁aspire	-11.974
port	-11.974
▁hinder	-11.9747
▁bengaluru	-11.9749
▁remedies	-11.9749
▁heavier	-11.9749
▁109	-11.9749
▁herald	-11.9749
▁ravenswood	-11.9749
▁hefty	-11.9749
51	-11.975
▁jakob	-11.975
▁manaksia	-11.975
▁shredding	-11.975
▁milk	-11.975
▁slitting	-11.9751
▁aggressively	-11.9753
▁adjustable	-11.9753
▁hvac	-11.9753
,575	-11.9756
▁metra	-11.9759
▁meticulous	-11.976
▁2011.	-11.9761
▁embraced	-11.9761
▁geo	-11.9763
,180	-11.9767
▁issu	-11.977
▁ce	-11.9773
▁outflows	-11.9774
rolling	-11.9778
▁characteris	-11.9787
6,900	-11.9789
tariff	-11.9792
.01	-11.9792
▁wings	-11.9797
▁refer	-11.9799
▁mirrors	-11.9801
▁reopen	-11.9807
▁116	-11.9808
▁thread	-11.9814
850	-11.9818
▁logistic	-11.982
beverage	-11.9821
.9%	-11.9825
presidential	-11.9826
▁expectedly	-11.9829
▁stem	-11.9831
▁simplify	-11.9837
▁yu	-11.9838
▁juice	-11.9839
▁stephen	-11.984
▁stride	-11.984
▁receipt	-11.984
▁7.2	-11.984
▁carmaker	-11.9841
▁particle	-11.9843
▁rocket	-11.9848
exports	-11.9848
▁sch	-11.9849
▁20,700	-11.9849
▁stabilize	-11.985
▁11.1	-11.985
▁realize	-11.9856
ions	-11.9858
▁exacerbate	-11.9858
▁soloviev	-11.9858
▁urgency	-11.9858
▁trimmed	-11.9859
▁travelling	-11.9859
▁samalaju	-11.9859
▁penalties	-11.986
▁camalco	-11.986
▁mackenzie	-11.986
▁repeatedly	-11.9861
▁sampling	-11.9861
▁rollout	-11.9861
▁liability	-11.9861
▁garnered	-11.9863
▁immensely	-11.9864
▁passive	-11.9865
▁jacques	-11.9865
▁levs	-11.9865
▁annualised	-11.9867
▁114	-11.9868
posing	-11.9869
mo	-11.9869
,990	-11.9871
▁amended	-11.9873
▁0.26	-11.988
▁3,200	-11.988
road	-11.9882
source	-11.9883
▁deepening	-11.9884
▁standout	-11.9888
▁firmer	-11.9888
wood	-11.9888
▁livelihoods	-11.9893
cm	-11.9893
▁arrow	-11.9894
▁iit	-11.9903
record	-11.9905
▁dell	-11.9908
using	-11.9908
plans	-11.9909
9,250	-11.9913
▁118	-11.9915
▁pallets	-11.9916
▁$1.4	-11.992
▁seco	-11.9924
▁threaten	-11.9926
▁1.04	-11.9932
produced	-11.9933
▁willing	-11.9934
▁tone	-11.9941
▁warns	-11.9943
▁107	-11.9945
▁compounds	-11.9946
▁suitcase	-11.9951
▁heighten	-11.9952
▁electrode	-11.9953
▁heated	-11.9955
.95	-11.9956
▁enabler	-11.9964
.75	-11.9967
▁exponential	-11.9968
▁€1	-11.9968
▁unusual	-11.9969
▁lucrative	-11.997
▁granco	-11.997
▁influential	-11.997
▁stausholm	-11.997
▁worried	-11.997
▁pepsi	-11.997
▁stagnant	-11.9971
▁chloride	-11.9971
▁denied	-11.9971
▁enterprising	-11.9971
▁overwhelming	-11.9971
▁statistical	-11.9971
▁algeria	-11.9971
▁huawei	-11.9971
▁reversal	-11.9972
▁fiat	-11.9972
▁elite	-11.9972
▁51%	-11.9975
-15	-11.9975
▁5.9	-11.9976
▁160,000	-11.9976
▁18,400	-11.9977
ec	-11.9978
▁0.04	-11.9979
▁24%	-11.9979
00+	-11.9979
▁unfortunately	-11.9981
▁70-30	-11.9981
▁bankable	-11.9982
▁spiked	-11.9987
▁lens	-11.9988
▁labs	-11.9989
mil	-11.9991
▁gl	-11.9992
▁finalise	-11.9992
▁privately	-11.9998
▁startups	-11.9999
▁games	-12.0004
▁(2023)	-12.0006
9,100	-12.0007
ko	-12.0007
6,100	-12.0014
▁15-	-12.002
▁1,100	-12.003
▁cooperate	-12.0031
4,500	-12.0033
▁lockdowns	-12.0035
▁considerations	-12.0038
integrated	-12.0038
▁sino	-12.004
▁cab	-12.0046
▁protest	-12.0049
futures	-12.005
▁harness	-12.0051
▁austin	-12.0053
ist	-12.0054
▁couldn	-12.0056
▁contents	-12.0057
▁onboard	-12.0059
▁stir	-12.006
▁intensify	-12.0061
▁vaccines	-12.0063
▁garden	-12.0065
▁utensil	-12.0067
▁matte	-12.0068
au	-12.0069
amp	-12.0074
▁scooter	-12.0075
imported	-12.0075
▁setback	-12.0081
influencing	-12.0082
▁unified	-12.0082
occitane	-12.0082
▁straightforward	-12.0082
▁llp	-12.0082
▁hunter	-12.0082
▁alkaline	-12.0083
▁flagged	-12.0083
▁illinois	-12.0083
▁fused	-12.0085
▁20,350	-12.0086
▁satellites	-12.0087
▁1.15	-12.0088
▁determin	-12.0088
▁advantageous	-12.009
▁seriously	-12.0091
▁570	-12.0091
▁frequency	-12.0091
▁oxides	-12.0092
▁creditors	-12.0093
▁ale	-12.0099
▁remarks	-12.0101
▁aids	-12.0125
▁supporter	-12.0126
▁minimiz	-12.013
▁2,300	-12.0132
▁alternate	-12.0132
crore	-12.0136
▁crossed	-12.0143
▁drill	-12.0146
▁fighting	-12.015
odisha	-12.0158
income	-12.0158
▁7.7	-12.0164
ap	-12.0168
▁para	-12.0171
,210	-12.0173
▁narrative	-12.0173
▁0.35	-12.0174
▁id	-12.0174
part	-12.0175
▁pair	-12.0176
▁fish	-12.0177
▁cushion	-12.0179
▁payload	-12.0179
scope	-12.0183
pm	-12.0184
▁fr	-12.0186
▁nm	-12.0187
▁victor	-12.0189
76	-12.0189
▁chen	-12.0194
▁generous	-12.0196
▁brokerage	-12.0196
▁refinement	-12.0196
▁linamar	-12.0196
2.1	-12.0196
▁superstructure	-12.0196
▁notwithstanding	-12.0197
▁shopping	-12.0197
▁0.01	-12.0197
▁viva	-12.0197
▁mingtai	-12.0198
▁reynolds	-12.0199
▁hopefully	-12.0204
▁chi	-12.0205
▁practically	-12.0206
ago	-12.0206
▁boilers	-12.0209
▁14,500	-12.0209
▁tv	-12.021
book	-12.0211
▁kia	-12.0211
▁1709	-12.0215
stream	-12.0216
▁shine	-12.0218
▁lately	-12.0219
▁hosts	-12.0221
▁10.5	-12.0221
▁45,000	-12.0222
▁reversed	-12.0229
▁endure	-12.0231
▁cpi	-12.0233
▁agents	-12.0239
▁conversations	-12.0241
▁$12	-12.0245
▁color	-12.0245
▁inflows	-12.0247
ry	-12.0248
▁surveyed	-12.0252
▁0.34	-12.0254
▁trained	-12.0265
gas	-12.0265
pa	-12.0266
▁wasn	-12.0272
imidro	-12.0273
lightweight	-12.0275
tinto	-12.0277
▁129	-12.0279
▁scratch	-12.0281
▁parking	-12.0287
▁expire	-12.0291
▁adventure	-12.0292
▁regulator	-12.0294
▁disaster	-12.0295
▁situations	-12.0297
▁boiler	-12.0298
▁paints	-12.0303
▁nick	-12.0305
▁(30	-12.0309
▁invasion	-12.031
▁shoals	-12.0311
▁estonia	-12.0311
aluminerie	-12.0311
▁uzbekistan	-12.0311
▁fluorine	-12.0312
▁resurgence	-12.0312
▁lizhong	-12.0312
▁hitachi	-12.0313
▁gerd	-12.0313
▁softer	-12.0314
▁85%	-12.0315
▁tasmanian	-12.0315
▁205	-12.0316
▁0.36	-12.0316
▁tabs	-12.0316
▁afford	-12.0317
▁headlines	-12.0317
▁27%	-12.0318
▁1.5%	-12.032
4/	-12.0324
▁mandated	-12.0325
coal	-12.0325
▁file	-12.0328
▁grams	-12.0328
▁failing	-12.033
,675	-12.0331
▁0.18	-12.0334
,330	-12.0338
▁damaged	-12.0338
▁1.22	-12.0338
▁noticed	-12.0339
you	-12.0339
▁conferences	-12.0341
▁gram	-12.0342
▁rake	-12.0342
▁cp	-12.0352
▁3000	-12.0354
▁wow	-12.0355
▁sometimes	-12.0357
▁costa	-12.0357
▁hero	-12.0367
1.5	-12.0374
hold	-12.0375
▁configurations	-12.0376
▁2,600	-12.0377
▁540	-12.0378
▁mounts	-12.038
▁attending	-12.038
▁ben	-12.0384
▁dome	-12.0385
▁tighten	-12.0385
▁ar	-12.0386
▁8.4	-12.0387
notch	-12.0388
watch	-12.0389
about	-12.0389
although	-12.039
▁2012.	-12.039
farm	-12.0391
,075	-12.0393
▁forklifts	-12.0394
-000-	-12.0401
▁employers	-12.0404
▁proposition	-12.0409
▁examination	-12.041
▁renew	-12.0413
inspired	-12.0414
74	-12.0416
▁onsite	-12.0423
▁financially	-12.0423
▁crafting	-12.0424
nov	-12.0425
▁geographic	-12.0426
▁nz	-12.0426
<7.0)	-12.0427
elevating	-12.0427
<5.5)	-12.0427
▁niyamgiri	-12.0427
▁resuming	-12.0427
▁tribunal	-12.0427
▁trudeau	-12.0427
▁senate	-12.0427
▁possesses	-12.0427
▁struck	-12.0427
▁phosphate	-12.0427
▁varieties	-12.0427
▁mitigation	-12.0428
▁grundartangi	-12.0428
▁fastmarkets	-12.0429
▁0.46	-12.043
▁explorer	-12.043
▁windalco	-12.0431
▁stellar	-12.0432
▁finalized	-12.0434
▁boards	-12.0436
▁examined	-12.0436
▁fundamentally	-12.0436
▁longest	-12.0443
▁appeared	-12.0445
▁button	-12.0449
▁137	-12.045
,030	-12.0452
▁constructive	-12.0455
▁utilises	-12.0464
▁cooled	-12.0466
▁amplify	-12.0472
▁hasn	-12.0486
▁bonding	-12.0488
,925	-12.0491
ful	-12.05
1/	-12.0505
▁viewed	-12.0505
▁rethink	-12.0506
alcoholic	-12.0506
cylinder	-12.0507
eafa	-12.0507
▁$400	-12.0508
▁proposes	-12.051
▁bang	-12.0512
sponsored	-12.0517
▁collaborates	-12.0518
▁cruise	-12.0521
▁rough	-12.0522
oldest	-12.0524
hr	-12.0528
▁collision	-12.0531
▁derivative	-12.0536
▁dies	-12.0537
▁suggestion	-12.0539
▁cease	-12.0539
▁laptops	-12.0541
▁showroom	-12.0542
▁brian	-12.0542
▁obvious	-12.0543
▁rim	-12.0543
83	-12.0544
▁harbour	-12.0544
▁essence	-12.0545
▁qualify	-12.0545
▁patnaik	-12.0545
▁turmoil	-12.0545
▁eternal	-12.0546
▁eskom	-12.0546
▁thicker	-12.0546
▁pepsico	-12.0546
▁nitrex	-12.0546
▁adaro	-12.0548
▁smallest	-12.0549
▁redesigned	-12.0551
▁0.14	-12.0555
▁procured	-12.0556
▁builder	-12.0556
,775	-12.0563
▁aluk	-12.0564
▁$1.3	-12.0565
shipments	-12.0566
▁threatening	-12.0567
▁sailing	-12.0567
du	-12.0569
▁magna	-12.057
▁paulo	-12.0574
▁replaces	-12.0576
pat	-12.0582
▁0.44	-12.0587
▁prospecting	-12.0587
▁swap	-12.0594
▁na	-12.0597
-3-	-12.0602
▁defects	-12.0609
vi	-12.061
7,500	-12.0612
▁suffer	-12.0615
,270	-12.0615
44,000	-12.0615
approx	-12.0626
impact	-12.0626
innovation	-12.0626
mexico	-12.0626
automotive	-12.0626
▁1960	-12.0626
▁overhaul	-12.0631
▁riders	-12.0632
84,000	-12.0634
last	-12.0638
▁blast	-12.0643
▁precedent	-12.0648
▁invention	-12.0652
▁redefin	-12.0655
▁urges	-12.0655
▁divest	-12.0659
▁transformer	-12.0659
nbs	-12.066
▁allocate	-12.066
▁geographical	-12.0663
▁sultan	-12.0663
compagnie	-12.0663
▁alumínio	-12.0663
▁amortisation	-12.0663
▁analysing	-12.0663
▁kuwait	-12.0663
▁biomass	-12.0663
▁innovating	-12.0663
▁wrong	-12.0664
▁blueprint	-12.0664
▁majeure	-12.0664
▁occurring	-12.0664
▁holder	-12.0665
▁oslo	-12.0665
▁disruptive	-12.0665
design	-12.0665
▁equispheres	-12.0666
▁$1.8	-12.0666
▁nippon	-12.0666
▁metlen	-12.0666
▁baotou	-12.0667
▁0.09	-12.0668
materials	-12.0668
▁hired	-12.0668
▁trip	-12.067
▁talco	-12.0673
2,500	-12.0674
▁18,700	-12.0675
▁stabilised	-12.0675
▁napco	-12.0676
▁23%	-12.0676
▁fimi	-12.0676
▁payable	-12.0678
▁linear	-12.0681
▁receipts	-12.0684
,080	-12.0684
▁pursued	-12.0685
worth	-12.0686
▁corporations	-12.0691
head	-12.0692
▁$8	-12.0692
▁rounds	-12.0696
▁1.28	-12.0697
▁0.13	-12.0697
▁0.32	-12.0699
▁handed	-12.0703
▁0.19	-12.0703
▁iv	-12.0703
▁evo	-12.0703
▁lbs	-12.0709
▁adapting	-12.0714
▁chances	-12.0717
▁retained	-12.0718
home	-12.0719
▁asa	-12.072
▁31,000	-12.0721
08	-12.0727
ate	-12.0733
▁rent	-12.0736
▁5.0	-12.0738
70/	-12.0741
government	-12.0744
lithium	-12.0746
nzas	-12.0747
factory	-12.0747
alupro	-12.0748
step	-12.0749
▁flash	-12.0752
▁os	-12.0752
▁write	-12.077
▁signage	-12.0771
▁subscription	-12.0774
▁curtailments	-12.0774
▁vap	-12.0776
▁brick	-12.0776
▁selective	-12.0783
▁spokeswoman	-12.0784
▁musk	-12.0784
▁measurable	-12.0784
▁villagers	-12.0784
hindustan	-12.0784
▁favourite	-12.0784
▁survival	-12.0784
▁vi	-12.0784
▁alexander	-12.0785
▁alteo	-12.0785
▁jharkhand	-12.0785
▁pouch	-12.0785
▁commonwealth	-12.0786
▁hammerer	-12.0786
▁passionate	-12.0786
▁0.42	-12.0786
▁850	-12.0787
▁defin	-12.0787
▁victory	-12.0788
▁alstom	-12.0788
▁zhengzhou	-12.0788
▁initiation	-12.0789
▁1.2%	-12.0793
▁nafta	-12.0794
▁clearer	-12.0795
▁toyo	-12.0795
▁0.48	-12.0799
▁0.31	-12.08
whopping	-12.08
field	-12.08
▁endless	-12.0802
▁adapted	-12.0806
▁atlas	-12.0811
ck	-12.0811
▁restor	-12.0812
▁purchasers	-12.0817
▁exists	-12.0821
isri	-12.0827
2,200	-12.083
▁dragon	-12.083
▁jar	-12.0832
tpa	-12.0833
▁collections	-12.0834
▁1.65	-12.0835
style	-12.0839
▁headline	-12.0841
▁bud	-12.0841
▁accelerates	-12.0842
▁von	-12.0844
▁queues	-12.0846
stand	-12.0855
▁challenged	-12.0855
system	-12.0856
▁(5	-12.0856
▁ace	-12.0857
future	-12.0862
glass	-12.0866
▁inflate	-12.0866
ice	-12.0868
▁fail	-12.0872
.96	-12.0875
▁reviews	-12.0876
▁1.45	-12.0881
▁tony	-12.0884
▁worry	-12.0886
.8%	-12.0887
2.5	-12.0888
92	-12.0893
.82	-12.0894
▁1.01	-12.0898
operations	-12.0898
▁grids	-12.0899
▁catamaran	-12.0899
▁picking	-12.09
▁merchant	-12.09
▁directive	-12.09
▁modernise	-12.09
▁flag	-12.0902
▁persons	-12.0905
▁elizabeth	-12.0906
▁advocacy	-12.0906
▁craig	-12.0906
▁ecuador	-12.0906
▁madrid	-12.0906
▁liabilities	-12.0906
▁sinohydro	-12.0906
▁reduxa	-12.0907
▁oversight	-12.0907
▁venezuela	-12.0907
▁leichtmetall	-12.0907
▁hydration	-12.0908
▁customary	-12.0908
▁brighter	-12.0908
5,500	-12.0908
▁smartwatch	-12.0909
▁deutsche	-12.0909
▁alumar	-12.091
sufficient	-12.0911
▁tubex	-12.0911
▁230,000	-12.0912
▁aldel	-12.0912
▁gift	-12.0912
▁merged	-12.0913
▁dampened	-12.0913
▁reactive	-12.0914
▁235	-12.0914
▁tiny	-12.0915
▁harder	-12.0916
▁internally	-12.0926
▁mah	-12.0941
▁trouble	-12.0943
▁highness	-12.0943
▁2,800	-12.0949
▁°	-12.0954
▁overseeing	-12.0955
▁bottlenecks	-12.0957
▁rp	-12.0962
▁intalco	-12.0962
98,000	-12.0969
73	-12.0972
115	-12.0978
▁holes	-12.0989
ini	-12.099
warwick	-12.0991
ten	-12.0991
agreement	-12.0991
bearish	-12.0992
arabal	-12.0992
▁substrates	-12.1002
▁eric	-12.1004
▁son	-12.1005
▁financed	-12.1006
every	-12.1008
▁peel	-12.1009
8,600	-12.1011
▁sag	-12.1012
▁centers	-12.1013
2,900	-12.1018
▁assure	-12.1018
▁encounter	-12.102
▁distress	-12.1023
▁membrane	-12.1023
▁rupee	-12.1024
-2023-	-12.1024
▁oven	-12.1024
pro	-12.1025
▁cooler	-12.1025
▁1995	-12.1026
▁junaidi	-12.1029
▁tüv	-12.1029
▁baowu	-12.1029
▁relevance	-12.1029
▁pjsc	-12.1029
▁statutory	-12.1029
anthony	-12.1029
▁hayes	-12.1029
▁dismantling	-12.103
▁rainwater	-12.103
▁cryolite	-12.103
▁rheinfelden	-12.103
▁fitting	-12.103
▁recruitment	-12.103
▁unaffected	-12.103
▁narrated	-12.103
fuelling	-12.1031
▁armenia	-12.1032
▁kenya	-12.1032
▁digitalization	-12.1032
▁titagarh	-12.1033
▁assures	-12.1034
▁alucast	-12.1034
naveen	-12.1036
▁assigned	-12.1037
▁proactively	-12.1037
▁chartered	-12.1038
▁reflective	-12.1039
▁lightest	-12.104
▁0.43	-12.104
▁te	-12.1041
▁colin	-12.1046
▁fib	-12.1049
▁29,000	-12.1055
▁375	-12.1056
▁fins	-12.1057
▁bc	-12.1061
84	-12.1066
▁32,000	-12.1066
▁treating	-12.1072
▁fitch	-12.1074
▁sporting	-12.1079
,725	-12.1081
op	-12.1081
▁patients	-12.1082
▁0.3%	-12.1084
▁tunnel	-12.1088
rated	-12.1094
▁bfs	-12.1094
▁officiate	-12.1096
▁conditional	-12.1096
▁understands	-12.11
▁126	-12.11
▁2015-16	-12.1106
▁books	-12.1107
▁images	-12.1108
43	-12.1113
clad	-12.1117
ip	-12.1117
indian	-12.1118
▁backup	-12.1123
▁prioritize	-12.1128
▁polish	-12.1129
▁progressed	-12.1129
▁$2.6	-12.1135
mar	-12.1135
.97	-12.1137
▁disclose	-12.1141
▁zimbabwe	-12.1146
▁helm	-12.1146
▁cider	-12.1149
▁prefecture	-12.1151
▁donate	-12.1152
▁apollo	-12.1154
▁bombardier	-12.1154
▁brilliant	-12.1154
▁hamburg	-12.1154
▁mishra	-12.1154
▁remarkably	-12.1154
▁sterlite	-12.1154
▁damaging	-12.1154
▁festive	-12.1154
▁ahmad	-12.1155
▁drew	-12.1155
▁speculators	-12.1155
▁luxurious	-12.1155
▁relocation	-12.1155
▁documentation	-12.1155
▁glenn	-12.1155
▁boké	-12.1156
▁township	-12.1156
acci	-12.1157
▁compatibility	-12.1157
▁assuming	-12.1157
▁20,250	-12.1158
▁brunel	-12.1158
▁retired	-12.1159
impending	-12.1161
▁bel	-12.1162
▁bending	-12.1162
,920	-12.1165
▁21,300	-12.1165
▁copy	-12.1167
▁champions	-12.1169
▁washing	-12.117
▁sight	-12.1176
▁(4.5	-12.1178
30/	-12.1184
▁(1	-12.1185
▁indo	-12.1191
▁rebounding	-12.1192
▁prototypes	-12.1193
▁foundations	-12.1194
▁3,750	-12.1201
▁166	-12.1204
▁2,900	-12.1205
▁0.4%	-12.1212
country	-12.1213
fall	-12.1217
-24	-12.1217
▁arising	-12.1224
▁entails	-12.1231
▁adam	-12.1232
▁kits	-12.1235
oz	-12.1242
saint	-12.1243
18,470	-12.1243
▁onset	-12.1244
having	-12.1244
▁bears	-12.1245
▁138	-12.1245
91	-12.1246
▁rebates	-12.1248
▁~	-12.125
2,100	-12.1254
▁rollers	-12.1256
▁inform	-12.1259
▁1.03	-12.1259
▁nurtur	-12.1265
▁hybrids	-12.127
▁exert	-12.1272
▁queen	-12.1274
▁calculate	-12.1275
▁precursor	-12.1275
▁roofs	-12.1277
▁phillip	-12.1279
ive	-12.1279
▁hygiene	-12.1281
▁delicate	-12.1281
▁hindley	-12.1281
▁sridhar	-12.1281
▁elegance	-12.1282
▁definition	-12.1282
▁luke	-12.1282
▁ria	-12.1282
▁phantom	-12.1283
▁freshness	-12.1283
▁outlet	-12.1283
▁disposable	-12.1283
▁0.30	-12.1284
▁persists	-12.1284
▁fencing	-12.1284
▁19,050	-12.1284
▁analytical	-12.1285
▁fraud	-12.1285
▁talum	-12.1286
▁0.29	-12.1288
▁affiliated	-12.1289
▁conakry	-12.1289
▁19,250	-12.1291
▁9.2	-12.1291
▁watching	-12.1292
▁1.75	-12.1294
▁honored	-12.1295
.70	-12.1296
▁gb	-12.1297
▁enforce	-12.13
▁stefan	-12.1303
▁cylinders	-12.1305
▁michel	-12.1306
▁tab	-12.1308
eur	-12.1311
▁treatments	-12.1313
▁2040.	-12.1313
eps	-12.1313
dian	-12.1317
▁repay	-12.1318
é	-12.1322
▁locked	-12.1323
2,600	-12.1324
dc	-12.1325
digital	-12.1327
▁136	-12.133
▁highlands	-12.1338
92,000	-12.1338
▁posting	-12.134
▁resolv	-12.134
▁0.16	-12.1344
australia	-12.1363
average	-12.1365
▁grip	-12.1368
guinea	-12.137
constellium	-12.1371
4,400	-12.1375
ul	-12.138
clined	-12.1384
▁sar	-12.1386
▁equip	-12.1395
revolving	-12.1396
▁167	-12.1398
industries	-12.1406
▁19,450	-12.1406
▁fuselage	-12.1407
▁coordinator	-12.1407
▁quiet	-12.1408
▁angola	-12.1408
▁prototyping	-12.1409
▁taishet	-12.1409
▁stuck	-12.1409
▁accompany	-12.1409
▁sister	-12.1409
claude	-12.1409
▁kodingamali	-12.1409
▁minnesota	-12.1409
▁elval	-12.141
▁diligently	-12.141
▁cruising	-12.141
▁unanimously	-12.141
▁slatina	-12.141
71	-12.1411
▁constantia	-12.1411
▁telecommunicat	-12.1411
iggy	-12.1411
▁steven	-12.1412
▁word	-12.1412
▁scaffolding	-12.1413
▁14,850	-12.1413
▁adorn	-12.1413
▁baking	-12.1414
▁scop	-12.1416
63	-12.1418
arl	-12.1418
.44	-12.142
▁1.35	-12.1423
▁sincere	-12.1423
many	-12.1423
▁barrios	-12.1424
▁tabor	-12.1424
▁apac	-12.1425
▁eng	-12.1426
joins	-12.1426
▁envelope	-12.1429
▁dealer	-12.1431
▁stems	-12.1431
▁las	-12.1438
▁eliminated	-12.144
▁05	-12.1441
$215	-12.1441
▁mx	-12.1446
18,550	-12.1448
▁0.24	-12.1451
▁bidders	-12.1453
▁forests	-12.1466
▁sh	-12.1475
▁blending	-12.1486
▁accomplishments	-12.1489
▁553	-12.149
$37	-12.1491
▁2,100	-12.1493
▁7.8	-12.1495
▁farming	-12.1497
combustible	-12.15
content	-12.1501
rigid	-12.1501
affected	-12.1501
following	-12.1503
▁react	-12.1506
door	-12.1507
▁diminish	-12.1509
▁wonder	-12.151
ists	-12.1517
▁sc	-12.152
,970	-12.152
▁2010.	-12.152
7,100	-12.1522
▁roots	-12.1525
▁remind	-12.1528
▁6,500	-12.1529
▁tk	-12.1531
▁10.8	-12.1533
▁applaud	-12.1533
▁neighbourhood	-12.1537
▁scene	-12.1539
▁alteration	-12.1539
▁garbage	-12.1539
▁juncture	-12.1539
▁nikitin	-12.1539
▁untapped	-12.1539
▁osaka	-12.1539
▁sunil	-12.1539
▁understood	-12.154
piyush	-12.154
▁stabilising	-12.154
▁comparatively	-12.154
▁bosch	-12.154
▁$18	-12.154
▁impol	-12.154
▁recreational	-12.154
▁licensing	-12.1541
▁mainland	-12.1541
▁branded	-12.1541
▁aerodynamic	-12.1541
▁cycling	-12.1542
▁donation	-12.1543
▁indefinitely	-12.1544
▁21,200	-12.1545
hi	-12.1546
▁(6.0	-12.1547
.03	-12.1548
▁retailer	-12.1549
$34	-12.1554
▁relied	-12.1555
6,700	-12.1556
▁oneplus	-12.1558
▁geared	-12.1562
▁landowners	-12.1566
▁1998	-12.1567
▁labels	-12.1567
320	-12.1572
▁arms	-12.1573
▁firming	-12.1575
smart	-12.1575
▁pioneered	-12.1576
▁summ	-12.1577
▁friends	-12.1579
▁tpa	-12.1581
▁uv	-12.1584
,425	-12.1593
▁$9	-12.1603
▁cpc	-12.161
▁judges	-12.1613
▁qal	-12.1617
3,200	-12.1622
▁fence	-12.1624
▁8.7	-12.1629
▁accolades	-12.1631
autumn	-12.1633
compliant	-12.1633
commerce	-12.1633
★)	-12.1633
section	-12.1633
dragon	-12.1634
deal	-12.1634
-100-	-12.1635
central	-12.1635
five	-12.1635
funded	-12.1635
earnings	-12.1637
alfed	-12.1638
▁marian	-12.1639
ur	-12.164
thin	-12.1645
▁endorse	-12.1649
unit	-12.1652
,375	-12.1656
▁charter	-12.1662
▁merge	-12.1663
▁observe	-12.1668
▁265	-12.1669
▁loose	-12.1669
▁expedition	-12.1669
$60	-12.167
▁bachelor	-12.1671
▁coventry	-12.1671
▁hurricane	-12.1671
▁excitement	-12.1671
▁jeep	-12.1671
▁nitrogen	-12.1671
▁unclear	-12.1671
examining	-12.1671
▁caribbean	-12.1671
▁gearbox	-12.1671
▁guinée	-12.1671
▁chrysler	-12.1672
▁sunndal	-12.1672
▁yankuang	-12.1672
▁lipstick	-12.1672
▁siberian	-12.1672
▁library	-12.1674
▁lord	-12.1674
▁calcium	-12.1676
▁fluctuation	-12.1676
▁districts	-12.1677
▁ceased	-12.1677
▁brexit	-12.1678
▁55%	-12.1679
▁fails	-12.168
▁revolve	-12.1682
▁ran	-12.1683
18,850	-12.1684
▁lawmakers	-12.1684
▁polished	-12.1685
▁suppressed	-12.1685
▁robin	-12.1689
▁stockpiled	-12.1691
▁0.45	-12.1693
▁rewarding	-12.1698
▁flowing	-12.1705
▁1.32	-12.1706
▁ink	-12.1709
▁autumn	-12.1709
▁emal	-12.1712
▁14.5	-12.1713
▁ecosystems	-12.1716
purpose	-12.1718
72	-12.1721
▁trucking	-12.1725
▁8.6	-12.1748
▁verticals	-12.1749
lti	-12.175
▁santa	-12.1753
▁aspirations	-12.1755
jesse	-12.1755
cvd	-12.176
▁168	-12.176
▁1.23	-12.1763
id	-12.1763
start	-12.1763
▁ascends	-12.1764
crude	-12.1766
▁245	-12.1767
germany	-12.1768
ating	-12.1772
▁sop	-12.1782
signs	-12.1787
▁crack	-12.1789
▁mn	-12.1789
025	-12.1791
han	-12.1792
▁101	-12.1794
▁$1.1	-12.1798
▁alleviate	-12.1799
▁compensate	-12.18
▁1.13	-12.1801
▁communicate	-12.1801
▁smoke	-12.1802
▁braghi	-12.1804
▁greensill	-12.1804
▁immersive	-12.1804
▁luoyang	-12.1804
▁deutschland	-12.1804
▁fraunhofer	-12.1804
▁haulage	-12.1804
▁induce	-12.1804
▁liquor	-12.1805
▁jupiter	-12.1805
▁identification	-12.1805
▁reasonably	-12.1805
▁19,550	-12.1806
▁ashapura	-12.1806
▁clarification	-12.1806
▁ducati	-12.1806
▁reminder	-12.1806
▁nagpur	-12.1806
▁elvalhalcor	-12.1807
▁jorc	-12.1807
▁christian	-12.1807
▁altek	-12.1808
▁0.75	-12.1808
.08	-12.1809
▁19,650	-12.1809
▁separator	-12.181
▁1.8%	-12.181
▁pushes	-12.181
▁prediction	-12.181
▁activated	-12.1811
▁supermarket	-12.1811
▁38%	-12.1812
▁32%	-12.1812
▁bricks	-12.1813
▁140,000	-12.1813
▁vibration	-12.1814
ford	-12.1814
▁2)	-12.1816
used	-12.1816
helmut	-12.1817
▁designation	-12.1817
,785	-12.1819
▁coordinated	-12.1821
240	-12.1823
▁midas	-12.1824
▁resumes	-12.1826
▁knowing	-12.1829
58,000	-12.1831
▁spl	-12.1832
▁thermally	-12.1835
▁instability	-12.1836
▁highways	-12.1838
▁$75	-12.184
▁ls	-12.1841
▁480	-12.1845
grid	-12.1846
81	-12.1857
▁mc	-12.1858
▁chips	-12.1863
▁shah	-12.1864
▁handles	-12.1874
are	-12.1875
operating	-12.1877
7/	-12.188
,230	-12.1882
▁1.09	-12.1884
▁meter	-12.1885
,910	-12.1891
together	-12.1895
175	-12.1897
▁carlo	-12.1897
▁countering	-12.1899
second	-12.1901
battery	-12.1901
safety	-12.1901
printed	-12.1902
paid	-12.1906
▁interviews	-12.1911
▁1.67	-12.1911
▁490	-12.1926
7,200	-12.1933
▁capitalize	-12.1935
18,380	-12.1935
▁tilt	-12.1937
▁cyber	-12.1939
▁cadillac	-12.1939
reputable	-12.1939
▁lenovo	-12.1939
▁annealing	-12.1939
▁stanley	-12.1939
▁dubbed	-12.1939
▁unnecessary	-12.1939
▁piping	-12.1939
▁ecology	-12.1939
▁mercantile	-12.1939
▁rotterdam	-12.1939
▁binzhou	-12.194
▁binjour	-12.194
▁synthetic	-12.194
▁manpower	-12.194
▁riyadh	-12.194
▁bulletin	-12.1941
▁aluminio	-12.1942
▁bolt	-12.1942
▁metef	-12.1942
▁topped	-12.1942
▁romco	-12.1942
▁mrn	-12.1942
▁ridge	-12.1943
▁rooms	-12.1944
▁wildpack	-12.1945
▁thoroughly	-12.1945
▁0.57	-12.1945
▁jacob	-12.1945
▁diminished	-12.1949
▁pabc	-12.1953
▁57,000	-12.196
▁exportation	-12.196
wall	-12.1965
,325	-12.1967
▁$80	-12.1971
▁succeeding	-12.1974
▁pfs	-12.1978
▁linkages	-12.1978
▁clad	-12.1984
▁tie	-12.1984
▁mba	-12.1988
▁187	-12.1992
▁bai	-12.1994
▁ho	-12.1994
▁licences	-12.1996
lin	-12.1996
62	-12.1999
▁outlin	-12.2
▁lifts	-12.2007
▁8.2	-12.2008
,220	-12.2009
▁aston	-12.2012
▁arts	-12.2013
▁apprentices	-12.2013
.86	-12.2015
▁1.48	-12.2019
▁17.5	-12.202
▁intel	-12.2021
275	-12.2029
$31	-12.2029
▁$16	-12.203
ilbur	-12.2037
▁struggles	-12.2041
.76	-12.2043
▁tyres	-12.2049
ira	-12.205
▁ken	-12.2054
▁163	-12.2057
▁peaked	-12.2057
cop	-12.2057
▁cabins	-12.2063
sistently	-12.2063
▁0.47	-12.2064
:00	-12.2064
▁poll	-12.207
▁(+	-12.207
78	-12.2075
▁navigation	-12.2076
▁almatis	-12.2076
▁acute	-12.2076
▁klang	-12.2076
▁rigidity	-12.2076
▁148	-12.2076
▁golf	-12.2077
▁complexities	-12.2077
▁istanbul	-12.2077
▁rotary	-12.2077
▁bengal	-12.2077
▁99%	-12.2078
▁healthier	-12.2078
▁ryan	-12.2078
▁benefitted	-12.2078
▁existence	-12.2078
▁devoted	-12.2079
▁insisted	-12.2079
▁tropical	-12.2079
▁telangana	-12.2079
▁0.38	-12.208
▁borough	-12.208
▁minds	-12.2081
▁binder	-12.2082
▁visually	-12.2083
▁repayment	-12.2083
▁validated	-12.2084
▁substance	-12.2085
▁18,750	-12.2085
▁130,000	-12.2085
▁economist	-12.2085
▁competitor	-12.2086
▁countermeasures	-12.2086
mah	-12.2086
▁characteristic	-12.2087
▁seized	-12.2088
▁medal	-12.2089
usa	-12.2089
$36	-12.209
▁13,800	-12.2091
▁terrain	-12.2092
▁owed	-12.2101
.99	-12.2103
▁uni	-12.2106
▁explaining	-12.2106
▁0.23	-12.2107
ee	-12.2113
▁weakly	-12.2116
▁33,000	-12.2118
▁poles	-12.2119
▁author	-12.2121
▁pi	-12.2124
▁breach	-12.2125
▁pra	-12.2125
▁1.37	-12.2125
▁tune	-12.2132
▁0.53	-12.2133
▁restaurants	-12.2133
▁borders	-12.2134
earth	-12.2138
▁shi	-12.214
pe	-12.2141
▁bets	-12.2144
▁1.24	-12.2154
▁describes	-12.2157
▁0.51	-12.2157
▁$70	-12.2162
.1%	-12.2167
▁unfolds	-12.2169
▁11.6	-12.2171
▁blends	-12.2171
▁410	-12.2173
▁1.11	-12.2174
domestic	-12.2177
renewable	-12.2177
heavy	-12.2177
▁ko	-12.218
▁grab	-12.218
8,700	-12.2181
▁dh	-12.2182
era	-12.2186
,320	-12.2189
-14	-12.2192
▁215	-12.2193
▁flexibles	-12.2198
▁2007,	-12.2203
clean	-12.2209
▁2016-17	-12.2211
▁surprising	-12.2213
▁bills	-12.2214
▁genuine	-12.2214
▁moto	-12.2214
▁formidable	-12.2215
▁mercury	-12.2215
▁organizing	-12.2215
▁hogna	-12.2215
▁spacious	-12.2215
▁electrochemical	-12.2215
▁franklin	-12.2215
▁henkel	-12.2215
▁talgo	-12.2215
▁warren	-12.2215
▁delta	-12.2215
▁bristol	-12.2215
▁escape	-12.2215
▁prosperous	-12.2216
▁jury	-12.2216
▁inaugurate	-12.2216
▁plenty	-12.2216
▁optifine	-12.2216
▁tanjung	-12.2216
▁everywhere	-12.2216
▁roundtable	-12.2216
02	-12.2217
▁zhenjiang	-12.2218
40/	-12.2218
esh	-12.2218
▁siding	-12.2219
▁validate	-12.2219
▁reddy	-12.2219
▁1.1%	-12.2221
▁termination	-12.2221
▁contaminated	-12.2222
▁mixture	-12.2222
▁pln	-12.2222
▁fe	-12.2223
▁councillor	-12.2223
▁feat	-12.2223
▁depart	-12.2224
▁strictly	-12.2225
▁175,000	-12.2226
▁column	-12.2226
▁0.58	-12.2226
▁cautiously	-12.2227
form	-12.2228
▁jets	-12.2232
▁1100	-12.2232
▁chill	-12.2233
▁spill	-12.2234
▁optional	-12.2234
brand	-12.2235
▁16.5	-12.2236
▁onshore	-12.224
▁uncover	-12.2244
▁advisors	-12.2249
▁65,000	-12.2253
20,750	-12.2254
▁shiny	-12.2257
▁grande	-12.2258
▁layoffs	-12.226
.79	-12.2265
▁tian	-12.2269
▁07	-12.2271
▁2,200	-12.2273
▁con	-12.2274
9,750	-12.2277
14,000	-12.2277
▁switched	-12.2279
▁0.28	-12.2284
process	-12.2286
▁totally	-12.2291
▁01	-12.2295
▁councils	-12.2295
▁ne	-12.2296
▁lin	-12.2297
▁origins	-12.2298
.28	-12.23
,960	-12.2304
,275	-12.2312
▁committ	-12.2314
2017	-12.2317
▁ba	-12.2317
blown	-12.2317
solid	-12.2319
city	-12.232
▁upwards	-12.232
decline	-12.2323
▁0.37	-12.2328
▁volunteers	-12.2329
▁buys	-12.2333
▁rai	-12.2335
▁float	-12.2337
▁1997	-12.2345
▁nod	-12.235
▁relate	-12.235
ke	-12.2351
▁restructure	-12.2352
.09	-12.2353
▁competent	-12.2354
▁ions	-12.2355
▁drastic	-12.2356
▁simandou	-12.2356
▁tribute	-12.2356
▁refurbishment	-12.2356
▁zhongfu	-12.2356
▁inviting	-12.2356
▁mapping	-12.2356
▁consolidating	-12.2356
▁worse	-12.2357
▁contingent	-12.2357
▁heesen	-12.2357
▁mechatherm	-12.2357
▁jackson	-12.2357
▁panchpatmali	-12.2357
▁nitriding	-12.2358
▁vanadium	-12.2358
▁welsh	-12.2358
▁nexans	-12.2358
▁quietly	-12.2358
▁fenesta	-12.2358
▁mananalu	-12.2359
▁mumtalakat	-12.2359
▁levitate	-12.2359
▁evade	-12.2359
▁progressively	-12.236
▁19,750	-12.2361
▁upvc	-12.2361
▁33%	-12.2362
▁19,150	-12.2362
▁cyclical	-12.2362
▁occurs	-12.2362
▁acknowledge	-12.2363
▁estimation	-12.2363
▁promptly	-12.2364
▁umbrella	-12.2364
▁impression	-12.2364
aneka	-12.2364
▁slm	-12.2365
▁200-	-12.2366
▁13,950	-12.2366
▁attitude	-12.2367
▁del	-12.2369
▁cautioned	-12.237
▁chery	-12.237
▁stockholders	-12.2372
▁readers	-12.2373
▁pl	-12.2373
▁pumped	-12.2375
flow	-12.2375
hai	-12.2377
,040	-12.2378
▁attack	-12.2378
▁constituted	-12.2379
▁wars	-12.2379
▁refers	-12.2381
▁artists	-12.2382
,025	-12.2382
▁fishing	-12.2382
▁164	-12.2388
▁1.54	-12.2391
▁marco	-12.2392
▁$3.5	-12.2403
▁regionally	-12.2409
▁agm	-12.2409
report	-12.2412
▁buk	-12.2416
▁8,500	-12.2418
▁distortions	-12.2421
▁auctioned	-12.2422
▁tenements	-12.2424
▁seals	-12.2425
▁venues	-12.2433
▁1.21	-12.2433
▁pigments	-12.2434
▁8.8	-12.2435
▁1800	-12.2435
675	-12.2439
▁burn	-12.244
.36	-12.2447
$46	-12.2448
5,400	-12.2448
open	-12.2455
▁secret	-12.2458
treatment	-12.246
▁vis	-12.246
further	-12.2461
japan	-12.2461
yoy	-12.2462
▁0.2%	-12.2467
▁cess	-12.2468
fast	-12.2469
▁exchanger	-12.2469
9,600	-12.247
▁295	-12.2479
$47	-12.2484
▁cl	-12.2487
▁substances	-12.2489
▁thrust	-12.2492
500/	-12.2492
▁differentiate	-12.2494
.46	-12.2495
▁panasonic	-12.2499
▁beneath	-12.2499
▁inquiry	-12.2499
▁retention	-12.2499
▁tambang	-12.2499
▁emitted	-12.2499
▁pension	-12.2499
▁fork	-12.2499
▁tycoon	-12.2499
▁plain	-12.25
▁protectionist	-12.25
▁cambodia	-12.25
▁glasgow	-12.25
▁imminent	-12.25
▁saxony	-12.25
▁stadler	-12.25
▁deferred	-12.25
▁giga	-12.2501
▁detrimental	-12.2501
▁glance	-12.2501
▁newcastle	-12.2501
▁18,650	-12.2501
▁ssd	-12.2501
▁distinction	-12.2501
▁shenzhen	-12.2502
▁unsustainable	-12.2502
▁49%	-12.2502
▁42%	-12.2503
▁guangzhou	-12.2503
▁taxation	-12.2503
▁asean	-12.2505
▁0.55	-12.2507
▁successor	-12.2509
▁induction	-12.2509
▁chrome	-12.251
▁triangle	-12.251
$1.5	-12.2511
▁dispos	-12.2511
▁0.54	-12.2511
▁focussed	-12.2513
▁radiator	-12.2515
gm	-12.2516
▁crossover	-12.2516
▁insolvency	-12.2518
▁kilowatt	-12.2518
▁1708	-12.2521
▁belonging	-12.2524
▁charger	-12.2525
▁infinity	-12.2525
!”	-12.2525
bi	-12.2531
ong	-12.2533
▁mcc	-12.2534
▁3,300	-12.2535
ja	-12.2536
.3%	-12.2538
,820	-12.2543
▁streets	-12.2548
gate	-12.255
▁hurting	-12.2553
share	-12.2554
$38	-12.2561
live	-12.2569
▁aeroplanes	-12.257
▁11.7	-12.2573
,530	-12.2574
▁violations	-12.2577
▁hr	-12.258
▁reject	-12.2581
▁contributors	-12.2581
▁hoped	-12.2581
ship	-12.2583
den	-12.2588
.77	-12.2588
▁1.17	-12.2588
economy	-12.259
holding	-12.2596
▁tops	-12.2604
▁gov	-12.2604
transformation	-12.2605
jnarddc	-12.2606
consuming	-12.2606
chief	-12.2606
catching	-12.2607
bearing	-12.2607
cny	-12.2608
▁beams	-12.2614
1,700	-12.2617
▁excels	-12.2618
very	-12.2623
four	-12.2626
▁buzz	-12.263
tariffs	-12.2631
2018	-12.2633
▁dispatch	-12.2635
▁reclaim	-12.2636
▁fronts	-12.2639
▁prioritises	-12.2643
▁embargo	-12.2643
▁barcarena	-12.2644
▁leisure	-12.2644
▁transhipment	-12.2644
▁ibrahim	-12.2644
▁clarendon	-12.2644
▁daiki	-12.2644
▁aurum	-12.2644
▁brisk	-12.2644
▁negligible	-12.2644
▁ke	-12.2644
▁demolition	-12.2644
▁pronounced	-12.2645
▁oliver	-12.2645
▁customisation	-12.2645
▁remedy	-12.2645
▁kobelco	-12.2646
round	-12.2646
▁acceptable	-12.2646
▁adaptable	-12.2646
▁tianshan	-12.2646
▁18,810	-12.2646
▁rhb	-12.2647
▁younger	-12.2647
▁conductive	-12.2648
▁43%	-12.2648
conserving	-12.2648
▁alumobility	-12.2649
1%	-12.2649
▁117	-12.265
▁recurring	-12.2651
▁coking	-12.2651
▁angle	-12.2652
▁oak	-12.2654
▁carbonated	-12.2654
▁sooner	-12.2654
▁2.4%	-12.2655
▁microstructure	-12.2656
▁undermine	-12.2657
▁rims	-12.2657
▁prioritised	-12.2657
▁webinar	-12.2658
▁laminate	-12.2658
-2-	-12.2659
▁facts	-12.266
▁113	-12.2661
▁observation	-12.2661
▁clarke	-12.2661
▁lender	-12.2662
▁medicine	-12.2663
▁withdrawn	-12.2663
▁protests	-12.2665
▁mu	-12.2667
parliamentary	-12.267
▁14,700	-12.2671
ér	-12.2672
▁slugs	-12.2675
▁$2.4	-12.2676
,810	-12.2682
▁unlocked	-12.2687
▁favoured	-12.2688
▁alcoholic	-12.2691
▁37,000	-12.2692
sen	-12.2692
▁seed	-12.2695
▁reap	-12.2699
gil	-12.2701
▁gmt	-12.2701
▁accepting	-12.2705
▁opinions	-12.271
.7%	-12.2718
launch	-12.272
▁7000	-12.2723
20,550	-12.2726
▁agl	-12.2726
▁hang	-12.2729
,125	-12.2732
▁12.3	-12.2735
▁panic	-12.2735
▁141	-12.2747
▁contracting	-12.2747
▁256	-12.2747
▁20,450	-12.2748
▁dana	-12.275
competitive	-12.2751
corrosive	-12.2752
financial	-12.2753
cagr	-12.2753
▁6.0	-12.2754
park	-12.2755
▁sims	-12.276
.4%	-12.2761
american	-12.2762
▁127	-12.2767
▁gates	-12.2767
pace	-12.2774
▁2008.	-12.2778
▁mandates	-12.2779
▁yards	-12.278
▁lei	-12.2783
▁replicate	-12.2784
▁142	-12.2787
04	-12.2789
▁fragile	-12.2791
▁ministries	-12.2791
▁streak	-12.2791
▁russellville	-12.2791
▁ferries	-12.2791
▁reconsider	-12.2791
▁sponsorship	-12.2791
▁micromill	-12.2791
▁identifies	-12.2791
▁neuss	-12.2791
▁empowerment	-12.2791
▁aluar	-12.2791
▁dixon	-12.2791
▁polyethylene	-12.2791
▁crisil	-12.2792
▁exemplary	-12.2792
▁frontrunner	-12.2792
▁english	-12.2792
▁styling	-12.2792
▁wooden	-12.2793
▁aludecor	-12.2793
▁dismissed	-12.2794
▁ovens	-12.2797
▁softened	-12.2797
▁dead	-12.2797
▁bicycles	-12.2798
▁0.56	-12.2801
▁watchers	-12.2803
▁135,000	-12.2803
▁nanoparticles	-12.2803
▁progresses	-12.2804
▁radar	-12.2804
▁solving	-12.2804
▁0.39	-12.2805
▁saleable	-12.2805
▁kicked	-12.2806
▁terminals	-12.2806
▁emitting	-12.2807
vis	-12.2808
mer	-12.2809
▁sink	-12.2812
hs	-12.2812
▁122	-12.2813
ram	-12.282
▁hk	-12.2821
▁$1.9	-12.2822
.68	-12.2823
▁argue	-12.2825
tract	-12.2828
▁sas	-12.283
▁notion	-12.2833
.71	-12.2834
▁1903	-12.2839
hp	-12.284
▁dna	-12.2846
omc	-12.2848
▁shells	-12.2852
▁incoming	-12.2855
antitrust	-12.2858
▁valves	-12.2863
ore	-12.2864
epa	-12.2866
▁0.41	-12.2867
pre	-12.2872
cmi	-12.2872
▁collectors	-12.2873
▁earns	-12.2878
▁1996	-12.2878
real	-12.2883
▁0.17	-12.2884
▁tablet	-12.2887
br	-12.2888
.02	-12.289
13,000	-12.2892
▁1981	-12.2893
*	-12.2899
▁arun	-12.2902
▁162	-12.2903
feb	-12.2904
needed	-12.2904
mine	-12.2907
parts	-12.2911
▁elections	-12.2914
oh	-12.2922
▁1.36	-12.2929
▁commend	-12.2931
▁1.31	-12.2935
▁terminate	-12.2935
▁sp	-12.2936
▁11.2	-12.2938
▁credible	-12.294
▁friguia	-12.294
▁nagoya	-12.294
▁sambalpur	-12.294
▁servicing	-12.294
▁vicinity	-12.294
▁gaoual	-12.294
▁drainage	-12.294
▁hunan	-12.294
▁mempawah	-12.294
▁torch	-12.294
▁uncompetitive	-12.2941
▁0.52	-12.2941
▁compression	-12.2941
▁sandvik	-12.2941
▁norte	-12.2941
▁barker	-12.2941
▁wilson	-12.2941
▁branches	-12.2942
▁academia	-12.2942
▁matrix	-12.2942
▁britvic	-12.2942
▁sunshine	-12.2942
▁unknown	-12.2943
▁skimming	-12.2943
▁pink	-12.2944
▁signify	-12.2945
▁phil	-12.2945
▁18,350	-12.2946
▁brushed	-12.2946
▁cathodes	-12.2948
$45	-12.2948
▁subtle	-12.2949
▁festivals	-12.295
▁220,000	-12.2952
▁15,500	-12.2952
▁whatever	-12.2953
▁likewise	-12.2957
▁31%	-12.2958
bar	-12.296
▁depot	-12.2961
▁ghanaian	-12.2961
▁petrochemical	-12.2961
▁criticism	-12.2961
▁hurdle	-12.2962
▁8.3	-12.2962
▁shadow	-12.2962
▁electrodes	-12.2964
▁tranche	-12.2967
▁burning	-12.297
▁drone	-12.297
▁advocates	-12.2971
▁2024:	-12.2974
▁1.57	-12.2974
mwh	-12.2975
▁folding	-12.2976
▁axis	-12.2978
▁experiments	-12.2978
▁139	-12.2979
row	-12.298
06	-12.2984
▁1.38	-12.2984
▁1994	-12.2988
,470	-12.2993
▁inject	-12.2994
▁7,500	-12.2994
▁aftermarket	-12.2996
▁wraps	-12.2999
▁$2.8	-12.3001
▁fortune	-12.3002
▁organisers	-12.3002
▁9.6	-12.3002
▁27.5	-12.3002
▁1999	-12.3006
ipo	-12.3008
▁coat	-12.3009
▁9.7	-12.301
▁mrf	-12.301
66,000	-12.3011
jay	-12.3017
▁325	-12.302
▁gears	-12.3023
▁installers	-12.3023
▁460	-12.3023
▁yi	-12.3033
▁equivalents	-12.3034
▁0.12	-12.3038
93	-12.3049
▁shore	-12.3057
▁careers	-12.3063
▁arrives	-12.3063
order	-12.307
▁quench	-12.3073
▁brain	-12.3076
9,800	-12.3077
▁coordinat	-12.3079
▁stimulat	-12.3079
▁sha	-12.3082
key	-12.3084
▁leak	-12.309
idusl	-12.3091
▁belarus	-12.3091
▁inquiries	-12.3091
▁urquhart	-12.3091
▁wagerup	-12.3091
▁coveted	-12.3091
▁ashanti	-12.3092
▁trail	-12.3092
▁lincoln	-12.3092
▁celsius	-12.3092
▁pilbara	-12.3092
▁kilotonnes	-12.3092
▁admitted	-12.3092
▁achievable	-12.3092
▁muscat	-12.3092
▁arkansas	-12.3093
▁preferential	-12.3093
▁uniformity	-12.3093
▁tougher	-12.3094
▁radiation	-12.3094
▁samuel	-12.3095
▁epsilon	-12.3095
▁geely	-12.3095
▁enlarged	-12.3095
kuala	-12.3096
▁aseptic	-12.3096
▁scrapping	-12.3097
▁breakout	-12.3097
▁subsidised	-12.3098
▁mineralisation	-12.3098
▁solarcycle	-12.3099
▁0.64	-12.3101
▁110,000	-12.3106
▁lobbying	-12.3107
▁0.61	-12.3108
▁accountable	-12.3108
90/	-12.3108
▁declare	-12.3109
▁monster	-12.3109
hamad	-12.311
▁elevation	-12.311
▁clamp	-12.3111
▁matthew	-12.3112
▁absorbed	-12.3115
▁voiced	-12.3117
▁curved	-12.3118
▁μ	-12.3121
,930	-12.3122
▁kps	-12.3124
-1-	-12.3124
▁interventions	-12.3125
,825	-12.3125
▁1991	-12.3126
▁bow	-12.3128
▁mesh	-12.3128
▁pollutants	-12.3128
▁easter	-12.313
▁founders	-12.3134
▁brothers	-12.3134
1,350	-12.3135
ey	-12.3136
▁xe	-12.3138
▁spearheading	-12.3138
▁johan	-12.315
-2022-	-12.3153
8,950	-12.3154
iim	-12.3157
▁256,6	-12.3158
▁9.4	-12.3163
award	-12.3167
▁gate	-12.3177
.07	-12.3179
▁clusters	-12.318
▁mars	-12.3181
ut	-12.3182
lac	-12.3184
▁12.9	-12.3186
▁$250	-12.3186
.43	-12.3195
ang	-12.3196
▁jin	-12.3198
tna	-12.3199
given	-12.32
axis	-12.3201
▁housed	-12.3202
▁materially	-12.3205
▁errors	-12.3207
expansion	-12.3207
positive	-12.3207
estimated	-12.3208
cbg	-12.3208
▁governmental	-12.3208
▁1706	-12.3214
▁173	-12.3214
engineering	-12.3215
▁sat	-12.3219
lower	-12.3219
▁eurasian	-12.322
▁requesting	-12.3221
▁2035.	-12.3225
▁seri	-12.3226
▁flip	-12.3227
thanks	-12.3229
▁plummet	-12.323
auction	-12.3231
▁0.5%	-12.3232
▁possess	-12.3234
▁ve	-12.3235
▁06	-12.3238
▁2.23	-12.3241
▁regulate	-12.3242
▁conservative	-12.3243
▁likelihood	-12.3245
▁thirty	-12.3245
▁scalability	-12.3245
▁nigel	-12.3245
▁unaudited	-12.3245
▁backwardation	-12.3245
▁massena	-12.3245
▁surveillance	-12.3246
▁masterpiece	-12.3246
▁iraq	-12.3246
▁systematic	-12.3246
▁wrapping	-12.3246
▁humanity	-12.3246
▁1.42	-12.3247
▁assemble	-12.3247
▁alutrade	-12.3248
▁brasil	-12.3248
▁inverted	-12.3248
▁multilateral	-12.3248
▁18,910	-12.3248
▁technal	-12.3249
▁ukrainian	-12.3249
▁1.29	-12.3249
-13	-12.325
▁logical	-12.325
▁victorian	-12.3251
▁realistic	-12.3251
▁obviously	-12.3252
▁fulfilled	-12.3252
▁calm	-12.3252
▁consciousness	-12.3253
pl	-12.3258
▁collapsed	-12.3259
▁motivation	-12.3259
▁131	-12.326
▁21,700	-12.3263
▁photo	-12.3264
▁elon	-12.3265
▁revers	-12.3265
▁newspaper	-12.3266
▁fallout	-12.3267
▁61,000	-12.3268
▁1707	-12.3269
▁bracket	-12.3271
▁vaccine	-12.3272
▁albania	-12.3272
▁silicone	-12.3276
▁lever	-12.3277
▁airline	-12.328
.05	-12.3283
▁measurements	-12.3287
▁printers	-12.3289
▁rider	-12.329
▁daytime	-12.329
alloys	-12.3294
▁im	-12.3297
80,000	-12.3298
▁0.40	-12.3298
min	-12.3299
gold	-12.3299
▁0.65	-12.33
▁avoided	-12.3305
▁axle	-12.3306
▁1705	-12.3307
-22	-12.3311
▁25-	-12.3313
▁responses	-12.3314
▁1710	-12.3316
▁excel	-12.3318
▁leg	-12.3319
▁1901	-12.3321
▁lam	-12.3324
any	-12.3326
cr	-12.3328
▁gbc	-12.3331
hailed	-12.3331
▁gel	-12.3332
,770	-12.3332
▁rumours	-12.3332
▁08	-12.3332
link	-12.3342
2.2	-12.3347
▁1972	-12.3349
ring	-12.3351
invest	-12.3352
▁cocktails	-12.3354
▁1807	-12.3357
luminous	-12.336
▁$11	-12.3363
refinery	-12.3364
subsidy	-12.3364
recyclable	-12.3364
people	-12.3364
binding	-12.3364
▁1.34	-12.3368
max	-12.3369
▁uno	-12.3372
,760	-12.3372
▁12,500	-12.3374
7,850	-12.3376
their	-12.3377
▁aip	-12.3377
▁demonstrations	-12.3378
mark	-12.3379
each	-12.3383
venture	-12.3386
▁greg	-12.3389
▁recogniz	-12.3389
components	-12.339
▁1993	-12.339
face	-12.3392
▁roman	-12.3397
▁sean	-12.3398
▁siberia	-12.3401
▁patrol	-12.3401
contemplating	-12.3401
▁minimalist	-12.3401
▁acknowledging	-12.3401
▁ottawa	-12.3401
▁scandinavia	-12.3401
▁suriname	-12.3401
▁kingston	-12.3402
▁toronto	-12.3402
▁99.99%	-12.3402
▁conde	-12.3402
▁nawailevu	-12.3402
▁fundraising	-12.3402
▁clever	-12.3402
▁tbk	-12.3402
1.9	-12.3402
▁phenomenal	-12.3402
▁daimler	-12.3402
▁mqp	-12.3402
▁1.5°	-12.3403
▁cyclone	-12.3403
▁midstream	-12.3403
▁brasileira	-12.3403
▁srl	-12.3403
▁mangalam	-12.3404
▁reconstruction	-12.3404
▁huang	-12.3404
▁0.68	-12.3405
▁sensex	-12.3405
▁cpse	-12.3405
▁0.77	-12.3405
▁framing	-12.3406
▁20,050	-12.3406
▁mohan	-12.3407
▁0.87	-12.3408
▁acclaimed	-12.3408
▁2.6%	-12.3408
▁alarm	-12.3408
▁materialise	-12.3409
▁4.5%	-12.341
▁merchants	-12.341
▁retreated	-12.3412
slav	-12.3412
▁0.73	-12.3413
▁experimental	-12.3414
▁softening	-12.3417
▁actionable	-12.3417
.2%	-12.3418
▁debentures	-12.3425
▁boss	-12.3425
▁attorney	-12.3426
▁backward	-12.3427
▁regulated	-12.3428
pc	-12.3428
societe	-12.3429
▁interruption	-12.343
▁hire	-12.343
▁participant	-12.3431
▁caam	-12.3432
▁2205	-12.3435
▁pin	-12.3436
▁10,500	-12.3438
▁borrowing	-12.3439
▁1.58	-12.3442
▁dada	-12.3442
▁sap	-12.3442
spot	-12.3445
▁courses	-12.3446
▁inadequate	-12.3447
▁nord	-12.345
1,800	-12.3451
▁cook	-12.3453
▁alsi	-12.346
▁computers	-12.3461
ular	-12.3461
▁hazards	-12.3463
▁chase	-12.3471
eco	-12.3471
-10-	-12.3473
▁proceeding	-12.3477
▁gadgets	-12.3477
rainy	-12.3477
▁lti	-12.3482
2022,	-12.3484
▁1.43	-12.3487
▁shen	-12.3491
▁bal	-12.3495
▁$2.7	-12.3497
▁awaited	-12.3498
▁1.47	-12.3505
▁spreading	-12.3509
$57	-12.3511
▁7.1	-12.3515
▁flex	-12.352
▁1.84	-12.3521
announces	-12.3522
equivalent	-12.3522
wuxi	-12.3522
large	-12.3522
running	-12.3523
effectiveness	-12.3524
▁1.26	-12.3525
▁$22	-12.3527
der	-12.3534
▁constitut	-12.3534
unveils	-12.3536
-1)	-12.3542
▁2.25	-12.3544
▁character	-12.3545
reduce	-12.3546
.94	-12.3546
▁changer	-12.3548
▁wu	-12.3549
cum	-12.3552
90,000	-12.3554
▁exclude	-12.3556
▁0.6%	-12.3556
▁durables	-12.3557
▁eagle	-12.356
▁doldrums	-12.356
▁erosion	-12.356
▁jakarta	-12.356
▁cooksey	-12.356
▁debris	-12.356
▁infrastructural	-12.356
▁solidification	-12.356
▁default	-12.356
▁fabricating	-12.356
▁fujian	-12.356
▁unibody	-12.356
▁vegas	-12.356
▁undoubtedly	-12.3561
▁distributing	-12.3561
▁hollow	-12.3561
▁patronage	-12.3561
▁unrivalled	-12.3561
▁latvia	-12.3561
anti	-12.3561
▁joseph	-12.3561
▁veolia	-12.3561
▁confederation	-12.3561
▁10:15	-12.3562
▁tail	-12.3562
▁budweiser	-12.3562
▁rheinmetall	-12.3562
▁labelled	-12.3563
▁circulated	-12.3563
6,400	-12.3563
▁ahmedabad	-12.3563
▁jobless	-12.3563
▁scarce	-12.3564
▁opined	-12.3564
▁0.49	-12.3564
▁brazing	-12.3564
▁mother	-12.3564
▁robustness	-12.3564
▁upbeat	-12.3566
▁hampered	-12.3566
▁3,400	-12.3567
▁65%	-12.3568
▁2.2%	-12.3568
▁34%	-12.3568
.85	-12.3568
▁shyam	-12.3568
▁450,000	-12.3568
▁27,500	-12.3569
▁volunteer	-12.357
▁surprised	-12.3573
▁struggled	-12.3573
▁1.6%	-12.3574
▁plea	-12.3576
▁470	-12.3577
▁wellbeing	-12.3578
,565	-12.3579
▁42,000	-12.358
▁envisioned	-12.3581
▁iced	-12.3581
▁lp	-12.3582
▁maaden	-12.3583
-4-	-12.3583
220	-12.3583
▁comeback	-12.3584
▁byproduct	-12.3584
▁triumph	-12.3586
▁60-20	-12.3588
▁olympic	-12.359
▁frontier	-12.3591
▁candidate	-12.3592
▁tyre	-12.3592
▁payout	-12.3596
▁disrupting	-12.3596
▁grapple	-12.3598
160	-12.3603
▁constraint	-12.3603
bis	-12.3608
▁gin	-12.3612
za	-12.3615
2025,	-12.3616
▁trademark	-12.362
▁wagon	-12.362
▁gare	-12.3622
$44	-12.3625
into	-12.3627
▁hinges	-12.3629
▁ola	-12.3638
,280	-12.3647
▁floors	-12.3648
▁195	-12.3651
fire	-12.3653
▁ppa	-12.3653
▁marc	-12.3655
▁19,950	-12.3656
1,200	-12.3657
sp	-12.3657
▁flame	-12.366
full	-12.3662
po	-12.3663
▁auditor	-12.3665
-17	-12.3669
89,000	-12.3669
▁revolutionize	-12.3672
▁nivea	-12.3673
▁950	-12.3673
▁112	-12.3675
▁0.85	-12.3676
▁2520	-12.3682
▁9.1	-12.3682
▁12.8	-12.3683
iv	-12.3683
major	-12.3684
sensitive	-12.3684
crisis	-12.3684
dimensional	-12.3684
gdp	-12.3684
abx	-12.3685
▁1.95	-12.3691
moving	-12.3693
,560	-12.3694
▁159	-12.3694
▁harvest	-12.3694
▁dampen	-12.3694
▁steer	-12.3696
,980	-12.3698
▁2301	-12.3699
5,850	-12.37
▁confront	-12.37
4,850	-12.37
▁sl	-12.3701
4%	-12.3711
▁strikes	-12.3711
revenue	-12.3713
contract	-12.3713
tr	-12.3714
currently	-12.3715
,645	-12.3716
▁timeless	-12.3716
kar	-12.3717
▁1.49	-12.3718
▁unifor	-12.372
▁rust	-12.3721
▁aayog	-12.3722
▁agnihotri	-12.3722
▁earliest	-12.3722
▁orissa	-12.3722
▁queries	-12.3722
▁latif	-12.3722
▁powell	-12.3722
▁tumi	-12.3722
▁unstable	-12.3722
▁mindset	-12.3722
▁johnstone	-12.3722
▁gordon	-12.3722
▁plateaux	-12.3723
▁elimination	-12.3723
▁uniprom	-12.3723
▁nestlé	-12.3723
▁ulsan	-12.3723
▁alspec	-12.3723
▁matches	-12.3724
▁vishay	-12.3724
▁wrexham	-12.3724
▁kosei	-12.3724
▁retreat	-12.3724
▁labelling	-12.3725
▁responsive	-12.3725
▁keith	-12.3726
other	-12.3726
▁44%	-12.3727
▁abandoned	-12.3727
▁19,850	-12.3727
▁285	-12.3728
▁36%	-12.3729
▁altogether	-12.3729
▁240,000	-12.373
.5%	-12.3731
▁wonderful	-12.3733
▁0.83	-12.3734
▁155,000	-12.3737
▁concentrates	-12.3737
ous	-12.374
▁7.9	-12.3747
▁diminishing	-12.3748
▁endorsement	-12.3748
6,850	-12.3751
▁differential	-12.3751
▁divestment	-12.3754
▁someone	-12.3754
▁veteran	-12.3755
▁decoration	-12.3755
▁textile	-12.3756
▁73,000	-12.3759
dustrialization	-12.3759
87,000	-12.3761
▁fils	-12.3762
480	-12.3763
▁broker	-12.3769
assuring	-12.3782
1.3	-12.3783
▁sk	-12.3789
▁embraces	-12.379
her	-12.3794
▁lie	-12.3799
jan	-12.38
▁2007.	-12.38
▁emphasizes	-12.38
▁ga	-12.3802
minded	-12.3805
▁fixtures	-12.3808
▁pickups	-12.3813
260	-12.3815
▁intentions	-12.3818
ina	-12.3827
▁ally	-12.3836
▁theft	-12.3839
ground	-12.3841
copper	-12.3849
▁cn	-12.385
tenth	-12.385
▁candidates	-12.3853
330	-12.3854
▁$35	-12.3854
,625	-12.3857
▁vulcan	-12.3867
$41	-12.387
solutions	-12.3874
130	-12.3874
▁evgeni	-12.3875
▁1.77	-12.3875
▁linde	-12.3877
▁filters	-12.3877
evolving	-12.388
▁commercialise	-12.3882
zi	-12.3882
▁itc	-12.3882
clock	-12.3883
▁argu	-12.3884
▁kam	-12.3884
▁niti	-12.3884
▁motivate	-12.3885
▁continual	-12.3885
▁azelio	-12.3885
▁bühler	-12.3885
▁implied	-12.3885
▁jpmorgan	-12.3885
▁punitive	-12.3885
▁discern	-12.3885
▁buoyant	-12.3885
▁oregon	-12.3885
▁exposition	-12.3886
▁jetty	-12.3886
▁conclave	-12.3886
▁retrieve	-12.3886
▁ammonia	-12.3886
▁nana	-12.3886
▁phenomenon	-12.3886
▁static	-12.3887
▁yellow	-12.3888
▁dave	-12.3888
▁liquidation	-12.3888
▁nurture	-12.3888
▁hidden	-12.3889
▁18,530	-12.3889
▁batches	-12.3889
▁18,820	-12.3889
▁allotment	-12.3889
▁chandra	-12.3889
▁18,480	-12.3892
5,300	-12.3892
▁contend	-12.3892
▁50-10	-12.3894
▁fsw	-12.3894
▁lac	-12.3894
▁nationally	-12.3896
▁modernised	-12.3897
▁gf	-12.3897
▁320,000	-12.3897
▁650,000	-12.3898
▁1902	-12.3901
30,000	-12.3904
▁albert	-12.3904
▁cii	-12.3908
▁520	-12.3908
▁$13	-12.391
.04	-12.3912
▁marvel	-12.3915
▁$1.6	-12.3916
▁chocolate	-12.3917
▁scout	-12.3919
▁substation	-12.392
▁administrator	-12.3921
▁adviser	-12.3921
▁substrate	-12.3922
weighting	-12.3923
ho	-12.3926
im	-12.3928
projects	-12.3929
.29	-12.393
▁locking	-12.393
▁norm	-12.3932
▁10.1	-12.3933
80/	-12.3937
once	-12.3938
wi	-12.3942
ite	-12.3948
▁groupe	-12.395
▁1.55	-12.3951
18,490	-12.3954
america	-12.3954
▁themes	-12.3955
200/	-12.3963
0/	-12.3973
ach	-12.3979
▁cola	-12.398
shan	-12.3987
▁09	-12.3989
▁15.6	-12.3992
▁navara	-12.3997
▁dian	-12.3997
▁mergers	-12.4002
▁raj	-12.4005
▁arise	-12.4006
▁preparations	-12.4007
6,500	-12.4007
▁02	-12.4008
▁moulds	-12.4009
▁framed	-12.401
▁cancel	-12.4012
▁letters	-12.4012
▁157	-12.4012
political	-12.4014
electricity	-12.4016
local	-12.4022
▁1809	-12.4025
grow	-12.4026
▁staged	-12.4027
maker	-12.4027
▁mor	-12.4028
5,100	-12.4029
▁1.33	-12.403
▁voices	-12.4033
7,700	-12.4042
3.5	-12.4043
▁fold	-12.4045
▁cracks	-12.4046
close	-12.4046
▁fata	-12.4048
▁2201	-12.4048
bags	-12.4049
▁instant	-12.405
▁donations	-12.405
mph	-12.405
▁fa	-12.4051
▁logic	-12.4051
▁appeals	-12.4052
▁pharma	-12.4052
▁berhad	-12.4052
▁ferraro	-12.4052
▁hertwich	-12.4052
▁identical	-12.4052
▁munich	-12.4052
▁probable	-12.4052
▁pursuan	-12.4052
▁regenerative	-12.4052
▁reluctant	-12.4052
▁turbulence	-12.4052
▁undisclosed	-12.4052
▁campbell	-12.4052
▁synonymous	-12.4052
▁nehru	-12.4052
▁wenshan	-12.4052
indicative	-12.4052
▁sai	-12.4052
▁skincare	-12.4052
▁stiffness	-12.4052
▁hubei	-12.4053
▁beiersdorf	-12.4053
▁catherine	-12.4053
▁appointments	-12.4053
▁stresses	-12.4054
▁amperage	-12.4054
▁nampak	-12.4054
▁perceived	-12.4055
▁fifty	-12.4055
▁exponentially	-12.4055
▁dangerous	-12.4055
▁cbix	-12.4056
▁ronal	-12.4056
▁concerted	-12.4056
▁lucky	-12.4056
.61	-12.4057
▁reprocessing	-12.4057
43,000	-12.4058
▁sy	-12.4058
▁decree	-12.4058
▁39%	-12.4058
▁1.81	-12.4058
▁abilities	-12.4058
▁upgradation	-12.4058
▁fate	-12.406
▁1986	-12.4062
▁moments	-12.4063
▁insightful	-12.4063
▁2028,	-12.4064
▁enforced	-12.4065
▁7.5%	-12.4065
▁surely	-12.4065
▁0.50	-12.4066
▁lengthy	-12.4067
,390	-12.4069
▁4,750	-12.407
▁alkali	-12.4071
▁corruption	-12.4072
▁fmc	-12.4072
1.2	-12.4073
▁fu	-12.4076
ville	-12.4078
sesa	-12.4079
▁$14	-12.4079
▁elaborate	-12.408
▁365	-12.4087
▁ponds	-12.4088
▁3,700	-12.4088
▁macd	-12.409
▁pocket	-12.409
▁busbar	-12.4091
▁640	-12.4092
▁explosive	-12.4092
21,500	-12.4094
▁143	-12.4094
▁1912	-12.4096
centralised	-12.4097
▁controller	-12.4099
▁1.61	-12.4099
▁emit	-12.4099
▁2016-17.	-12.41
▁graphic	-12.41
18,770	-12.4101
hard	-12.4107
▁rtd	-12.4108
▁4,400	-12.4109
,860	-12.4111
▁147	-12.4112
$95,	-12.4118
▁flights	-12.4118
serve	-12.4125
,865	-12.4126
‘	-12.4127
bus	-12.4129
▁outline	-12.4132
▁coin	-12.4136
drops	-12.4136
▁amendments	-12.4139
▁compell	-12.414
▁shower	-12.4143
3,500	-12.4145
▁tai	-12.4149
425	-12.4149
▁1.63	-12.4154
▁22.5	-12.416
▁contacts	-12.4162
.47	-12.4168
750/	-12.4173
▁fleets	-12.4177
▁0.74	-12.4179
4,700	-12.4179
abate	-12.4181
treated	-12.4182
▁mg	-12.4183
against	-12.4184
martap	-12.4184
▁fetch	-12.4185
▁swings	-12.4186
▁rocks	-12.4186
▁9.3	-12.4188
.33	-12.4191
ns	-12.4194
▁wash	-12.4197
change	-12.4201
▁incat	-12.4202
▁nam	-12.4207
▁duo	-12.4208
ki	-12.421
▁surveys	-12.4212
receives	-12.4214
▁wolf	-12.4214
▁shocks	-12.4215
▁privilege	-12.4215
▁dimension	-12.4216
▁delight	-12.4217
,885	-12.4217
▁decarbonizing	-12.4222
▁solidifies	-12.4222
▁amenities	-12.4222
▁unpredictable	-12.4222
▁awaso	-12.4222
▁carlsberg	-12.4222
▁singen	-12.4222
▁veritas	-12.4222
▁sijimali	-12.4222
▁wildlife	-12.4222
▁pouches	-12.4222
▁foldable	-12.4222
▁liaoning	-12.4222
▁slurry	-12.4223
▁denver	-12.4223
▁kawneer	-12.4224
▁sunrise	-12.4224
▁winstar	-12.4224
▁18,880	-12.4224
▁disappointing	-12.4224
▁tiger	-12.4224
▁boomerang	-12.4225
▁niagara	-12.4225
▁scrapped	-12.4225
▁parish	-12.4225
▁0.88	-12.4225
▁1989	-12.4226
▁centralized	-12.4226
▁roasting	-12.4227
▁hardness	-12.4227
▁lightness	-12.4229
▁congratulations	-12.423
▁alscon	-12.4231
▁rice	-12.4232
▁commended	-12.4232
▁differentiated	-12.4232
▁skyrocketing	-12.4232
▁0.93	-12.4233
▁aheadd	-12.4233
▁applauded	-12.4234
▁210,000	-12.4236
▁offline	-12.4237
verge	-12.4238
5,600	-12.4238
▁sulphur	-12.424
▁shade	-12.4241
▁thereafter	-12.4241
▁lighthouse	-12.4243
▁99.99	-12.4247
▁13.3	-12.4247
▁threatens	-12.425
▁105,000	-12.4253
▁newport	-12.4254
▁mols	-12.4256
▁1971	-12.4259
▁disadvantage	-12.4261
▁nomination	-12.4263
▁error	-12.4266
▁electron	-12.4267
▁yes	-12.427
▁airports	-12.427
▁14,200	-12.4273
9,300	-12.4274
$95	-12.4277
▁$55	-12.4279
,765	-12.4281
.92	-12.4288
mile	-12.4288
care	-12.4291
▁1.96	-12.4299
▁0.71	-12.4299
▁crystals	-12.4301
coming	-12.4304
dip	-12.431
bo	-12.432
▁2029	-12.4321
▁surpasse	-12.4324
▁ill	-12.4328
tal	-12.4329
▁pole	-12.4332
▁lamps	-12.4335
▁0.62	-12.4338
▁1.46	-12.4339
pound	-12.434
▁abal	-12.4342
▁#4	-12.4343
$70	-12.4352
facing	-12.4353
▁indoor	-12.4355
ibaas	-12.4357
▁1.64	-12.4358
140	-12.4366
82	-12.4369
▁tape	-12.437
▁buffer	-12.4373
59,000	-12.4375
forming	-12.4381
▁emphasiz	-12.4382
▁conclud	-12.4382
lead	-12.4382
▁crowd	-12.4385
tron	-12.4385
ação	-12.4385
.11	-12.4386
▁2,850	-12.4386
▁relocate	-12.4388
▁customisable	-12.4394
▁frankfurt	-12.4394
▁gallagher	-12.4394
▁invitation	-12.4394
▁stabilizing	-12.4394
▁territories	-12.4394
▁bombay	-12.4394
▁jawah	-12.4394
▁municipalities	-12.4394
2019	-12.4394
▁champagne	-12.4394
▁dissipation	-12.4394
▁dunkirk	-12.4394
▁redemption	-12.4394
▁crises	-12.4394
▁carney	-12.4395
▁devastating	-12.4395
▁relaxation	-12.4395
▁groundwork	-12.4395
▁vapour	-12.4396
▁fehrmann	-12.4396
▁speculative	-12.4396
▁amtek	-12.4396
▁lodged	-12.4396
▁sensitivity	-12.4396
▁thicknesses	-12.4396
▁prevalent	-12.4397
▁belvac	-12.4397
▁ntpc	-12.4398
▁750,000	-12.4398
▁classes	-12.4398
▁bruno	-12.4398
▁rhi	-12.4398
▁18,620	-12.4399
▁interestingly	-12.4401
▁280,000	-12.4402
▁glazed	-12.4402
▁1.9%	-12.4402
▁revoked	-12.4402
▁tracked	-12.4402
▁terminated	-12.4403
▁simpler	-12.4403
▁directives	-12.4404
▁dining	-12.4404
▁21,400	-12.4404
▁sharper	-12.4405
▁13.8	-12.4405
▁motivated	-12.4406
ance	-12.4406
▁14,900	-12.4407
▁missions	-12.4407
▁deposition	-12.4409
▁patio	-12.4409
acp	-12.4411
manufactured	-12.4412
.42	-12.4412
,160	-12.4415
▁lined	-12.4418
▁evp	-12.442
▁cert	-12.4422
formed	-12.4424
▁cracking	-12.4424
▁cms	-12.4424
▁complexes	-12.4424
$2.5	-12.4428
▁1808	-12.4431
▁affiliate	-12.4433
▁pile	-12.4433
▁510	-12.4433
▁instructions	-12.4434
$55	-12.4435
▁drought	-12.4436
▁missile	-12.444
▁bubble	-12.4442
▁shaft	-12.4443
▁merit	-12.4443
3,100	-12.4459
▁circuits	-12.4464
▁rc	-12.447
▁tours	-12.4471
underlining	-12.4471
▁10.7	-12.4471
6/	-12.4473
circulating	-12.4476
▁catalysts	-12.4476
▁habitat	-12.448
denominated	-12.4482
▁timelines	-12.4482
▁doe	-12.4483
knew	-12.4492
cuts	-12.4493
person	-12.4494
significant	-12.4499
▁gigawatts	-12.4501
▁jun	-12.4502
▁abrasives	-12.4505
▁xf	-12.4506
▁detailing	-12.4507
amag	-12.4508
▁sgs	-12.451
▁insiders	-12.4513
210	-12.4516
▁equate	-12.4516
▁(2023).	-12.4518
layer	-12.4522
▁damages	-12.4522
▁cleaned	-12.4524
shanxi	-12.4532
anticipated	-12.4532
reduction	-12.4532
downstream	-12.4532
-16	-12.4533
▁fractions	-12.4535
▁revamp	-12.454
▁cil	-12.4548
ru	-12.455
benefitting	-12.4558
-6-	-12.4562
dis	-12.4566
▁11.8	-12.4567
▁fortunate	-12.4567
offs	-12.4568
force	-12.4568
▁genesis	-12.4569
▁maruti	-12.4569
▁sophistication	-12.4569
▁danish	-12.457
▁shannon	-12.457
▁entrust	-12.457
▁foothold	-12.457
▁lacklustre	-12.457
▁ducker	-12.457
▁perforated	-12.457
▁lovers	-12.457
▁cosco	-12.457
▁satisfactory	-12.457
▁yokohama	-12.457
▁legend	-12.4571
▁truth	-12.4571
▁liquefie	-12.4571
▁lelouma	-12.4571
▁societal	-12.4571
▁organising	-12.4571
▁blockchain	-12.4571
▁bintulu	-12.4572
$2,195	-12.4572
▁hirakud	-12.4572
▁ashok	-12.4573
▁nominated	-12.4573
▁2,520	-12.4574
▁simplified	-12.4574
▁teamwork	-12.4574
▁0.86	-12.4574
▁stalled	-12.4575
▁rodtep	-12.4575
drop	-12.4575
▁prospectus	-12.4576
▁csir	-12.4577
▁rebounds	-12.4578
▁revamped	-12.4579
▁37%	-12.4581
dual	-12.4581
bd	-12.4581
▁washed	-12.4582
▁embodied	-12.4582
▁bargaining	-12.4583
▁walker	-12.4584
▁individually	-12.4591
▁expires	-12.4591
▁pain	-12.4592
-19.	-12.4597
▁sacrific	-12.4597
▁olive	-12.4597
▁premiere	-12.4598
▁54,000	-12.4599
0%,	-12.4599
▁respondents	-12.4601
▁356	-12.4602
▁laos	-12.4605
▁contaminants	-12.4605
.63	-12.4606
▁retire	-12.4609
▁ju	-12.461
▁mph	-12.4612
con	-12.4613
▁mentioning	-12.4613
▁microns	-12.4614
▁reservoir	-12.4617
▁rand	-12.4618
▁recipient	-12.4618
rc	-12.4619
▁tolerance	-12.4619
▁variation	-12.4619
closed	-12.4621
▁debuted	-12.4622
▁4,200	-12.4625
▁conflicts	-12.4627
,680	-12.4628
▁prn	-12.4629
▁costing	-12.4632
▁digitally	-12.4636
19,030	-12.4639
▁172	-12.464
ching	-12.4643
▁lakes	-12.4644
▁cis	-12.4648
▁1905	-12.4649
▁assisted	-12.4655
total	-12.4657
▁onward	-12.4658
6,300	-12.466
1.7	-12.4664
▁warn	-12.4673
▁belongs	-12.4673
▁1810	-12.4676
▁honours	-12.4677
40,000	-12.4681
▁8.1	-12.4684
▁dozens	-12.4685
▁slows	-12.4693
▁2110	-12.4695
▁railings	-12.4697
▁overproduction	-12.4698
arrows	-12.4703
has	-12.4703
index	-12.471
decade	-12.471
chinalco	-12.4711
dubal	-12.4711
▁nova	-12.4712
▁2029.	-12.4713
▁occasions	-12.472
locked	-12.4723
▁tablets	-12.4725
fer	-12.4725
▁correspond	-12.4727
▁cad	-12.4728
▁ja	-12.4734
▁hal	-12.474
▁ta	-12.474
▁arrange	-12.4742
loading	-12.4742
surge	-12.4743
$200	-12.4744
▁refuse	-12.4746
▁mat	-12.4747
▁collateral	-12.4748
▁chevrolet	-12.4748
▁ductility	-12.4748
▁finspång	-12.4748
▁gallery	-12.4748
▁lexus	-12.4748
▁sizable	-12.4748
▁tanzania	-12.4748
companhia	-12.4748
▁goose	-12.4748
▁xiamen	-12.4748
▁embassy	-12.4748
▁suitability	-12.4748
▁ashland	-12.4749
▁sundaram	-12.4749
▁inferred	-12.4749
▁widodo	-12.4749
▁father	-12.4749
▁360-	-12.4749
▁remediation	-12.4749
▁potent	-12.4749
▁460,000	-12.4749
▁justified	-12.475
▁minus	-12.475
▁airflow	-12.475
▁cassopolis	-12.475
▁female	-12.475
▁merchandise	-12.475
▁baht	-12.475
▁equitable	-12.475
▁personalised	-12.475
▁expresses	-12.475
▁predictable	-12.4751
▁voting	-12.4751
▁groundwater	-12.4751
▁149	-12.4751
▁gala	-12.4752
▁smoother	-12.4754
▁$0.02	-12.4754
▁orora	-12.4754
▁crushed	-12.4754
▁oppose	-12.4755
▁0.69	-12.4755
▁relocated	-12.4755
▁unloading	-12.4755
▁rx	-12.4756
▁crossroads	-12.4757
▁witnesses	-12.4757
▁ecologically	-12.4758
▁midhani	-12.4759
▁seasonally	-12.476
modernising	-12.476
▁21,900	-12.4761
▁finest	-12.4762
▁151	-12.4762
▁28%	-12.4762
vap	-12.4763
▁0.59	-12.4764
▁0.91	-12.4765
▁collaboratively	-12.4765
▁121	-12.4767
7,400	-12.4767
▁13,900	-12.4769
mr	-12.4772
▁eca	-12.4772
▁shallow	-12.4775
▁1950	-12.4775
▁secondly	-12.4781
▁2.87	-12.4783
ish	-12.4784
▁adjoin	-12.4785
1,900	-12.4786
▁mahan	-12.4787
▁alutech	-12.4788
▁guid	-12.479
▁texture	-12.4792
▁shipbuilder	-12.4794
mann	-12.4795
2,850	-12.4796
▁deodorant	-12.4799
▁resin	-12.4799
pur	-12.48
▁3,100	-12.48
▁citizen	-12.48
▁emirate	-12.4801
▁3,900	-12.4801
93,000	-12.4802
▁appointing	-12.4803
cent	-12.4805
▁$2.3	-12.481
▁2020-21	-12.4811
▁lacking	-12.4815
africa	-12.4815
▁18,450	-12.4816
solidifying	-12.4819
▁1.90	-12.482
▁169	-12.4822
▁1.56	-12.4822
▁chem	-12.4823
3,850	-12.4827
▁ageing	-12.483
▁1.19	-12.4831
▁staffs	-12.4833
2,400	-12.4834
-10	-12.4836
▁ray	-12.4837
space	-12.4838
▁converters	-12.4843
.37	-12.4845
▁dominates	-12.4846
▁speculations	-12.4848
▁ye	-12.4849
3.6	-12.4849
▁learnt	-12.4851
▁succeeds	-12.4851
▁pal	-12.4857
2015	-12.4858
▁ladders	-12.4866
▁rem	-12.4875
ron	-12.4876
▁$1.7	-12.4877
▁dams	-12.488
▁kv	-12.4882
250/	-12.4884
▁13.5	-12.4889
▁institutes	-12.4889
margin	-12.489
$1,900	-12.489
▁studying	-12.4891
circular	-12.4892
management	-12.4892
strategic	-12.4892
biggest	-12.4892
because	-12.4892
$48	-12.4892
enabled	-12.4894
▁doc	-12.4894
▁sinks	-12.4907
arching	-12.4908
ola	-12.4911
.0%	-12.4917
18,830	-12.4917
▁$24	-12.4922
1.8	-12.4926
town	-12.4926
▁catalogue	-12.4927
▁abundance	-12.493
▁credibility	-12.493
▁mcdonald	-12.493
▁ningxia	-12.493
▁qualcomm	-12.493
▁rheinland	-12.493
▁simplicity	-12.493
▁fruitful	-12.493
▁multifaceted	-12.493
▁citigroup	-12.493
▁remuneration	-12.493
▁verify	-12.493
▁monumental	-12.4931
▁augmentation	-12.4931
▁olaf	-12.4931
▁magnesita	-12.4931
▁costlier	-12.4931
▁rectangular	-12.4932
▁geneva	-12.4932
$43	-12.4932
▁harmony	-12.4932
▁xingfa	-12.4932
▁drinkers	-12.4933
▁containment	-12.4933
▁lemon	-12.4933
▁0.78	-12.4934
▁18,920	-12.4934
▁gestamp	-12.4934
▁taural	-12.4934
▁homeowners	-12.4934
▁18,990	-12.4934
▁0.66	-12.4934
▁18,940	-12.4935
▁18,250	-12.4935
▁preheating	-12.4935
▁rationing	-12.4936
▁polymers	-12.4937
▁flue	-12.4937
▁everybody	-12.4938
▁3.5%	-12.4939
▁correctly	-12.4939
▁hailing	-12.4939
4,200	-12.4941
3000/	-12.4943
▁elemental	-12.4943
▁continental	-12.4945
good	-12.4945
▁investigated	-12.4946
producer	-12.4947
▁justify	-12.4948
▁kids	-12.4949
▁1967	-12.4949
▁xin	-12.495
▁cementing	-12.4951
▁dampening	-12.4954
▁rpm	-12.4954
thrown	-12.4955
▁4,250	-12.4956
▁externally	-12.4956
▁advocated	-12.4957
▁182	-12.4957
▁zhou	-12.4962
▁surround	-12.4962
▁thoughts	-12.4965
ara	-12.4965
.66	-12.4968
▁linger	-12.497
▁1.71	-12.4971
▁thresholds	-12.4979
oems	-12.4984
.16	-12.4984
▁cocktail	-12.4985
▁accolade	-12.4985
▁forklift	-12.4985
▁bumper	-12.4986
▁lane	-12.4988
▁rings	-12.4988
▁th	-12.4989
▁comprehensively	-12.4995
▁1.66	-12.4996
▁nv	-12.5001
▁anup	-12.5011
▁kim	-12.5014
▁2.03	-12.5014
▁debts	-12.5017
▁#5	-12.5017
.62	-12.5018
▁1.74	-12.5018
▁jay	-12.5019
▁jars	-12.5024
9,400	-12.5028
▁cano	-12.5029
dr	-12.503
cst	-12.503
▁1.68	-12.503
▁blades	-12.503
▁outages	-12.5038
0°	-12.5053
▁20.7	-12.5053
ov	-12.5055
ol	-12.5057
15,000	-12.5062
▁ky	-12.5064
-35	-12.5066
▁shoulder	-12.5067
▁sentiments	-12.5069
,055	-12.5069
▁raji	-12.5073
rec	-12.5077
▁27,300	-12.5077
yunnan	-12.5077
density	-12.5077
containing	-12.5079
advanced	-12.5079
18,510	-12.5082
[...]
