<unk>	0
<s>	0
</s>	0
▁the	-3.10064
,	-3.21577
.	-3.45863
▁and	-3.75861
▁to	-3.80936
▁of	-3.82136
▁in	-3.91832
-	-4.02097
s	-4.21129
▁a	-4.24837
▁aluminium	-4.24906
▁per	-4.4605
▁for	-4.81182
▁tonne	-4.86251
▁at	-4.92096
▁is	-4.92164
▁on	-5.01522
▁by	-5.0704
▁with	-5.12247
▁from	-5.17134
’	-5.32338
▁rmb	-5.3757
▁has	-5.38361
▁as	-5.4096
▁tonnes	-5.4112
▁price	-5.4327
▁us	-5.48427
▁that	-5.50256
▁its	-5.53258
'	-5.65035
▁(	-5.67964
▁cent	-5.70388
▁	-5.72374
▁this	-5.73713
▁will	-5.78884
▁million	-5.7981
▁are	-5.82283
▁it	-5.91703
▁an	-5.95928
▁company	-5.97532
▁be	-5.99124
▁production	-5.99806
ing	-6.0295
)	-6.06094
▁year	-6.10566
▁china	-6.14218
▁was	-6.19517
▁new	-6.20229
▁have	-6.23286
▁industry	-6.24224
▁market	-6.25268
▁alumina	-6.27388
▁“	-6.28683
▁which	-6.3035
▁said	-6.31595
▁also	-6.319
▁prices	-6.36776
▁global	-6.38082
▁our	-6.39273
▁up	-6.41651
▁bauxite	-6.46572
▁we	-6.49312
▁or	-6.49836
/	-6.49998
:	-6.51782
▁lme	-6.63331
▁more	-6.63657
▁products	-6.64179
▁can	-6.66296
▁high	-6.68327
▁metal	-6.69256
▁been	-6.70368
t	-6.71846
▁"	-6.72686
▁their	-6.73938
▁energy	-6.78113
ed	-6.7963
▁over	-6.82625
▁first	-6.83415
▁demand	-6.85833
▁inr	-6.86595
▁while	-6.90331
$	-6.90801
▁data	-6.91121
▁aluminum	-6.9211
▁than	-6.93055
▁recycling	-6.94535
▁primary	-6.95596
▁but	-6.985
▁one	-6.98631
▁all	-6.99019
▁growth	-6.99869
.”	-7.00157
▁world	-7.00538
▁according	-7.01013
▁capacity	-7.01204
▁project	-7.01895
▁scrap	-7.0255
▁india	-7.02715
a	-7.02855
▁expected	-7.03411
▁down	-7.0445
▁other	-7.05233
▁supply	-7.05642
▁during	-7.07158
▁not	-7.07819
on	-7.09413
▁were	-7.09793
▁total	-7.11574
;	-7.12427
▁after	-7.12648
▁into	-7.14776
2	-7.1603
▁plant	-7.16059
▁ingot	-7.16168
▁increase	-7.16592
▁last	-7.18525
▁business	-7.18591
d	-7.18616
▁two	-7.20032
▁may	-7.21876
▁about	-7.22413
▁technology	-7.24198
o	-7.24548
▁power	-7.24677
▁development	-7.26401
▁manufacturing	-7.26457
▁between	-7.27418
▁group	-7.28604
▁increased	-7.28683
▁most	-7.28805
▁sector	-7.29009
▁billion	-7.29921
1	-7.30219
▁alloy	-7.30334
▁low	-7.30369
▁week	-7.30862
▁metals	-7.30906
▁trade	-7.31043
▁mining	-7.3159
▁average	-7.31717
▁these	-7.31744
the	-7.34955
▁export	-7.3509
▁quarter	-7.35408
▁years	-7.35769
▁he	-7.36062
▁range	-7.36342
▁shfe	-7.36647
▁would	-7.36983
▁3	-7.38095
▁through	-7.38177
▁materials	-7.38329
▁they	-7.38866
▁contract	-7.38911
▁three	-7.39371
▁due	-7.39444
▁domestic	-7.399
▁across	-7.40136
▁sustainability	-7.40766
▁operations	-7.40991
▁stood	-7.41194
▁value	-7.43024
▁further	-7.43201
▁government	-7.43233
▁day	-7.437
▁industrial	-7.44062
▁usd	-7.44371
▁however	-7.44473
▁packaging	-7.44647
),	-7.4583
▁higher	-7.4622
▁sustainable	-7.46278
▁imports	-7.46376
month	-7.46439
year	-7.4683
▁import	-7.46899
▁carbon	-7.47336
▁material	-7.47533
,”	-7.47831
▁including	-7.47952
m	-7.49038
▁major	-7.49539
▁both	-7.50313
▁2	-7.5059
▁month	-7.50927
▁december	-7.51381
▁&	-7.51776
▁had	-7.52914
▁20	-7.52981
▁q	-7.53378
▁january	-7.53434
▁now	-7.53474
▁real	-7.53904
▁well	-7.54246
▁previous	-7.54276
▁around	-7.54467
▁access	-7.54536
▁such	-7.54696
▁cans	-7.54875
▁sales	-7.55699
▁end	-7.5589
▁process	-7.55952
▁analysis	-7.56534
▁today	-7.56623
▁companies	-7.56876
▁exports	-7.57077
▁support	-7.57351
▁product	-7.58124
00	-7.58204
▁1	-7.5876
▁june	-7.58879
▁industries	-7.59282
▁significant	-7.60007
▁spot	-7.60037
▁trends	-7.60049
▁performance	-7.60109
▁country	-7.60226
▁like	-7.60815
▁future	-7.61294
3	-7.61466
▁find	-7.61629
▁same	-7.6169
time	-7.61755
▁smelter	-7.61997
▁10	-7.62444
▁since	-7.62693
▁out	-7.62842
▁march	-7.63933
▁under	-7.64081
▁some	-7.64103
we	-7.64132
▁insights	-7.64661
▁report	-7.64676
▁international	-7.64781
▁offer	-7.64897
▁only	-7.64934
▁cost	-7.65633
▁announced	-7.65904
▁co	-7.66278
▁output	-7.6629
▁automotive	-7.6675
▁use	-7.66835
▁used	-7.67294
▁hydro	-7.67305
▁construction	-7.67756
▁smm	-7.68151
▁investment	-7.68292
▁leading	-7.68481
▁vedanta	-7.68483
▁time	-7.68898
."	-7.68899
▁compared	-7.69006
▁september	-7.6984
▁environmental	-7.6984
▁lower	-7.70084
driven	-7.70512
▁facility	-7.70985
▁exclusive	-7.71056
▁south	-7.71984
▁5	-7.72448
▁july	-7.72638
▁stand	-7.72649
▁steel	-7.73198
▁period	-7.73331
▁state	-7.73359
▁limited	-7.73549
▁chain	-7.7397
▁president	-7.74373
▁made	-7.74847
▁largest	-7.7513
▁chinese	-7.75249
▁shanghai	-7.75726
▁historical	-7.75844
▁april	-7.75951
depth	-7.76066
com	-7.76466
▁added	-7.76511
y	-7.77061
▁rise	-7.77173
▁october	-7.77681
▁al	-7.78245
▁u	-7.78468
▁indices	-7.78545
▁trading	-7.78595
▁stands	-7.78878
in	-7.78889
▁volume	-7.79002
▁united	-7.79013
▁long	-7.79286
▁exchange	-7.79359
to	-7.79378
▁emissions	-7.79581
▁august	-7.79853
▁november	-7.81401
▁months	-7.81435
▁solutions	-7.81475
▁net	-7.82914
▁customers	-7.83236
▁key	-7.83427
▁producers	-7.83471
▁recycled	-7.83657
▁bid	-7.83713
,"	-7.84553
▁3-	-7.84977
▁part	-7.85018
▁inventories	-7.8535
▁operating	-7.85469
▁economy	-7.85924
▁europe	-7.8612
://	-7.86258
▁director	-7.86336
▁second	-7.87222
▁http	-7.87877
▁costs	-7.88145
www	-7.88248
▁strong	-7.8849
▁states	-7.88538
▁consumption	-7.88736
▁there	-7.89119
▁when	-7.90419
▁design	-7.90836
aluminium	-7.91092
▁cash	-7.91096
▁system	-7.91603
alcircle	-7.91725
▁18	-7.91938
▁impact	-7.92224
▁no	-7.92556
▁european	-7.92635
▁local	-7.92803
▁being	-7.93148
▁4	-7.93576
▁so	-7.93997
e	-7.94583
▁alloys	-7.95112
news	-7.95217
▁within	-7.95444
▁closed	-7.95746
▁economic	-7.95802
▁ceo	-7.95831
▁next	-7.95902
▁markets	-7.96138
▁continue	-7.96211
▁decline	-7.96237
▁ltd	-7.96491
▁–	-7.96506
▁alcoa	-7.97182
▁north	-7.9761
▁respectively	-7.97998
▁current	-7.98008
▁stock	-7.98373
4	-7.98686
▁30	-7.99174
▁quality	-7.99287
▁green	-7.99291
▁national	-7.9946
▁could	-7.99611
▁february	-7.99708
).	-8.00082
▁19	-8.0024
▁line	-8.00809
▁raw	-8.00894
▁producer	-8.01019
▁executive	-8.01244
▁close	-8.01347
▁downstream	-8.01673
▁foil	-8.01949
▁thursday	-8.02286
▁warrants	-8.02396
▁estimated	-8.02486
▁make	-8.02806
▁extrusion	-8.03526
▁where	-8.03766
▁set	-8.03976
▁projects	-8.04135
▁australia	-8.04463
▁commitment	-8.04589
▁reported	-8.0485
▁work	-8.04947
▁agreement	-8.05088
based	-8.05128
▁chief	-8.0525
▁share	-8.05694
▁beverage	-8.0613
▁50	-8.06252
▁any	-8.06808
▁financial	-8.06936
▁rate	-8.06959
▁come	-8.07083
ly	-8.07144
▁rusal	-8.07432
▁refinery	-8.07534
▁revenue	-8.08044
▁management	-8.09069
▁electric	-8.09681
▁6	-8.09794
▁remained	-8.10445
▁standard	-8.10484
▁who	-8.10842
▁building	-8.10909
▁rio	-8.11714
▁before	-8.11759
▁annual	-8.11839
▁towards	-8.12097
▁if	-8.12133
▁friday	-8.12646
.50	-8.12748
▁tariffs	-8.13342
▁imported	-8.13885
▁dropped	-8.13986
▁against	-8.14297
▁potential	-8.14584
▁25	-8.14746
▁recorded	-8.14997
▁premium	-8.15044
▁third	-8.15313
▁region	-8.15848
▁waste	-8.15859
▁top	-8.15867
▁100	-8.15998
▁15	-8.1636
▁expansion	-8.16385
▁crore	-8.16631
▁innovation	-8.16652
▁21	-8.16688
▁initiative	-8.16819
▁drop	-8.16919
▁asi	-8.17103
▁vehicles	-8.17146
▁non	-8.17153
▁focus	-8.17462
▁research	-8.17465
▁hindalco	-8.1767
▁following	-8.17748
c	-8.17832
▁smelters	-8.18024
▁full	-8.18077
▁water	-8.1824
i	-8.18286
▁percent	-8.18577
▁strategic	-8.18675
▁likely	-8.18998
▁five	-8.19528
▁already	-8.19678
▁his	-8.19772
▁recent	-8.20313
▁latest	-8.20447
▁firm	-8.21055
▁many	-8.21425
▁solar	-8.21673
▁continued	-8.21864
▁official	-8.21889
▁uk	-8.22017
▁environment	-8.22022
▁countries	-8.22598
▁monday	-8.228
▁technologies	-8.23058
▁systems	-8.23202
▁growing	-8.23249
▁using	-8.23732
▁reduce	-8.23783
▁resources	-8.23862
▁tinto	-8.23959
▁2020	-8.24132
▁team	-8.2419
al	-8.24199
▁14	-8.24479
re	-8.24515
▁east	-8.24532
▁each	-8.25066
▁benchmark	-8.25462
▁help	-8.26056
▁results	-8.26149
▁back	-8.2696
▁making	-8.26963
▁half	-8.26973
▁rose	-8.27051
▁produced	-8.27076
▁i	-8.27309
▁profit	-8.27618
term	-8.27719
▁them	-8.27962
▁association	-8.28875
▁based	-8.29132
carbon	-8.29331
th	-8.29801
▁manufacturers	-8.29841
▁indian	-8.29922
▁canada	-8.30083
▁ega	-8.30106
▁corporation	-8.30425
▁equipment	-8.31495
▁move	-8.31604
▁safety	-8.31777
▁currently	-8.31819
▁forward	-8.31985
▁america	-8.32296
▁even	-8.32413
▁just	-8.32723
▁among	-8.32977
▁processing	-8.32996
▁provide	-8.33082
▁certification	-8.33164
▁plans	-8.33237
▁remain	-8.33253
"	-8.33418
▁components	-8.33529
▁renewable	-8.33587
▁novelis	-8.33606
▁7	-8.3366
▁people	-8.33675
▁22	-8.33783
▁very	-8.33827
▁meet	-8.34032
▁guinea	-8.34336
▁working	-8.34491
▁13	-8.34638
▁gas	-8.34942
▁efficiency	-8.3506
▁shipments	-8.35133
▁12	-8.35349
▁coal	-8.35479
▁tuesday	-8.35591
▁m	-8.35743
▁cut	-8.35978
▁produce	-8.3622
▁officer	-8.36643
▁battery	-8.36934
▁operational	-8.37068
▁decreased	-8.37532
▁various	-8.37542
▁sectors	-8.37546
▁-	-8.37772
▁nalco	-8.37884
▁wednesday	-8.37985
▁applications	-8.38018
n	-8.38165
▁facilities	-8.38431
▁vehicle	-8.38745
▁despite	-8.3928
”	-8.39565
▁role	-8.39678
▁level	-8.3981
▁take	-8.39837
▁advanced	-8.40368
▁wire	-8.40577
▁interest	-8.40734
▁recently	-8.41235
▁reach	-8.41697
▁8	-8.41962
▁need	-8.42034
▁highest	-8.42177
▁overall	-8.42254
▁opening	-8.42448
of	-8.42658
▁commercial	-8.4296
▁four	-8.43126
▁still	-8.43204
▁fy	-8.43481
▁available	-8.43732
▁alba	-8.43856
▁2017	-8.44506
▁large	-8.44525
▁increasing	-8.44744
▁came	-8.4477
▁without	-8.44841
▁london	-8.44899
▁board	-8.4496
▁brand	-8.45102
▁fell	-8.45499
▁how	-8.45548
▁inventory	-8.4579
▁plan	-8.4611
▁change	-8.46255
▁fall	-8.4628
▁less	-8.46678
▁2018	-8.46721
▁9	-8.46763
▁general	-8.46892
▁electricity	-8.47602
▁partnership	-8.48009
▁mr	-8.48206
▁ensure	-8.48236
▁look	-8.48328
▁significantly	-8.48813
▁important	-8.48845
▁innovative	-8.48869
▁amount	-8.49155
▁17	-8.49343
▁stated	-8.4936
us	-8.49404
▁minister	-8.4951
r	-8.49558
▁40	-8.4964
▁futures	-8.50167
▁parts	-8.50239
▁because	-8.50369
▁rising	-8.50369
▁trend	-8.50595
▁24	-8.50666
▁remains	-8.50853
▁‘	-8.51007
▁23	-8.5145
▁manufacturer	-8.51458
▁record	-8.51499
▁strategy	-8.51541
▁casting	-8.51815
▁event	-8.51819
▁create	-8.51855
▁car	-8.52001
▁2016	-8.5223
▁capital	-8.52285
▁mine	-8.52386
▁drive	-8.5244
▁another	-8.52844
months	-8.53009
▁11	-8.53049
▁position	-8.53101
▁areas	-8.53207
▁australian	-8.53573
▁you	-8.53743
▁plants	-8.53782
▁lightweight	-8.54053
▁approximately	-8.54434
▁engineering	-8.55052
▁infrastructure	-8.55194
▁e	-8.55228
▁social	-8.55374
▁see	-8.56055
▁base	-8.56214
▁asia	-8.56223
▁dec	-8.56431
▁result	-8.56442
▁way	-8.56735
▁include	-8.57234
▁designed	-8.57478
▁every	-8.57507
▁2019	-8.57611
▁short	-8.57659
▁open	-8.58015
▁declined	-8.58035
er	-8.58157
w	-8.5819
▁says	-8.58212
▁h	-8.58275
▁light	-8.58422
▁critical	-8.58708
▁kg	-8.58765
▁2021	-8.5878
▁16	-8.58916
▁live	-8.59034
▁meeting	-8.59192
▁services	-8.59218
▁challenges	-8.59248
▁nearly	-8.59301
▁addition	-8.5934
▁effect	-8.59756
▁additional	-8.59858
▁re	-8.6013
▁seen	-8.60133
▁2023	-8.60216
▁germany	-8.60438
▁collaboration	-8.60453
up	-8.60557
▁earlier	-8.60711
▁reduction	-8.61058
▁2015	-8.6127
▁earnings	-8.61308
▁totalled	-8.61359
▁central	-8.61437
▁opportunities	-8.61457
▁existing	-8.61505
▁american	-8.6166
▁standards	-8.61678
▁efforts	-8.61862
▁found	-8.62085
▁driven	-8.62115
▁order	-8.62163
▁aerospace	-8.62284
▁several	-8.62509
▁keep	-8.63095
▁mines	-8.6329
▁what	-8.63525
▁below	-8.63685
▁positive	-8.63736
▁eu	-8.63737
▁pressure	-8.63871
▁area	-8.63975
▁opened	-8.64261
▁technical	-8.64348
▁together	-8.64383
▁reduced	-8.64413
▁settlement	-8.6453
▁2022	-8.64721
▁developed	-8.64866
▁chairman	-8.64924
▁footprint	-8.64983
▁experience	-8.65101
▁russia	-8.65186
▁billet	-8.65311
▁flat	-8.6589
▁start	-8.65967
▁employees	-8.66087
▁hand	-8.66368
▁rolling	-8.66412
▁operation	-8.66471
▁much	-8.66594
▁do	-8.66756
▁closing	-8.66793
▁site	-8.66921
▁y	-8.67193
▁those	-8.67265
▁secondary	-8.67274
▁settle	-8.67304
▁uae	-8.67319
▁rates	-8.67836
▁achieve	-8.68042
▁tariff	-8.68389
▁exported	-8.68402
▁showed	-8.68413
▁become	-8.68542
▁manager	-8.68544
▁term	-8.68548
▁producing	-8.6877
▁centre	-8.68833
▁hover	-8.68985
▁off	-8.68999
▁number	-8.69071
▁step	-8.69488
▁deal	-8.69832
▁decision	-8.69893
▁japan	-8.7
▁joint	-8.70203
p	-8.70225
▁2021,	-8.70225
▁reducing	-8.70364
▁days	-8.7047
▁place	-8.70563
▁2025	-8.70593
▁hike	-8.70609
▁should	-8.70705
▁asian	-8.70719
▁sheet	-8.70806
▁traded	-8.71053
▁recovery	-8.71234
▁then	-8.71386
▁solution	-8.71474
▁plastic	-8.71651
▁led	-8.71708
5	-8.71876
▁supplier	-8.71939
▁build	-8.72
▁lots	-8.72183
▁along	-8.72361
▁ministry	-8.72466
▁best	-8.72513
▁past	-8.72598
▁held	-8.72681
▁copper	-8.72764
▁leader	-8.7297
▁aims	-8.7326
▁saw	-8.7331
▁grow	-8.73348
▁fuel	-8.73957
▁tons	-8.74186
▁started	-8.74227
▁consumers	-8.74302
▁ball	-8.7452
▁stocks	-8.74548
▁policy	-8.74571
▁circular	-8.74618
▁managing	-8.74919
▁ore	-8.75142
▁2020.	-8.75157
▁processes	-8.7517
▁sources	-8.75253
▁enterprises	-8.7537
▁information	-8.75555
▁six	-8.75708
▁africa	-8.75755
▁yoy	-8.7578
▁better	-8.75816
▁control	-8.75928
▁needs	-8.76035
▁smelting	-8.76257
▁60	-8.76375
▁cancelled	-8.76507
▁entire	-8.76603
g	-8.76705
▁wuxi	-8.76863
▁transition	-8.76972
7	-8.77033
it	-8.77411
▁port	-8.77569
day	-8.77756
▁near	-8.77938
▁inc	-8.7795
▁expand	-8.78108
▁offers	-8.78139
▁units	-8.78274
▁shares	-8.78449
▁ended	-8.78601
▁providing	-8.78747
▁jobs	-8.7882
▁2024	-8.78891
▁2018.	-8.79413
▁press	-8.79457
▁practices	-8.79609
▁improve	-8.79741
▁launched	-8.79797
▁customer	-8.80008
▁bahrain	-8.80258
▁rolled	-8.80291
▁integrated	-8.80468
▁de	-8.80543
▁consumer	-8.80793
▁odisha	-8.80959
▁v	-8.81015
▁registered	-8.81028
▁service	-8.81396
▁partners	-8.8153
▁phase	-8.81787
▁launch	-8.81853
▁institute	-8.81859
▁brazil	-8.81863
▁public	-8.81962
▁decrease	-8.81999
▁unit	-8.82015
l	-8.82027
this	-8.82072
▁responsible	-8.82184
▁mineral	-8.82364
▁levels	-8.8242
▁lead	-8.82426
mt	-8.82442
▁basis	-8.82597
▁body	-8.82625
▁early	-8.82644
▁loss	-8.82932
▁dollar	-8.83031
6	-8.83299
▁2017.	-8.8336
▁develop	-8.83487
▁climate	-8.83494
▁department	-8.83533
▁followed	-8.83977
▁2023,	-8.83982
▁conference	-8.84057
▁vice	-8.8428
▁activities	-8.84319
▁suppliers	-8.84396
b	-8.84715
▁transportation	-8.8484
▁conditions	-8.84869
▁sheets	-8.84941
▁ago	-8.85081
8	-8.85168
▁extrusions	-8.85443
▁above	-8.85454
▁fully	-8.85498
▁2024,	-8.85624
▁source	-8.86113
▁almost	-8.86458
▁core	-8.86615
▁received	-8.86964
▁grew	-8.86982
▁r	-8.87156
▁investments	-8.87494
▁auto	-8.8756
▁russian	-8.87705
▁get	-8.87993
▁businesses	-8.8807
▁recyclable	-8.88086
▁b	-8.88148
▁reference	-8.88194
quality	-8.88628
▁slightly	-8.88798
&	-8.88992
▁looking	-8.89023
▁powder	-8.89026
▁unchanged	-8.89522
12	-8.89602
▁city	-8.89638
▁continues	-8.89977
▁bottles	-8.90073
▁generation	-8.90097
▁includes	-8.90184
▁heat	-8.90455
▁'	-8.90475
▁signed	-8.90489
▁tax	-8.90543
▁index	-8.90763
▁improved	-8.90905
▁boost	-8.91113
▁yet	-8.91276
▁measures	-8.91339
▁worldwide	-8.91638
▁zero	-8.91651
▁strength	-8.91724
▁orders	-8.91841
▁progress	-8.92106
▁initiatives	-8.92276
▁union	-8.9229
▁enhance	-8.923
▁achieved	-8.92325
▁community	-8.92588
▁2025,	-8.9272
▁covid	-8.92768
▁built	-8.92827
▁reached	-8.92879
▁2019.	-8.92969
▁clean	-8.93159
▁trump	-8.93191
▁2019,	-8.93191
▁award	-8.93322
▁w	-8.93353
▁2022,	-8.9337
▁duty	-8.93547
▁program	-8.9371
▁ebitda	-8.93785
▁model	-8.93789
▁partner	-8.93798
▁goods	-8.93884
▁segment	-8.94042
▁series	-8.94058
▁throughout	-8.94153
▁glass	-8.94404
▁far	-8.9445
▁located	-8.94552
▁again	-8.94606
▁s	-8.94629
▁offering	-8.94712
as	-8.94744
▁70	-8.94831
▁indonesia	-8.9484
▁single	-8.9491
▁2018,	-8.94974
▁natural	-8.95094
▁good	-8.95109
▁provides	-8.95255
▁possible	-8.95328
▁middle	-8.95648
▁comes	-8.95815
q	-8.95983
▁26	-8.96002
▁life	-8.96012
▁deliver	-8.96031
▁cutting	-8.96034
▁2021.	-8.96487
▁venture	-8.96586
▁acquisition	-8.96926
▁globally	-8.97007
▁portfolio	-8.97074
-19	-8.972
▁shows	-8.97281
▁weight	-8.97329
▁oil	-8.97374
▁2020,	-8.97562
es	-8.97716
▁surge	-8.97727
▁moving	-8.98048
▁foshan	-8.98146
▁stewardship	-8.98199
▁able	-8.98254
k	-8.98371
▁coming	-8.98537
▁subsidiary	-8.98633
▁space	-8.98662
▁pre	-8.9869
▁target	-8.98713
▁small	-8.98776
▁going	-8.98886
▁minerals	-8.9897
▁witnessed	-8.99193
▁circle	-8.99233
▁ongoing	-8.99556
▁few	-8.99705
▁reflect	-8.99778
▁benefits	-8.99781
▁programme	-8.99854
▁mainly	-8.99917
▁expects	-8.99932
▁billets	-9.00011
▁special	-9.00026
▁2016.	-9.00036
▁hangzhou	-9.00053
▁fourth	-9.00153
▁study	-9.00195
▁pounds	-9.00367
▁side	-9.00512
▁great	-9.00885
grade	-9.00903
▁opportunity	-9.01099
▁nation	-9.01264
▁platform	-9.01287
▁once	-9.014
for	-9.01534
▁multi	-9.01588
▁premiums	-9.01609
▁digital	-9.01637
▁approach	-9.01683
▁resource	-9.01742
▁completed	-9.01783
▁delivery	-9.01816
▁point	-9.0189
▁ingots	-9.01901
▁malaysia	-9.01973
▁published	-9.01996
▁developing	-9.02118
▁mexico	-9.024
▁west	-9.02467
▁terms	-9.02559
▁primarily	-9.02611
▁stable	-9.0285
▁daily	-9.02955
▁council	-9.03052
▁statement	-9.03061
▁biggest	-9.03242
▁cars	-9.03277
.5	-9.03301
▁allow	-9.03362
▁anode	-9.03408
▁different	-9.0343
▁go	-9.03492
▁member	-9.0354
▁rest	-9.03578
9	-9.03746
▁main	-9.0376
▁food	-9.03923
▁senior	-9.04149
▁profiles	-9.04428
▁committed	-9.04438
▁emirates	-9.04482
▁air	-9.04618
▁gongyi	-9.04718
▁transformation	-9.04848
▁members	-9.05247
▁show	-9.0549
▁ahead	-9.05613
▁shandong	-9.0565
▁worth	-9.05665
▁expertise	-9.05819
▁present	-9.0582
▁put	-9.05913
▁rod	-9.06201
▁transport	-9.06208
▁features	-9.06246
h	-9.06345
▁reports	-9.06439
▁2017,	-9.06454
▁buyers	-9.06493
▁creating	-9.06528
▁volumes	-9.06542
▁issues	-9.06589
▁constellium	-9.06593
▁chongqing	-9.06639
▁mt	-9.0673
▁highly	-9.06975
▁complete	-9.06999
▁land	-9.07084
▁c	-9.07275
▁known	-9.07288
f	-9.07892
▁crucial	-9.07907
usd	-9.07982
▁post	-9.08028
▁unique	-9.08262
▁bring	-9.08283
▁tianjin	-9.08297
▁expenditure	-9.08304
▁shift	-9.08506
▁given	-9.08679
▁comprehensive	-9.08683
▁80	-9.08729
▁contribute	-9.0902
traded	-9.09171
▁cast	-9.09205
▁efficient	-9.09233
and	-9.09281
▁regions	-9.09286
▁dr	-9.09353
▁factory	-9.09648
▁henan	-9.09687
▁province	-9.09834
▁forecast	-9.09849
▁un	-9.10005
our	-9.10201
▁survey	-9.10267
▁aim	-9.10486
▁established	-9.10534
▁release	-9.106
▁vision	-9.10719
▁workers	-9.10729
▁requirements	-9.1084
▁contracts	-9.11012
▁content	-9.11065
▁until	-9.11086
▁successfully	-9.11106
▁wheels	-9.11135
▁income	-9.11161
▁your	-9.11317
▁capabilities	-9.11447
▁semi	-9.11462
▁storage	-9.11515
▁required	-9.11543
—	-9.11671
▁especially	-9.11884
▁particularly	-9.12023
▁robust	-9.12313
x	-9.1237
▁own	-9.12447
▁die	-9.12532
▁driving	-9.12818
▁head	-9.12901
▁consecutive	-9.13473
▁eight	-9.13496
▁released	-9.13515
▁goal	-9.13815
ensuring	-9.13879
▁regional	-9.1405
▁scale	-9.14073
with	-9.14073
▁leadership	-9.14074
▁times	-9.14358
?	-9.14647
▁200	-9.14668
▁outlook	-9.14772
▁$1	-9.14815
▁f	-9.15036
▁final	-9.15124
▁mill	-9.15139
end	-9.15182
▁adjusted	-9.15424
▁investors	-9.15456
▁success	-9.15689
▁28	-9.15827
▁•	-9.15854
▁panels	-9.15864
ve	-9.15881
▁milestone	-9.15985
▁goals	-9.16079
▁essential	-9.16154
▁amid	-9.16208
▁overnight	-9.16307
▁hit	-9.16488
▁competitive	-9.16742
▁achieving	-9.16898
$2	-9.17131
ion	-9.17146
▁batteries	-9.17352
▁plates	-9.17421
▁bank	-9.17443
▁must	-9.17488
▁1,	-9.17635
▁metric	-9.17844
▁stake	-9.17906
▁additionally	-9.18129
▁collection	-9.18303
▁western	-9.18371
▁assets	-9.18786
▁university	-9.18866
▁century	-9.18948
▁complex	-9.18979
▁annually	-9.19084
356)	-9.19089
▁created	-9.19141
▁2016,	-9.19185
▁linyi	-9.19392
▁maintenance	-9.19397
32	-9.19461
▁foreign	-9.19462
▁substantial	-9.19698
▁supported	-9.1983
▁duties	-9.19999
▁90	-9.20046
▁taking	-9.20075
▁structure	-9.20261
▁proposed	-9.204
▁explore	-9.20406
▁home	-9.20415
▁reportedly	-9.20497
▁metro	-9.20545
▁case	-9.20568
▁coffee	-9.20605
▁gained	-9.20692
▁establish	-9.20702
▁although	-9.20755
▁yesterday	-9.20802
▁beyond	-9.20944
▁invest	-9.2098
▁protection	-9.21014
▁am	-9.21051
▁27	-9.21117
▁players	-9.21125
▁supplies	-9.21279
20	-9.2135
▁expanded	-9.2138
$1	-9.21473
▁hydrogen	-9.21638
at	-9.21831
▁steady	-9.21895
▁purchase	-9.22025
▁france	-9.22149
▁cuts	-9.22464
▁subject	-9.22606
▁expanding	-9.22752
▁successful	-9.22759
▁manufacture	-9.23005
▁marks	-9.2315
▁concerns	-9.23274
bid	-9.23304
▁iron	-9.23384
able	-9.23495
▁pandemic	-9.23501
▁lines	-9.23527
▁original	-9.23588
▁makes	-9.23772
▁surged	-9.23782
▁eco	-9.23885
▁free	-9.24324
▁application	-9.24379
▁related	-9.2453
▁points	-9.24556
owned	-9.24654
per	-9.24686
▁account	-9.24859
▁2023.	-9.24939
▁commission	-9.25062
▁modern	-9.25081
by	-9.25082
▁corporate	-9.25094
▁news	-9.25182
▁wide	-9.25212
▁t	-9.25225
▁run	-9.25247
▁taken	-9.25284
▁supporting	-9.2539
▁ev	-9.25492
▁resistance	-9.25517
▁projected	-9.25773
▁risk	-9.26381
▁commodity	-9.26446
▁31	-9.26473
▁traditional	-9.26484
▁automobile	-9.26754
▁remaining	-9.26833
▁administration	-9.26943
▁improvement	-9.26976
▁security	-9.27021
▁stage	-9.27143
▁direct	-9.27173
▁overseas	-9.27374
▁mid	-9.27409
▁reaching	-9.27443
▁pricing	-9.2759
▁korea	-9.27787
▁35	-9.27927
v	-9.2793
▁recycle	-9.28298
▁though	-9.28349
▁usage	-9.28349
an	-9.28371
▁lowest	-9.28491
▁red	-9.28537
▁fiscal	-9.28609
▁here	-9.28806
▁gains	-9.28857
▁right	-9.28899
▁weak	-9.28937
▁sanctions	-9.28972
▁form	-9.29027
▁2015.	-9.29031
▁response	-9.29032
▁return	-9.29061
▁having	-9.29066
▁—	-9.29072
▁changes	-9.29131
▁targets	-9.29143
▁benefit	-9.29178
▁provided	-9.29318
▁health	-9.29374
▁planned	-9.29427
▁park	-9.2943
▁resulting	-9.2984
▁surface	-9.29937
▁extended	-9.29948
▁initial	-9.30052
▁action	-9.30172
▁solid	-9.30296
▁crude	-9.30546
▁nine	-9.3059
▁climbed	-9.30696
▁wind	-9.30846
▁proud	-9.30869
▁marking	-9.30897
▁organisation	-9.30916
week	-9.3095
▁2022.	-9.30952
▁purity	-9.31053
▁secure	-9.3133
▁planning	-9.31352
adc	-9.31444
▁excellence	-9.31806
▁usa	-9.31878
▁sale	-9.3202
▁commerce	-9.32047
▁she	-9.32097
▁situation	-9.32289
▁pay	-9.32617
▁combined	-9.32664
▁produces	-9.33018
12)	-9.33062
▁dedicated	-9.33097
▁shenyang	-9.3317
▁heavy	-9.33181
▁clear	-9.33387
▁noted	-9.33455
▁halt	-9.3367
▁machine	-9.33856
▁continuous	-9.33913
▁properties	-9.34015
▁customs	-9.34055
▁issue	-9.34076
▁beginning	-9.34093
▁finance	-9.34103
▁address	-9.34118
▁bin	-9.34138
▁anti	-9.34512
▁extruded	-9.3465
▁journey	-9.34715
▁rods	-9.34818
▁night	-9.35029
▁italy	-9.35038
▁doors	-9.35068
▁big	-9.35199
▁might	-9.35454
▁thousand	-9.35503
▁2014	-9.35655
▁shanxi	-9.35743
▁scheme	-9.35822
▁introduced	-9.36014
▁2024.	-9.36075
▁extensive	-9.36092
▁effective	-9.3614
25	-9.36183
▁selling	-9.36591
▁anticipated	-9.36702
▁previously	-9.36877
▁refineries	-9.37074
▁independent	-9.37357
▁delivered	-9.37725
▁specific	-9.3783
▁strengthen	-9.38066
▁etc	-9.38137
excluding	-9.38192
▁downfall	-9.38208
co	-9.3823
▁29	-9.38237
▁session	-9.3824
▁sold	-9.38288
▁items	-9.3834
▁focused	-9.38402
▁transaction	-9.38653
▁marketing	-9.38689
▁mark	-9.38708
▁gain	-9.38717
▁yuan	-9.38781
▁hpa	-9.38866
▁review	-9.38867
edge	-9.39134
▁uses	-9.39167
▁lithium	-9.39185
▁enable	-9.39265
▁sentiment	-9.39302
▁revealed	-9.39341
▁factors	-9.39362
▁g	-9.39428
▁electrical	-9.39472
▁vital	-9.39587
▁technological	-9.39624
▁annum	-9.39663
▁similar	-9.39706
▁45	-9.39975
0	-9.40077
▁holding	-9.40102
▁debt	-9.40146
▁p	-9.40306
30	-9.4037
▁presence	-9.40393
▁hard	-9.40505
▁list	-9.40645
▁losses	-9.4066
14	-9.40704
▁commented	-9.40831
▁discount	-9.40945
▁experienced	-9.40963
▁d	-9.41003
▁ma	-9.41327
▁shareholders	-9.41355
▁150	-9.41422
▁options	-9.41464
▁ghana	-9.41474
▁giant	-9.41492
or	-9.41499
▁containers	-9.41534
▁brands	-9.41605
▁multiple	-9.41724
▁private	-9.42112
▁brings	-9.42118
▁stakeholders	-9.42145
▁2015,	-9.42176
▁experts	-9.42177
▁face	-9.42239
china	-9.42267
▁want	-9.42322
▁ever	-9.42511
▁crisis	-9.42569
▁double	-9.42573
▁affected	-9.42632
▁network	-9.42688
▁refining	-9.42731
▁house	-9.4286
▁seven	-9.4312
▁office	-9.43166
▁holiday	-9.43166
▁issued	-9.43234
▁greater	-9.43509
▁importance	-9.43573
▁falling	-9.43777
▁positions	-9.43999
scale	-9.44007
▁greenhouse	-9.4401
▁raised	-9.44142
▁division	-9.44222
▁communities	-9.44247
▁represents	-9.44467
▁owned	-9.44546
▁aircraft	-9.44596
▁thus	-9.44719
▁installation	-9.44746
▁took	-9.44844
®	-9.45449
▁alcircle	-9.4578
▁offset	-9.45887
▁meanwhile	-9.45889
▁delivering	-9.4602
▁later	-9.46157
▁leaders	-9.46188
▁expectations	-9.46296
▁japanese	-9.46331
▁grown	-9.46469
▁generated	-9.46656
▁x	-9.46715
▁toward	-9.47007
▁finished	-9.47016
▁windows	-9.47327
▁flow	-9.47369
▁balance	-9.47478
▁indicates	-9.47508
▁ability	-9.47706
▁competition	-9.4773
▁announcement	-9.47839
▁implementation	-9.4809
▁directly	-9.4821
friendly	-9.48286
se	-9.48495
▁track	-9.48543
▁adding	-9.48593
use	-9.48602
▁fund	-9.48619
+	-9.48691
▁does	-9.48704
▁accounted	-9.48848
▁details	-9.48851
▁engine	-9.48914
▁certified	-9.48964
▁test	-9.48981
▁visit	-9.48987
art	-9.49
▁500	-9.49065
st	-9.49134
▁season	-9.49163
▁maintain	-9.49212
▁common	-9.49263
▁treatment	-9.49397
▁testing	-9.49403
▁weekly	-9.49432
▁yunnan	-9.4944
▁confirmed	-9.49459
▁means	-9.49585
ferrous	-9.49696
▁beer	-9.49909
▁front	-9.5021
▁structural	-9.50218
▁did	-9.50258
▁shown	-9.50274
▁feature	-9.50597
▁serve	-9.50598
▁input	-9.50621
10	-9.50788
▁improving	-9.50971
▁committee	-9.50976
▁extend	-9.51064
▁pleased	-9.51087
▁2025.	-9.51253
380)	-9.51332
▁bringing	-9.51343
▁completion	-9.5152
▁canadian	-9.51613
▁thermal	-9.51673
▁panel	-9.51708
21	-9.51949
▁act	-9.52147
▁campaign	-9.52163
▁active	-9.5221
▁fire	-9.52299
▁continuing	-9.52536
▁know	-9.52548
▁holdings	-9.52554
▁installed	-9.52673
▁300	-9.52833
▁discounts	-9.52897
▁activity	-9.52906
▁soon	-9.52927
▁expect	-9.52939
▁procurement	-9.53
▁huge	-9.53095
▁environmentally	-9.53107
▁jamaica	-9.53158
▁starting	-9.532
▁shipment	-9.53215
ched	-9.53298
▁plate	-9.53362
▁liquid	-9.53624
▁rail	-9.53732
50	-9.53793
▁reserves	-9.54175
▁play	-9.54205
▁status	-9.54315
added	-9.54518
lme	-9.54592
▁n	-9.54597
▁75	-9.54672
▁began	-9.54724
▁believe	-9.5475
▁date	-9.54803
▁analysts	-9.54831
▁bar	-9.55099
▁add	-9.55166
▁momentum	-9.55172
▁exploration	-9.55172
▁percentage	-9.55181
▁speed	-9.55183
▁outside	-9.55188
▁ready	-9.55253
▁earth	-9.55287
▁versus	-9.55363
▁sell	-9.55557
60	-9.55596
▁motor	-9.55606
▁imposed	-9.55613
▁reflects	-9.55617
▁allows	-9.55645
ic	-9.5578
▁former	-9.55795
▁recovered	-9.55803
▁settled	-9.55839
▁approval	-9.559
▁policies	-9.55935
▁queensland	-9.55939
▁field	-9.55951
▁least	-9.56034
▁gulf	-9.56035
▁promote	-9.56095
19	-9.56155
▁2,000	-9.56351
▁1,000	-9.56445
▁funding	-9.56495
▁bars	-9.565
▁statistics	-9.56726
▁plunged	-9.56761
▁whereas	-9.5687
▁shipping	-9.56906
▁secured	-9.57004
▁cement	-9.57053
▁pilot	-9.57204
▁road	-9.57257
▁safe	-9.57279
▁logistics	-9.57324
asi	-9.57326
class	-9.57347
▁highlight	-9.57387
▁setting	-9.5739
▁foundry	-9.57402
▁align	-9.57425
▁commodities	-9.57486
▁peg	-9.57684
▁wheel	-9.5796
▁saudi	-9.58179
▁upcoming	-9.58189
▁structures	-9.58271
▁monthly	-9.58321
▁included	-9.58379
▁31,	-9.58459
▁scheduled	-9.58503
▁decisions	-9.58508
▁begin	-9.5857
▁itself	-9.58579
▁ford	-9.58662
▁chemical	-9.58682
▁thanks	-9.58729
▁exhibition	-9.58767
▁regarding	-9.58844
▁generally	-9.58857
▁german	-9.58933
▁secretary	-9.5896
▁cooperation	-9.58965
▁marked	-9.58971
▁agreed	-9.58971
▁100%	-9.58992
▁adc	-9.59031
▁federal	-9.5916
finished	-9.59429
▁upward	-9.59574
▁choice	-9.59655
new	-9.59686
▁via	-9.59738
▁raise	-9.60012
▁contributing	-9.60055
▁downward	-9.60062
▁broader	-9.60064
▁l	-9.60133
▁enhancing	-9.60163
▁ten	-9.60492
▁nok	-9.60531
▁deposit	-9.60555
▁fast	-9.60661
▁cable	-9.60719
▁sourcing	-9.60761
6,000	-9.60826
▁late	-9.60975
▁directors	-9.61064
▁whether	-9.61071
▁note	-9.61083
▁lost	-9.61107
▁warehouses	-9.61201
▁sorting	-9.61226
▁needed	-9.61248
▁valuable	-9.61467
▁component	-9.61515
▁medium	-9.61678
▁court	-9.61779
▁furnace	-9.61829
▁dedication	-9.61976
▁peak	-9.62049
▁decided	-9.62099
▁increasingly	-9.62179
▁ranging	-9.62202
▁electronics	-9.62202
▁training	-9.62237
▁window	-9.62252
▁slight	-9.62257
▁behind	-9.62286
▁moreover	-9.62302
▁certain	-9.62463
▁officials	-9.62476
▁foster	-9.62482
▁highlights	-9.62508
▁lighter	-9.62542
▁fact	-9.62671
ers	-9.62905
▁models	-9.62971
▁rare	-9.62986
▁responsibility	-9.63005
▁associated	-9.63119
▁machines	-9.63129
▁clock	-9.63237
▁necessary	-9.63416
▁smart	-9.63426
▁alongside	-9.6353
▁corresponding	-9.63536
▁alternative	-9.63563
mm	-9.63611
▁agency	-9.63628
▁showing	-9.63742
▁frame	-9.63878
▁challenge	-9.6396
▁hold	-9.64131
▁involved	-9.64263
▁1.5	-9.64291
▁always	-9.64353
▁ground	-9.64353
▁attributed	-9.64356
▁size	-9.64526
▁don	-9.64656
▁guangxi	-9.64672
▁decarbonisation	-9.64673
▁knowledge	-9.6487
▁2,	-9.64978
▁brought	-9.64982
▁assessment	-9.65082
▁operate	-9.65117
▁provinces	-9.65239
▁eur	-9.65239
▁stay	-9.65283
▁give	-9.65382
▁approved	-9.65396
▁expo	-9.65403
▁decades	-9.65487
en	-9.65527
▁ramp	-9.65587
mounted	-9.65699
▁machinery	-9.65728
▁$	-9.65962
▁grade	-9.66249
▁upon	-9.66256
▁district	-9.6626
ex	-9.66269
▁distribution	-9.66362
▁newly	-9.66393
▁turkey	-9.66473
▁standing	-9.66638
▁prior	-9.66675
▁effort	-9.66802
▁metallurgical	-9.66941
▁excellent	-9.67011
▁called	-9.67024
▁clients	-9.67102
▁awards	-9.67107
▁cycle	-9.67304
▁shared	-9.67495
▁enterprise	-9.6769
▁manufactured	-9.67896
prebaked	-9.67972
▁accounts	-9.67975
purity	-9.68075
▁works	-9.68396
▁chemicals	-9.68406
▁officially	-9.68651
▁considering	-9.68655
▁becoming	-9.68756
▁stronger	-9.68956
▁longer	-9.68967
▁provider	-9.68971
▁firms	-9.68992
▁comparison	-9.69062
▁generate	-9.69151
▁buyer	-9.69244
▁calculation	-9.69334
▁contribution	-9.6934
▁concluded	-9.69519
u	-9.69547
▁holds	-9.69634
▁advantage	-9.69654
15	-9.69725
▁prime	-9.69725
$3	-9.69764
▁maintaining	-9.69797
13	-9.69848
▁landscape	-9.69943
▁enhanced	-9.70007
ma	-9.70115
▁jharsuguda	-9.70168
▁closure	-9.70243
▁restrained	-9.70281
▁sharp	-9.70382
▁caused	-9.70436
▁iran	-9.7052
▁update	-9.70582
▁contributed	-9.70637
▁sites	-9.70671
40	-9.70718
▁pro	-9.70735
▁participants	-9.70824
▁dubai	-9.70837
▁defence	-9.70946
▁diverse	-9.71166
dumping	-9.71387
▁regulatory	-9.71394
▁corp	-9.71411
▁declared	-9.71509
▁upstream	-9.71642
▁availability	-9.71743
▁whole	-9.71757
▁tight	-9.71779
▁hub	-9.71858
17	-9.71869
▁hours	-9.71877
▁developments	-9.72387
intensive	-9.72413
▁productivity	-9.7252
▁k	-9.72581
▁representing	-9.72624
▁2030	-9.72667
▁hot	-9.72679
▁amag	-9.72789
▁mechanical	-9.7284
▁dipped	-9.72974
▁vietnam	-9.72982
▁edition	-9.73021
▁considered	-9.73037
▁authorities	-9.73087
▁example	-9.73199
▁helping	-9.73219
▁excited	-9.73316
▁closely	-9.73375
▁therefore	-9.73438
▁rm	-9.73491
▁traders	-9.73638
▁printing	-9.7364
▁emerging	-9.73665
▁moved	-9.73743
▁32	-9.7377
▁governance	-9.73777
▁aerosol	-9.74139
▁mw	-9.74155
▁grid	-9.74178
▁investing	-9.74191
▁updated	-9.74208
▁30,	-9.7429
▁hope	-9.74304
▁stop	-9.74408
▁emission	-9.74483
23	-9.74608
▁movement	-9.7462
▁decade	-9.74631
over	-9.74676
▁chalco	-9.74781
▁impressive	-9.74784
▁joined	-9.74794
▁mixed	-9.74809
▁employment	-9.74818
▁fob	-9.74825
▁accounting	-9.74864
▁acquired	-9.74879
▁nations	-9.74886
▁fair	-9.74939
▁discussions	-9.74967
▁turn	-9.74971
▁touch	-9.75196
▁job	-9.75213
▁ambitious	-9.75516
▁her	-9.75576
free	-9.7565
▁users	-9.75677
▁capral	-9.75884
▁challenging	-9.7622
▁too	-9.764
▁reuters	-9.76454
▁old	-9.7646
z	-9.76584
▁actively	-9.76609
▁protect	-9.76682
▁told	-9.76686
▁cables	-9.76771
▁transmission	-9.76806
▁slipped	-9.76806
▁precision	-9.76862
▁buy	-9.76891
▁margins	-9.76901
▁center	-9.76982
▁operates	-9.77051
▁underscore	-9.77179
▁paper	-9.77358
▁offered	-9.7738
alba	-9.7747
▁done	-9.77471
▁austria	-9.77509
▁facing	-9.77545
▁reflected	-9.77641
▁purchasing	-9.77642
quarter	-9.77655
▁credit	-9.77715
26	-9.7772
18	-9.77736
▁enabling	-9.77758
▁st	-9.77823
▁ban	-9.77942
▁kingdom	-9.78117
▁financing	-9.7812
▁went	-9.78228
▁media	-9.78231
▁introduce	-9.78312
▁equity	-9.78377
1,000	-9.78401
▁till	-9.7849
▁creation	-9.78491
▁highlighted	-9.78495
▁lot	-9.78526
▁increases	-9.78557
▁surplus	-9.78598
▁authority	-9.786
▁automakers	-9.78767
▁alliance	-9.78807
▁ex	-9.78841
▁valued	-9.78919
▁chains	-9.78936
▁self	-9.78962
▁workforce	-9.78964
▁confidence	-9.79206
▁encourage	-9.7925
▁restrictions	-9.79272
▁chart	-9.79294
▁understanding	-9.79351
▁framework	-9.79428
▁why	-9.79462
▁audit	-9.79464
▁crown	-9.79499
▁alunorte	-9.79576
▁pace	-9.79598
▁dynamics	-9.7964
▁conducted	-9.79757
▁competitiveness	-9.79817
▁mud	-9.80112
▁elements	-9.80142
▁row	-9.80173
▁weeks	-9.80206
▁silicon	-9.80404
▁corrosion	-9.80433
▁boast	-9.80701
▁ratio	-9.80833
▁organization	-9.8089
▁investigation	-9.80917
million	-9.80945
▁$2	-9.8098
▁option	-9.8109
▁maximum	-9.81164
▁integration	-9.81166
▁bottle	-9.81225
▁profile	-9.81324
▁regulations	-9.8142
▁spread	-9.81423
▁fresh	-9.81423
▁ai	-9.8145
▁consolidated	-9.81554
▁paid	-9.81592
tonne	-9.81663
▁county	-9.81668
▁3,000	-9.81775
▁foundation	-9.81802
▁flagship	-9.82042
▁additive	-9.82167
▁55	-9.82181
price	-9.82273
▁rapid	-9.82385
▁carried	-9.82424
▁mostly	-9.82551
▁container	-9.82572
▁arabia	-9.82597
▁besides	-9.82621
▁push	-9.82661
▁running	-9.82685
▁sea	-9.82699
▁deep	-9.82751
▁ultra	-9.82788
▁norway	-9.8279
▁relatively	-9.83045
largest	-9.83084
▁quarterly	-9.83155
▁promoting	-9.83168
▁receive	-9.83184
▁commissioning	-9.83222
▁package	-9.83249
tech	-9.83322
▁section	-9.83356
▁renowned	-9.83557
zero	-9.83725
▁greener	-9.83797
▁designs	-9.83833
▁location	-9.83851
▁easy	-9.83929
nalco	-9.84011
▁pollution	-9.8406
▁supplied	-9.84065
▁mix	-9.84082
▁spain	-9.84191
▁furthermore	-9.84195
▁bharat	-9.84314
▁online	-9.84324
▁mission	-9.84373
▁difficult	-9.84391
▁accurate	-9.84406
▁retail	-9.84407
▁250	-9.84432
▁transactions	-9.84473
▁altech	-9.84613
22	-9.84638
▁internal	-9.84661
▁enough	-9.84688
▁little	-9.84695
▁bureau	-9.8482
▁33	-9.84861
▁unveiled	-9.84874
▁particular	-9.85041
▁en	-9.85071
▁advancing	-9.85075
▁norsk	-9.85079
line	-9.85094
▁exceptional	-9.85314
▁coating	-9.85324
▁modifications	-9.85659
▁reliable	-9.85717
le	-9.85966
▁collected	-9.86032
▁implemented	-9.8619
▁railway	-9.86195
▁120	-9.86266
▁user	-9.86495
▁automation	-9.86632
▁expressed	-9.86805
performance	-9.86827
▁larger	-9.86843
▁human	-9.86979
▁others	-9.87248
its	-9.87286
▁guizhou	-9.87287
party	-9.87326
▁lakh	-9.87415
▁northern	-9.8742
▁science	-9.87524
▁edge	-9.87656
▁largely	-9.87809
▁slow	-9.87876
▁shipped	-9.87943
▁cells	-9.8808
am	-9.88085
owing	-9.88145
▁rights	-9.8819
▁drops	-9.88209
▁ideal	-9.88324
▁exporter	-9.88428
5,000	-9.8843
▁acquire	-9.88434
▁save	-9.88521
▁labour	-9.88608
▁supports	-9.88764
▁concern	-9.88781
▁white	-9.88792
ega	-9.89041
16	-9.89071
▁finally	-9.89073
▁join	-9.89085
24	-9.89105
▁supplying	-9.89212
▁perfect	-9.89244
▁stability	-9.89277
▁follows	-9.89279
▁cell	-9.89335
▁square	-9.89354
▁tubes	-9.89354
▁arm	-9.89369
▁edits	-9.8941
▁pivotal	-9.89419
▁zinc	-9.89557
▁explained	-9.89559
▁force	-9.89595
▁eastern	-9.89626
90	-9.89663
▁strengthening	-9.89678
▁fluoride	-9.89678
▁achievement	-9.89687
▁path	-9.8973
▁plunge	-9.89886
▁attention	-9.89948
▁require	-9.90009
edged	-9.9003
-1	-9.90057
▁400	-9.90078
▁19,	-9.9011
▁cover	-9.90193
▁marine	-9.90228
▁residue	-9.90233
▁accelerate	-9.90287
▁ali	-9.9036
global	-9.90431
▁view	-9.90434
70	-9.90481
▁family	-9.90494
80	-9.90638
▁oman	-9.90712
▁geological	-9.90762
▁instead	-9.90769
▁scope	-9.90809
▁category	-9.90906
▁worked	-9.90931
▁republic	-9.91026
▁entered	-9.91135
▁castings	-9.91136
▁3,	-9.91164
▁resilience	-9.91172
▁34	-9.91314
▁away	-9.91324
▁notable	-9.91339
▁won	-9.91377
▁estimates	-9.91467
▁risks	-9.91544
▁gränges	-9.91588
9,000	-9.916
▁95	-9.91641
▁display	-9.91649
▁concept	-9.91673
▁joining	-9.91702
▁monitoring	-9.91708
▁rather	-9.91861
▁gdp	-9.91885
▁effectively	-9.91922
▁declining	-9.91996
▁37	-9.92045
▁seller	-9.92056
▁advance	-9.92096
▁dip	-9.92238
▁player	-9.92479
▁investor	-9.92608
▁abu	-9.92624
▁architectural	-9.92692
▁gold	-9.92715
▁history	-9.92825
▁asset	-9.92854
▁presented	-9.93091
▁say	-9.93145
▁invested	-9.93248
▁declines	-9.93268
▁appointed	-9.93279
▁charge	-9.93371
▁maker	-9.93428
▁rules	-9.93475
▁care	-9.93569
▁negotiations	-9.93724
▁dross	-9.93814
▁budget	-9.93965
▁mm	-9.93966
▁seeking	-9.93969
▁65	-9.94062
▁2026	-9.94063
▁faced	-9.9407
▁reserve	-9.94084
▁claims	-9.94279
▁household	-9.94289
▁netherlands	-9.94417
▁recognition	-9.94513
▁african	-9.946
▁jumped	-9.94728
▁buying	-9.94794
▁ship	-9.94815
ton	-9.94868
▁think	-9.94918
▁drinks	-9.95133
7,000	-9.95211
▁drink	-9.95265
▁break	-9.95321
▁nickel	-9.95375
▁block	-9.95391
▁initiated	-9.95413
▁helps	-9.95426
▁events	-9.95462
▁consistent	-9.95475
▁remarkable	-9.95504
▁talks	-9.95522
▁custody	-9.95656
consumer	-9.95886
▁society	-9.9593
▁durability	-9.9593
▁door	-9.96086
▁profitability	-9.96086
▁shape	-9.96134
▁hong	-9.96198
si	-9.96428
▁profits	-9.96452
▁variety	-9.96506
▁researchers	-9.96626
▁conventional	-9.96628
▁aiming	-9.9664
out	-9.96744
▁flexible	-9.96905
▁gmbh	-9.96946
▁call	-9.97091
▁passenger	-9.97348
▁british	-9.97378
▁agreements	-9.97468
▁zone	-9.97519
▁war	-9.97689
▁ukraine	-9.97885
▁segments	-9.97903
▁reduces	-9.97926
▁proposal	-9.97942
▁electrolytic	-9.97963
▁exciting	-9.98251
”.	-9.98303
▁figures	-9.98368
▁composite	-9.98396
▁truck	-9.98459
▁balco	-9.98479
▁external	-9.98513
▁sapa	-9.98558
▁36	-9.98577
is	-9.98586
▁typically	-9.98705
▁makers	-9.98805
▁zealand	-9.98846
▁follow	-9.98933
▁impacted	-9.98981
▁method	-9.98983
▁dhabi	-9.98987
▁property	-9.98992
▁arconic	-9.99001
▁outstanding	-9.99015
▁implementing	-9.99044
▁assembly	-9.99146
▁resulted	-9.99155
▁shortage	-9.99157
▁helped	-9.99172
▁2.5	-9.99401
▁temperature	-9.99419
▁listed	-9.99459
man	-9.9951
▁delighted	-9.9959
▁10%	-9.99654
▁residents	-9.99691
▁sa	-9.99708
▁savings	-9.99853
▁enables	-9.9991
▁equivalent	-9.9991
▁majority	-9.99918
▁friendly	-9.99986
▁18,	-10.0002
▁bmw	-10.0005
▁nature	-10.0019
–	-10.0024
▁manufactures	-10.0024
▁takes	-10.0028
▁negative	-10.003
▁hiked	-10.003
▁often	-10.0031
▁reporting	-10.0031
▁gradually	-10.0034
▁2030.	-10.0035
▁effects	-10.0038
▁50%	-10.0038
”,	-10.0046
▁uncertainty	-10.0048
▁prevent	-10.005
▁met	-10.0053
production	-10.0064
▁1.2	-10.0067
house	-10.0076
▁chassis	-10.0079
▁enter	-10.0088
▁cargo	-10.0094
▁dual	-10.0097
▁locations	-10.0103
▁prominent	-10.0105
▁impose	-10.0118
▁actions	-10.0122
▁margin	-10.0126
efficient	-10.013
▁figure	-10.0131
▁funds	-10.0147
▁cities	-10.0154
▁110	-10.0156
▁4.0	-10.0161
from	-10.0166
data	-10.0167
▁strategies	-10.0168
▁superior	-10.0184
▁charging	-10.0186
▁smaller	-10.0189
▁advantages	-10.019
▁requires	-10.0198
▁parties	-10.02
▁lack	-10.0207
▁concerned	-10.0212
▁innovations	-10.0215
▁named	-10.0223
off	-10.0223
▁jiangsu	-10.023
▁kaiser	-10.0231
▁reason	-10.0233
▁ports	-10.025
28	-10.0254
▁rs	-10.026
▁name	-10.027
▁guangdong	-10.0276
▁alro	-10.0282
▁steps	-10.0284
▁capacities	-10.0291
▁immediate	-10.0304
poised	-10.0307
▁2014.	-10.0332
▁founded	-10.0338
▁featuring	-10.0339
getting	-10.0342
▁matter	-10.0344
▁sets	-10.0362
green	-10.0379
▁travel	-10.0383
▁course	-10.0389
▁my	-10.0397
extremely	-10.0414
▁apple	-10.0416
▁arab	-10.0423
▁improvements	-10.0424
▁130	-10.0431
▁4,	-10.0438
▁cold	-10.0439
▁giving	-10.0462
▁bd	-10.0467
▁ending	-10.0471
▁commenting	-10.0473
▁bike	-10.0479
▁analyst	-10.0485
▁rating	-10.0488
▁awareness	-10.0493
▁flexibility	-10.0493
▁york	-10.0493
▁capture	-10.0502
▁loan	-10.0503
▁roughly	-10.0509
▁wall	-10.0516
▁transfer	-10.0517
▁esg	-10.0517
▁depend	-10.0519
▁plus	-10.0531
▁sluggish	-10.054
▁grant	-10.0541
▁specifically	-10.0556
▁shut	-10.0558
▁sharply	-10.0576
el	-10.0582
▁colour	-10.0587
▁affect	-10.06
▁room	-10.0601
ation	-10.0603
▁weekend	-10.0604
▁oxide	-10.0615
if	-10.0624
▁demonstrates	-10.0624
▁upgrade	-10.0638
▁mentioned	-10.064
▁16,	-10.0662
8,000	-10.0663
▁turnover	-10.0668
▁initially	-10.0674
▁grows	-10.0675
▁noranda	-10.0683
▁super	-10.0684
▁methods	-10.0699
▁thailand	-10.07
▁feasibility	-10.0704
▁forum	-10.0721
▁contrast	-10.0722
▁rebound	-10.0724
2,000	-10.0729
▁black	-10.0731
▁facilitate	-10.0746
▁cross	-10.0759
▁exporters	-10.0759
▁38	-10.0769
related	-10.0771
▁purpose	-10.0776
▁deficit	-10.0779
▁deliveries	-10.0779
▁12,	-10.0792
▁signs	-10.0795
indicating	-10.0795
▁44	-10.0798
▁mobility	-10.0802
▁ways	-10.0805
▁recap	-10.082
▁hybrid	-10.0843
▁strip	-10.0844
▁website	-10.0844
▁equipped	-10.0847
▁limit	-10.0847
▁forecasts	-10.0851
▁10,000	-10.0856
cost	-10.0861
▁sent	-10.0871
▁ownership	-10.0877
▁utilisation	-10.0878
▁recognised	-10.0883
▁handling	-10.0893
▁type	-10.0899
▁representatives	-10.0907
▁awarded	-10.0912
▁rapidly	-10.0913
▁either	-10.0917
high	-10.0922
▁southern	-10.0926
▁summit	-10.0926
▁processed	-10.0937
▁link	-10.0957
▁detailed	-10.0964
▁actual	-10.0972
j	-10.0973
▁vessel	-10.0975
▁donald	-10.0991
▁70%	-10.0993
▁leverage	-10.1001
▁j	-10.1001
!	-10.1001
aden	-10.1023
rolled	-10.1026
3,000	-10.1027
▁john	-10.1041
▁difference	-10.1041
▁staff	-10.1058
▁cause	-10.1068
▁rebounded	-10.1069
▁fabrication	-10.1077
▁aid	-10.1078
▁demands	-10.1087
▁wine	-10.1087
▁art	-10.109
▁train	-10.1094
▁2014,	-10.1099
▁trucks	-10.1108
▁tools	-10.1109
▁revenues	-10.1117
▁exceed	-10.1123
▁ceremony	-10.1124
▁extra	-10.1125
▁ardagh	-10.1142
▁him	-10.1146
▁furnaces	-10.115
▁launches	-10.1152
▁criteria	-10.1157
▁participation	-10.1158
▁unwrought	-10.1158
35	-10.1168
45	-10.1172
▁economies	-10.1174
▁fit	-10.1176
▁combination	-10.1176
▁40%	-10.1178
▁potentially	-10.118
▁140	-10.1188
▁blocks	-10.1214
▁backed	-10.1219
▁luxury	-10.1226
▁sub	-10.1226
▁objective	-10.1228
▁strips	-10.1244
ml	-10.1254
▁weaker	-10.1263
▁showcase	-10.1273
▁48	-10.1284
▁favourable	-10.1293
▁records	-10.1308
▁adoption	-10.131
preliminary	-10.1313
▁deposits	-10.1322
▁shareholder	-10.1333
▁confident	-10.1341
▁kentucky	-10.1344
▁registration	-10.1349
▁links	-10.1361
▁notably	-10.1362
▁soared	-10.1363
▁headquartered	-10.1367
▁device	-10.1367
▁owners	-10.1372
casting	-10.1388
▁money	-10.1395
▁impacts	-10.1398
▁5,000	-10.1405
▁advancements	-10.1406
▁sourced	-10.1407
▁28,	-10.1409
▁article	-10.1411
▁securing	-10.1414
▁cannot	-10.1415
▁exporting	-10.1425
▁objectives	-10.1425
▁pt	-10.1427
▁round	-10.1429
▁melting	-10.1429
▁morning	-10.1429
▁llc	-10.1429
▁latter	-10.1429
▁gross	-10.143
▁addressing	-10.1431
▁compliance	-10.1432
▁dynamic	-10.1438
ro	-10.1445
▁15,	-10.1446
▁ag	-10.145
▁demonstrated	-10.1453
go	-10.1458
▁o	-10.1462
coupled	-10.148
▁popular	-10.1481
▁owner	-10.1481
▁infinitely	-10.1483
▁faster	-10.1484
▁implement	-10.1498
▁individual	-10.1503
▁expert	-10.1508
▁principles	-10.1512
▁relationship	-10.1524
▁adds	-10.1525
▁gap	-10.1531
▁custom	-10.1535
▁quickly	-10.1535
▁numerous	-10.155
▁captive	-10.1551
▁kong	-10.1552
▁tool	-10.1558
de	-10.156
▁cap	-10.1564
▁47	-10.1564
▁pointed	-10.1568
▁gives	-10.1586
▁inflation	-10.1586
75	-10.1589
▁teams	-10.1594
▁gets	-10.1594
▁ecosystem	-10.1594
▁alone	-10.1609
▁iai	-10.1613
▁sports	-10.1619
▁factor	-10.163
▁boosting	-10.1635
▁13,	-10.1642
▁maintained	-10.1642
▁hongqiao	-10.1656
▁11,	-10.1664
▁school	-10.1667
▁partnerships	-10.168
▁switch	-10.168
▁physical	-10.169
▁capsules	-10.1692
▁quebec	-10.1692
▁ireland	-10.1692
▁suitable	-10.1693
▁replace	-10.1694
▁fallen	-10.1694
’20	-10.1699
▁6,	-10.1701
▁600	-10.1707
un	-10.1736
▁hills	-10.1736
▁version	-10.1739
▁partially	-10.1745
▁globe	-10.1746
▁alupro	-10.175
kg	-10.1751
▁recover	-10.1753
▁beijing	-10.1763
▁freight	-10.1766
▁aviation	-10.1781
▁warrant	-10.1784
▁seeing	-10.1794
▁foils	-10.1795
▁separate	-10.1799
▁thank	-10.1801
▁serves	-10.1802
▁transform	-10.1814
▁guidance	-10.1816
▁relevant	-10.1817
▁selected	-10.1822
▁devices	-10.1827
▁posted	-10.1831
▁recyclability	-10.1834
▁founder	-10.1837
▁consist	-10.1838
te	-10.1839
▁legal	-10.1849
▁canyon	-10.1853
ar	-10.186
▁slumped	-10.1877
55	-10.1878
▁really	-10.1878
▁lanjigarh	-10.1888
▁ton	-10.1888
▁42	-10.1888
ka	-10.1893
▁fundamentals	-10.1902
▁types	-10.1907
▁raising	-10.1907
▁massive	-10.1922
▁planet	-10.1927
▁5,	-10.1928
▁mou	-10.1929
29	-10.1929
▁moment	-10.1937
▁extension	-10.1942
▁glencore	-10.1943
▁finish	-10.1944
▁kumar	-10.1944
▁suggests	-10.1945
▁tense	-10.1948
▁norwegian	-10.196
▁disruptions	-10.1968
▁believes	-10.1971
▁machining	-10.1979
▁chinalco	-10.1981
▁coast	-10.1984
▁welding	-10.1985
▁identified	-10.1996
▁deputy	-10.1997
▁engineers	-10.2002
▁learn	-10.2003
▁applied	-10.2015
▁revised	-10.2015
▁49	-10.2028
▁organisations	-10.2029
▁winter	-10.2033
▁intelligence	-10.2033
▁station	-10.2035
▁class	-10.2044
▁inside	-10.2047
led	-10.2062
▁left	-10.2069
▁testament	-10.2069
▁capable	-10.2071
▁manage	-10.2077
▁4,000	-10.2081
▁announce	-10.2085
▁quite	-10.2088
▁durable	-10.2105
▁poland	-10.2106
▁restart	-10.211
▁motors	-10.2115
▁hydropower	-10.2124
▁heart	-10.2128
llowing	-10.2138
▁nespresso	-10.2144
▁managed	-10.2153
▁commissioned	-10.2155
▁architecture	-10.2162
▁summer	-10.2162
▁lease	-10.2171
▁pacific	-10.2177
▁sellers	-10.2177
▁aleris	-10.218
▁extraction	-10.2181
▁tech	-10.2183
▁watch	-10.2186
▁capability	-10.2199
▁qatar	-10.2199
▁heating	-10.2201
▁risen	-10.2207
▁widely	-10.2207
▁covers	-10.2216
▁indicated	-10.2222
▁letter	-10.2237
▁soda	-10.224
▁things	-10.2248
▁optimistic	-10.2255
▁14,	-10.2274
▁introduction	-10.2274
▁san	-10.2278
life	-10.2302
▁formed	-10.2303
ia	-10.2313
▁frames	-10.2315
▁evolving	-10.2316
user	-10.2329
]	-10.233
▁welcome	-10.2344
▁silver	-10.2346
long	-10.2347
▁43	-10.2348
▁belgium	-10.2349
▁24,	-10.2352
▁coils	-10.2381
▁saying	-10.2381
▁became	-10.2387
▁bodies	-10.2388
▁serving	-10.2389
▁covering	-10.2404
▁commence	-10.242
ter	-10.2422
▁21,	-10.2427
na	-10.2442
▁39	-10.2443
▁semis	-10.2444
▁fleet	-10.2448
▁cooling	-10.2453
one	-10.2457
est	-10.2462
▁exploring	-10.2463
▁bottom	-10.2464
▁titanium	-10.2464
100	-10.2475
▁party	-10.2481
▁leveraging	-10.2483
▁9,	-10.2491
▁discuss	-10.2493
▁me	-10.2495
▁spent	-10.2502
▁46	-10.2509
▁kept	-10.252
▁washington	-10.252
▁interior	-10.2525
alumina	-10.2526
▁proven	-10.2541
▁17,	-10.2541
▁doing	-10.2541
▁virtually	-10.2542
▁engaged	-10.2545
▁buildings	-10.2555
▁carry	-10.2555
▁volatility	-10.2559
▁dividend	-10.2566
▁geopolitical	-10.2578
▁professionals	-10.2579
▁marginal	-10.2579
▁7,	-10.2591
▁placed	-10.2596
ra	-10.2599
▁dry	-10.2603
▁image	-10.2604
▁euro	-10.2605
95	-10.2606
can	-10.2607
▁trial	-10.2611
▁yacht	-10.262
▁priority	-10.2638
65	-10.2643
▁chair	-10.2646
da	-10.2654
▁km	-10.2657
ai	-10.2658
▁slower	-10.2659
88	-10.2659
▁evs	-10.2665
▁vessels	-10.2675
47	-10.2677
made	-10.2681
▁problem	-10.2683
▁mass	-10.2686
▁forest	-10.2709
▁auction	-10.2711
▁8,	-10.2714
▁powered	-10.2716
ll	-10.2726
▁ease	-10.2729
▁apart	-10.273
▁heavily	-10.2734
▁law	-10.2736
▁pot	-10.2742
▁weather	-10.2775
▁rexam	-10.2775
▁score	-10.2775
▁table	-10.2781
▁direction	-10.2781
▁consider	-10.2786
▁allowed	-10.2793
▁engagement	-10.2793
▁kind	-10.2796
▁wider	-10.2838
▁5%	-10.2848
▁jump	-10.2852
▁quoted	-10.2853
▁excess	-10.2853
▁suspension	-10.2863
▁plays	-10.2865
▁circularity	-10.2874
▁reliance	-10.2878
▁closures	-10.2879
▁cater	-10.2889
▁promising	-10.2892
▁160	-10.2912
▁bulk	-10.2913
85	-10.2913
▁employs	-10.2915
▁mechanism	-10.2924
▁normal	-10.293
▁conduct	-10.2936
▁retain	-10.2943
ne	-10.2945
▁easily	-10.2952
▁prestigious	-10.2953
▁border	-10.2953
▁greece	-10.2953
▁23,	-10.2953
99	-10.2953
▁bay	-10.2954
be	-10.2955
▁warehouse	-10.2966
▁85	-10.2968
▁transparency	-10.2972
back	-10.2975
there	-10.2978
27	-10.2979
▁trust	-10.2982
▁li	-10.2983
▁proportion	-10.2991
▁sees	-10.2991
tax	-10.2992
▁culture	-10.2994
▁registering	-10.2994
▁22,	-10.2995
▁gcc	-10.2995
▁game	-10.2999
▁turning	-10.3014
▁pure	-10.3028
▁studies	-10.3033
▁everything	-10.3033
▁filing	-10.3034
▁plc	-10.3035
making	-10.3036
value	-10.3036
tonnes	-10.3037
▁taxes	-10.3038
▁demonstrate	-10.3039
▁mills	-10.3046
▁granted	-10.3047
▁destinations	-10.3054
▁nonferrous	-10.3059
▁41	-10.3063
▁contributes	-10.3066
▁french	-10.3074
▁bhd	-10.3075
demand	-10.3081
shfe	-10.3081
▁students	-10.3084
▁craft	-10.3085
▁breakthrough	-10.3088
▁military	-10.3094
▁asked	-10.3116
▁signing	-10.3134
▁shifting	-10.3135
▁host	-10.3135
▁soft	-10.3138
68	-10.3142
▁smooth	-10.3148
▁reliability	-10.3155
effective	-10.3159
▁river	-10.3172
▁highs	-10.3174
▁macro	-10.3177
▁completely	-10.3186
▁electronic	-10.3191
▁iceland	-10.3196
▁$3	-10.3197
▁suggest	-10.32
▁intends	-10.3206
ary	-10.3211
▁26,	-10.3213
ad	-10.3215
▁premier	-10.3219
▁italian	-10.322
▁operators	-10.3222
magazine	-10.3229
▁180	-10.3235
▁27,	-10.326
▁estimate	-10.3269
▁seek	-10.3271
▁automobiles	-10.3271
date	-10.3272
▁3.5	-10.3275
▁slowdown	-10.3279
▁portion	-10.3286
▁se	-10.3298
▁specialist	-10.3302
53	-10.3314
▁jointly	-10.3315
▁requirement	-10.3318
▁centres	-10.332
▁southeast	-10.3323
▁roll	-10.3325
▁changing	-10.3336
market	-10.3341
▁taweelah	-10.3342
▁gone	-10.3343
▁20,000	-10.3355
▁safeguard	-10.3357
▁housing	-10.336
▁emphasised	-10.337
▁visitors	-10.3371
▁resume	-10.3374
▁pioneering	-10.3377
▁positioned	-10.3379
▁finishing	-10.3389
▁:	-10.3392
▁load	-10.3402
▁cagr	-10.3408
▁51	-10.3412
▁counts	-10.3421
nd	-10.3425
▁professional	-10.3425
▁rear	-10.3427
▁29,	-10.3428
▁[	-10.3428
▁claimed	-10.3431
ni	-10.3433
▁importer	-10.3435
▁programs	-10.344
ity	-10.3444
▁taiwan	-10.3446
ev	-10.345
▁construct	-10.3453
▁got	-10.3458
▁education	-10.346
▁wish	-10.3466
▁hence	-10.3469
▁store	-10.3501
▁roof	-10.3507
▁molten	-10.3509
▁broad	-10.3512
▁goes	-10.3514
41	-10.3519
third	-10.3519
▁read	-10.352
▁pv	-10.3523
▁gw	-10.3525
rs	-10.3526
▁served	-10.3528
▁62	-10.3528
▁personal	-10.3529
▁crafted	-10.3544
▁rely	-10.3548
▁laboratory	-10.3551
▁prospects	-10.3565
▁simple	-10.3571
strength	-10.3572
▁cases	-10.3572
▁batch	-10.3573
▁relations	-10.3573
▁brazilian	-10.3575
▁continuously	-10.3581
▁gaining	-10.3593
▁software	-10.3594
▁underlying	-10.3595
▁emerged	-10.3597
▁possibility	-10.3615
▁appointment	-10.3617
▁reasons	-10.363
▁involves	-10.3631
▁tesla	-10.3637
▁targeted	-10.3638
▁island	-10.3638
▁pick	-10.3648
▁owns	-10.3655
▁marginally	-10.3662
▁announces	-10.3665
▁shaping	-10.3682
▁filed	-10.3682
▁encouraging	-10.3702
▁pods	-10.3702
▁currency	-10.3703
▁delivers	-10.3703
11	-10.3703
▁hikes	-10.3708
▁beverages	-10.3721
▁generating	-10.3726
▁architects	-10.3744
▁sweden	-10.3745
▁abx	-10.375
▁skills	-10.3751
level	-10.3755
▁1.1	-10.3761
▁trains	-10.3764
▁romania	-10.3765
▁agarwal	-10.3767
▁delhi	-10.3775
speed	-10.3777
ness	-10.3778
▁adjustment	-10.3793
▁let	-10.3793
▁learned	-10.3802
inch	-10.3803
-150	-10.3803
▁register	-10.3803
▁paul	-10.3805
ti	-10.3807
▁multinational	-10.3811
▁pipes	-10.3812
4,000	-10.3812
ta	-10.3812
▁metres	-10.3818
▁jan	-10.3821
il	-10.3822
▁headquarters	-10.3826
leading	-10.3827
▁concrete	-10.3832
▁magnesium	-10.3836
▁shredded	-10.3854
▁zhongwang	-10.3854
86	-10.3855
▁scenario	-10.386
▁1%	-10.3873
▁forefront	-10.3876
cola	-10.3877
▁purchased	-10.3878
▁ultimately	-10.3879
metal	-10.3887
▁entering	-10.3889
▁coca	-10.3893
▁pet	-10.3894
▁attractive	-10.3898
▁jaguar	-10.3899
site	-10.3901
▁consistently	-10.3903
▁engines	-10.391
▁wires	-10.3917
showcasing	-10.392
▁subsidies	-10.3921
▁automated	-10.3923
▁linked	-10.3942
▁coil	-10.3959
▁complement	-10.3964
▁medical	-10.3966
less	-10.3971
▁interview	-10.3971
▁1.3	-10.3977
▁entirely	-10.398
▁fed	-10.3985
▁temporary	-10.3987
▁understand	-10.3993
▁advancement	-10.3995
aimed	-10.4002
▁petroleum	-10.401
▁observed	-10.4012
▁2013	-10.4025
introducing	-10.4031
▁6,000	-10.404
▁influence	-10.4045
▁except	-10.4053
▁era	-10.4054
▁daij	-10.4054
▁halted	-10.4064
▁participate	-10.4069
▁interests	-10.4071
▁urged	-10.4079
▁sizes	-10.408
▁la	-10.4094
▁collaborative	-10.4096
▁falls	-10.4104
▁bullish	-10.4109
ising	-10.4109
▁tube	-10.4114
ment	-10.4116
▁khalifa	-10.4122
▁predicted	-10.4127
▁boat	-10.413
▁yield	-10.4144
▁minimum	-10.4144
▁diversified	-10.4144
▁(99.99%	-10.4145
▁modules	-10.4152
la	-10.4153
▁saturday	-10.4166
▁exceeding	-10.4176
▁52	-10.4177
▁closer	-10.4193
▁56	-10.4196
energy	-10.4201
▁20,	-10.4202
▁30%	-10.4204
▁reinforce	-10.4204
▁hands	-10.4205
▁positioning	-10.4212
▁yearly	-10.4218
▁floor	-10.4223
▁thereby	-10.4224
▁sustain	-10.4229
66	-10.423
▁driver	-10.4237
ever	-10.4237
-20	-10.4238
powered	-10.4245
air	-10.4251
no	-10.4253
▁170	-10.4256
▁coronavirus	-10.4258
▁arrivals	-10.4274
▁feedstock	-10.428
▁factories	-10.428
▁memorandum	-10.428
ri	-10.4298
▁232	-10.4302
▁communication	-10.4316
▁techniques	-10.4318
▁values	-10.4334
▁dispute	-10.434
▁cbam	-10.4342
▁minor	-10.4349
▁solomon	-10.4349
▁empower	-10.435
▁becomes	-10.4371
▁immediately	-10.4377
▁bridge	-10.439
▁20%	-10.4393
▁dioxide	-10.4395
350	-10.4398
▁2030,	-10.4402
generation	-10.4407
▁wood	-10.4408
▁2050	-10.4408
▁1.6	-10.441
200	-10.4418
▁toyota	-10.4419
▁southwest	-10.442
▁cif	-10.4422
▁earned	-10.4424
▁learning	-10.4428
▁sustained	-10.443
▁engineered	-10.4432
rd	-10.4443
▁assist	-10.4456
▁practice	-10.4463
▁57	-10.4464
▁something	-10.4465
▁focuses	-10.4478
▁playing	-10.4478
▁minimal	-10.448
ac	-10.4487
▁roadmap	-10.4489
▁fossil	-10.449
▁sole	-10.4495
▁presently	-10.4501
▁discussion	-10.4506
▁federation	-10.4513
▁cladding	-10.4513
▁receiving	-10.4513
▁gfg	-10.4514
▁dumping	-10.4516
▁64	-10.4517
season	-10.4526
loop	-10.4527
amidst	-10.4527
▁combine	-10.4528
▁casthouse	-10.4531
▁egypt	-10.4536
▁airbus	-10.4538
rmb	-10.4543
▁reveals	-10.4549
▁contractors	-10.4556
▁operated	-10.4556
▁covered	-10.4556
▁weigh	-10.4558
▁nanhai	-10.4559
▁singapore	-10.4559
▁vast	-10.4559
▁town	-10.456
▁basic	-10.456
me	-10.4563
▁schedule	-10.4568
▁win	-10.4568
▁$4	-10.4569
▁occurred	-10.4583
run	-10.4584
▁tiwai	-10.4585
profit	-10.4594
▁30,000	-10.4595
▁moves	-10.4595
▁forced	-10.4597
▁obtain	-10.4598
▁scientific	-10.4607
▁forms	-10.4614
▁scandium	-10.4615
east	-10.4619
▁problems	-10.462
▁locally	-10.4622
▁consultation	-10.4624
▁man	-10.4624
▁agenda	-10.463
▁mobile	-10.4631
▁cheaper	-10.4632
▁returns	-10.4634
▁chand	-10.4636
▁rich	-10.4644
44	-10.4656
▁begun	-10.4656
▁analysed	-10.4656
▁interim	-10.4678
▁story	-10.4681
▁coke	-10.4681
▁attract	-10.4683
▁58	-10.4697
▁micro	-10.4699
▁spokesperson	-10.4701
▁resumption	-10.4702
▁looks	-10.4706
▁informed	-10.471
▁1,500	-10.4717
▁avoid	-10.4722
▁totalling	-10.4731
▁2026.	-10.474
▁please	-10.4744
▁54	-10.4747
▁employee	-10.4748
▁relief	-10.4751
▁gupta	-10.4751
▁blue	-10.4752
▁employ	-10.4755
▁putt	-10.476
▁1.4	-10.4762
▁idea	-10.4768
▁pushing	-10.4771
▁turned	-10.4772
▁intensity	-10.4774
▁establishment	-10.4774
▁speaking	-10.4783
▁cleaner	-10.4788
▁lb	-10.4791
▁calendar	-10.4797
▁expensive	-10.4797
▁conservation	-10.4798
▁residential	-10.4798
49	-10.4809
TM	-10.4811
▁remove	-10.4811
▁entities	-10.4821
▁pradesh	-10.4821
▁curtain	-10.4822
▁women	-10.4823
▁fifth	-10.4825
▁escalated	-10.4825
▁unveil	-10.4825
▁100,000	-10.4828
▁assess	-10.4833
▁miner	-10.484
▁practical	-10.4842
▁threat	-10.4843
land	-10.4846
▁true	-10.4847
▁ash	-10.485
▁miss	-10.4854
▁profitable	-10.4855
▁2%	-10.4856
▁$5	-10.4868
▁sought	-10.487
▁audi	-10.488
▁loop	-10.488
▁deals	-10.4882
▁constructed	-10.4883
▁mtpa	-10.4888
▁offshore	-10.4894
▁replacing	-10.4895
▁1.8	-10.4902
▁tensions	-10.4906
▁contributions	-10.4906
▁quick	-10.4914
▁bus	-10.4915
▁sun	-10.4932
▁categories	-10.4943
36	-10.496
▁cameroon	-10.4968
▁preferred	-10.4968
▁lighting	-10.4983
▁experiencing	-10.4992
▁replacement	-10.4993
▁inner	-10.5
▁lifted	-10.5002
et	-10.5002
▁specialised	-10.5004
▁request	-10.5006
▁volatile	-10.5018
▁never	-10.5018
▁sessions	-10.5027
growth	-10.5034
39	-10.5043
▁forces	-10.5043
▁recyclers	-10.5044
▁aligned	-10.5049
▁aspects	-10.506
▁trajectory	-10.5067
▁considerable	-10.5068
▁fluctuations	-10.5069
▁reuse	-10.5081
aluminum	-10.5083
wa	-10.5086
▁350	-10.5087
▁czech	-10.5091
▁governments	-10.5092
▁rangebound	-10.5097
▁reality	-10.5097
$15	-10.5106
93	-10.5108
▁david	-10.5116
▁wholly	-10.5116
▁festival	-10.5117
▁outcome	-10.5117
▁rover	-10.5119
▁extends	-10.5121
▁repair	-10.5133
▁caustic	-10.5141
▁michael	-10.5142
▁uc	-10.5144
▁notice	-10.5161
▁minim	-10.5165
▁reputation	-10.5166
▁forged	-10.5172
▁shop	-10.5173
▁boeing	-10.5193
▁recording	-10.5194
37	-10.5198
▁trying	-10.5202
▁4%	-10.5203
liquid	-10.5208
▁slump	-10.5209
▁biodiversity	-10.5217
▁political	-10.5222
▁affairs	-10.5231
▁perspective	-10.5244
▁representative	-10.5245
▁compact	-10.5245
low	-10.5245
▁extruders	-10.5246
▁celebrate	-10.526
▁adjustments	-10.5261
▁ro	-10.5261
side	-10.5262
▁hopes	-10.5263
▁alu	-10.5265
▁demonstrating	-10.5267
▁urban	-10.5268
▁bold	-10.5272
▁commenced	-10.5277
64	-10.5277
=	-10.5284
▁3%	-10.5284
ha	-10.5291
▁kalban	-10.5292
▁promotion	-10.5292
▁submitted	-10.5293
▁powerful	-10.5296
india	-10.5309
▁mind	-10.5318
▁graph	-10.5324
▁banks	-10.5334
▁faces	-10.5335
▁eliminate	-10.5336
iai	-10.5342
▁execution	-10.5343
▁fundamental	-10.5345
▁sohar	-10.5346
▁saving	-10.5346
▁domestically	-10.5347
▁internationally	-10.5348
▁cathode	-10.5348
▁72	-10.5348
▁cru	-10.535
(	-10.5361
mw	-10.5363
▁25,	-10.5363
89	-10.5368
▁500,000	-10.5372
▁malaysian	-10.538
power	-10.5399
▁pattern	-10.54
▁laser	-10.5401
▁28.	-10.5403
▁shed	-10.5406
▁individuals	-10.5408
▁stations	-10.5422
77	-10.5428
▁59	-10.5429
▁wave	-10.5435
▁expenses	-10.5444
▁specifications	-10.5466
▁53	-10.5467
▁young	-10.547
▁listing	-10.547
▁causing	-10.5471
▁switzerland	-10.5472
▁entry	-10.5473
▁tim	-10.5473
▁leads	-10.5475
▁boosted	-10.5476
▁97	-10.5484
▁appeal	-10.5494
▁sleek	-10.5495
▁pack	-10.5495
▁proprietary	-10.5497
▁truly	-10.5497
▁groundbreaking	-10.5497
▁restraint	-10.5498
▁25%	-10.5502
▁seeks	-10.5504
▁intended	-10.5504
%	-10.5513
isation	-10.5516
ian	-10.5517
lo	-10.5518
▁collect	-10.552
▁subsequent	-10.552
▁sign	-10.5522
▁unwavering	-10.5523
▁electrolysis	-10.5523
▁2020”	-10.5524
▁reynaers	-10.5524
▁wait	-10.5534
▁element	-10.5538
▁findings	-10.5546
▁rises	-10.5549
▁anodes	-10.5552
▁layer	-10.5552
▁ambition	-10.5556
▁66	-10.5561
including	-10.5568
▁numbers	-10.5568
▁reverse	-10.557
▁constant	-10.5572
▁install	-10.5574
▁principal	-10.5576
▁strike	-10.5582
▁shutdown	-10.5583
▁enjoy	-10.5589
▁los	-10.559
▁winning	-10.5592
ry	-10.5614
▁electrification	-10.5628
▁oems	-10.5628
▁engage	-10.5628
▁surrounding	-10.5639
ised	-10.5641
▁tests	-10.5641
▁counter	-10.565
▁cheap	-10.5651
▁exterior	-10.5653
▁bags	-10.5654
▁iranian	-10.5654
▁identify	-10.5655
▁payment	-10.5665
▁(99.996%)	-10.568
▁leaving	-10.568
▁steadily	-10.568
▁700	-10.5684
inr	-10.5691
38	-10.5693
▁adopt	-10.5697
▁grades	-10.5706
▁levy	-10.5706
▁securities	-10.5706
▁resilient	-10.5707
sized	-10.5722
▁importers	-10.5722
first	-10.5726
▁artificial	-10.573
▁assurance	-10.5732
▁integrating	-10.5733
▁straight	-10.5733
▁curb	-10.5733
▁characteristics	-10.5734
▁elevated	-10.5737
▁50,000	-10.5746
▁handle	-10.5752
▁poor	-10.5756
▁consortium	-10.5759
▁photovoltaic	-10.5759
▁xinjiang	-10.5759
▁programmes	-10.576
▁tested	-10.5767
31	-10.5767
▁resumed	-10.5769
gen	-10.5773
▁feel	-10.5773
▁connect	-10.5778
▁sure	-10.5785
▁represent	-10.5788
▁rolls	-10.5791
▁10-	-10.5796
down	-10.58
57	-10.5804
▁apply	-10.5812
▁organised	-10.5815
▁rally	-10.5815
▁guarantee	-10.5816
48	-10.5822
▁permanent	-10.5837
may	-10.584
▁viable	-10.5841
▁6-7	-10.5843
▁arrive	-10.5843
▁platts	-10.5849
▁railways	-10.585
▁offerings	-10.5858
▁$10	-10.5863
97	-10.5872
▁govt	-10.5872
▁determined	-10.5876
▁spring	-10.5881
▁healthy	-10.5882
▁comprises	-10.5889
▁virtual	-10.5892
▁living	-10.5894
▁strategically	-10.5895
▁patent	-10.5897
do	-10.5901
cast	-10.5907
september	-10.5913
▁collective	-10.5917
▁serious	-10.5917
▁similarly	-10.593
▁meters	-10.5957
fy	-10.5968
▁predicts	-10.5969
▁regular	-10.5971
▁sufficient	-10.5978
▁sri	-10.5982
▁disruption	-10.599
bn	-10.5993
▁indirect	-10.6
▁send	-10.6006
▁damage	-10.6008
▁jean	-10.6009
▁lowered	-10.6013
▁affecting	-10.6015
▁master	-10.6017
▁congratulate	-10.6021
▁easier	-10.6028
▁thrill	-10.6028
▁wales	-10.6036
▁measure	-10.6038
▁collaborate	-10.6038
▁presentation	-10.6046
81	-10.605
▁outbreak	-10.6056
67	-10.6067
▁obtained	-10.6068
▁merger	-10.6071
li	-10.6077
scended	-10.6081
74	-10.6082
▁overcapacity	-10.6088
▁scientists	-10.6095
▁parliament	-10.6095
bound	-10.6096
world	-10.6104
▁stream	-10.6113
▁strengthened	-10.6121
▁substantially	-10.6123
▁2026,	-10.6132
▁landfill	-10.6134
▁indigenous	-10.6135
-14	-10.6139
▁heightened	-10.6141
▁monitor	-10.6147
▁module	-10.6157
▁respect	-10.6159
▁dust	-10.6166
▁tailored	-10.6169
▁contact	-10.6173
▁targeting	-10.6177
▁wants	-10.6184
▁ge	-10.619
▁cautious	-10.619
▁utility	-10.6194
▁thin	-10.6195
▁refined	-10.6197
▁approvals	-10.6205
▁coatings	-10.6207
▁ghg	-10.6209
46	-10.6211
▁chamber	-10.6213
▁unlikely	-10.6224
▁200,000	-10.6227
▁efficiently	-10.6235
▁certifications	-10.6238
electric	-10.6238
▁estate	-10.625
▁minimise	-10.6254
eu	-10.6259
▁changed	-10.6261
▁entity	-10.6277
▁trillion	-10.6278
▁baqali	-10.6278
▁everyone	-10.6281
▁conductors	-10.6285
▁800	-10.6289
▁vertical	-10.6294
▁operator	-10.6298
▁hall	-10.6303
▁evaluation	-10.6306
▁fees	-10.6317
▁purchases	-10.6323
▁façade	-10.6323
05	-10.6324
▁inspection	-10.6325
march	-10.6332
,000	-10.6333
▁temperatures	-10.6333
▁restructuring	-10.6333
▁ii	-10.6337
▁canned	-10.6338
▁300,000	-10.6338
▁connection	-10.6354
98	-10.6361
▁achievements	-10.6361
▁coaches	-10.6362
▁iphone	-10.6362
▁ideas	-10.6366
▁con	-10.6372
tic	-10.6373
▁ships	-10.6375
▁optimise	-10.6382
▁2,500	-10.6387
▁situated	-10.6389
▁parent	-10.639
▁affordable	-10.639
▁failed	-10.6392
▁enhances	-10.6393
▁67	-10.6407
▁74	-10.6407
▁strongly	-10.641
▁engineer	-10.6412
300	-10.6416
▁fluctuating	-10.6418
▁modest	-10.6419
▁fixed	-10.6421
▁notes	-10.6425
▁institutions	-10.6439
bauxite	-10.6441
▁reinforcing	-10.6446
▁removal	-10.6448
▁wto	-10.6451
▁recognized	-10.6451
▁68	-10.6461
▁tender	-10.6463
▁creates	-10.6464
june	-10.6471
96	-10.6472
▁quantity	-10.6474
▁aditya	-10.6475
▁mercedes	-10.6476
▁<	-10.6477
mou	-10.6478
▁roles	-10.6483
cl	-10.6494
▁lift	-10.6494
▁professor	-10.6503
▁iconic	-10.6504
▁incentives	-10.651
▁63	-10.6519
▁10,	-10.6519
▁drivers	-10.652
▁utilised	-10.6521
54	-10.6536
▁strive	-10.6538
priced	-10.6545
▁fluctuate	-10.6553
▁ram	-10.6561
▁comprising	-10.6561
▁conversion	-10.6561
▁extreme	-10.6561
▁accelerating	-10.6562
▁guinean	-10.6563
▁paris	-10.6581
▁mitigate	-10.6584
▁citing	-10.6589
▁simultaneously	-10.659
▁star	-10.659
▁pmi	-10.6591
▁leap	-10.6591
▁weakened	-10.6594
▁density	-10.6594
▁meaning	-10.6607
▁chance	-10.6614
▁ubc	-10.6617
ba	-10.6618
way	-10.662
▁attended	-10.6622
▁seems	-10.6622
▁importing	-10.6624
he	-10.6627
94	-10.6637
.5/	-10.6637
▁regard	-10.6641
▁constraints	-10.6645
▁26.	-10.6646
▁commitments	-10.6646
▁inalum	-10.665
ie	-10.6662
▁bolster	-10.6671
79	-10.6671
▁congress	-10.6676
▁assistance	-10.6676
▁phone	-10.6682
▁14,000	-10.6685
▁aligning	-10.669
▁severe	-10.6701
hydro	-10.6702
▁seamless	-10.6703
92	-10.6703
▁regulation	-10.6704
▁confirms	-10.6718
um	-10.6722
▁sand	-10.6725
▁cumulative	-10.6731
▁ocean	-10.6734
▁street	-10.6734
▁settling	-10.6735
▁martap	-10.674
▁peter	-10.6744
wide	-10.6745
▁transforming	-10.6746
▁patented	-10.6747
▁quarters	-10.6747
ga	-10.6748
▁12,000	-10.6752
di	-10.6759
▁stringent	-10.6764
▁argentina	-10.6765
▁utilis	-10.6777
▁flows	-10.678
▁expands	-10.6785
incorporating	-10.6793
ca	-10.6793
▁98	-10.6794
▁manganese	-10.6795
▁signals	-10.6799
▁runs	-10.6806
all	-10.6808
▁connected	-10.6809
▁stages	-10.681
▁chris	-10.6814
▁plastics	-10.6817
▁nigeria	-10.682
▁significance	-10.6823
▁conglomerate	-10.6823
▁organic	-10.6824
hpa	-10.6827
▁processors	-10.6832
34	-10.6832
▁indonesian	-10.6837
▁question	-10.684
▁fine	-10.6841
▁wet	-10.6852
▁fuels	-10.6852
▁fastest	-10.6853
▁stainless	-10.6854
▁11.	-10.6855
▁wealth	-10.6855
▁underway	-10.6857
▁6%	-10.6863
▁loading	-10.6864
",	-10.6869
,900	-10.6878
▁adopting	-10.6879
▁liquidity	-10.6883
▁intelligent	-10.6883
▁potline	-10.6885
▁wa	-10.6895
▁select	-10.69
76	-10.691
▁fibre	-10.691
▁unfair	-10.6911
▁context	-10.6912
▁birla	-10.6912
▁conflict	-10.6912
▁sense	-10.6915
▁capacitors	-10.6924
▁exhibitors	-10.6928
▁specially	-10.6929
▁240	-10.6932
▁ambitions	-10.6933
▁california	-10.6943
▁coalition	-10.6943
▁played	-10.6947
59	-10.6949
▁96	-10.6957
▁favour	-10.696
▁legacy	-10.6972
▁client	-10.6974
▁jv	-10.6977
▁importation	-10.6982
▁degree	-10.6983
ch	-10.6984
▁charges	-10.6989
ul	-10.6999
▁fiona	-10.7002
▁specialty	-10.7003
▁selection	-10.7003
▁launching	-10.7009
▁delegates	-10.7017
▁suggested	-10.7018
$1,8	-10.7019
smm	-10.7021
ce	-10.7022
▁witnessing	-10.7025
▁revolution	-10.7029
▁strict	-10.7029
▁voluntary	-10.7032
▁spanning	-10.7034
▁marketplace	-10.7035
▁%	-10.7038
▁amounting	-10.704
▁15,000	-10.7052
73	-10.7055
▁debut	-10.7055
▁hour	-10.7057
▁shall	-10.7059
▁thousands	-10.706
▁disposal	-10.7063
▁instance	-10.7063
▁bearish	-10.707
age	-10.7073
$2,0	-10.7074
▁bell	-10.7082
▁8.	-10.7083
▁$6	-10.7091
▁feed	-10.7092
▁shortages	-10.7093
▁intraday	-10.7093
▁priced	-10.7094
▁comprise	-10.7096
▁(2022)	-10.7096
▁partnered	-10.7097
▁shapes	-10.7102
▁mom	-10.7102
▁adopted	-10.7105
▁30.	-10.7105
▁strengthens	-10.7106
va	-10.7107
$10	-10.7119
▁evidence	-10.7123
▁diesel	-10.7124
▁qatalum	-10.7125
▁exemption	-10.7127
▁demanding	-10.7128
▁miners	-10.713
sme	-10.7131
".	-10.7146
▁mo	-10.7147
▁format	-10.7149
▁exposure	-10.7153
▁designing	-10.7154
con	-10.7164
▁collaborated	-10.7171
▁keen	-10.7181
▁precise	-10.7181
▁subsidiaries	-10.7184
▁returned	-10.72
fe	-10.7208
▁contains	-10.7208
▁farm	-10.721
▁witness	-10.7212
▁maritime	-10.7215
▁chhattisgarh	-10.7217
▁suspended	-10.7221
▁displayed	-10.7239
▁2012	-10.7244
▁usually	-10.7248
▁designers	-10.7248
▁downturn	-10.725
▁martin	-10.7252
▁skilled	-10.7254
▁fewer	-10.7256
▁procedures	-10.7259
▁spending	-10.7262
press	-10.7263
▁book	-10.7263
ted	-10.7264
▁pressures	-10.7268
▁unlock	-10.7273
▁contain	-10.7275
▁comment	-10.7276
▁eventually	-10.7277
63	-10.728
▁simon	-10.7282
▁5.5	-10.7287
▁style	-10.729
net	-10.7291
$5	-10.7294
ability	-10.7304
▁weipa	-10.7307
▁separation	-10.7307
▁mumbai	-10.7308
▁ytd	-10.7308
▁31.	-10.731
▁pound	-10.7321
▁da	-10.7321
▁express	-10.7323
62	-10.7327
▁hosted	-10.7327
▁print	-10.7335
▁van	-10.7337
▁gujarat	-10.7339
▁alpha	-10.734
▁6063	-10.734
▁contracted	-10.7343
▁purposes	-10.7344
▁behalf	-10.7346
▁upgraded	-10.7353
▁0.5	-10.7359
78	-10.7361
87	-10.7365
0%	-10.7365
▁tan	-10.7366
▁appropriate	-10.7368
▁1.7	-10.7369
▁speakers	-10.7369
▁furniture	-10.737
▁bigger	-10.737
▁unprecedented	-10.737
▁8,000	-10.7372
▁renewed	-10.7373
150	-10.7379
gb	-10.7379
▁bill	-10.7386
▁z	-10.7387
▁emphasis	-10.7392
▁condition	-10.7392
▁fly	-10.7398
▁neutrality	-10.7402
▁alcore	-10.7406
43	-10.7407
▁lies	-10.7409
▁drilling	-10.7409
▁2.4	-10.741
▁honoured	-10.741
▁paint	-10.7411
▁upgrades	-10.7412
▁concerning	-10.7426
▁cleaning	-10.7426
ah	-10.743
waste	-10.743
▁nationwide	-10.7433
▁chosen	-10.7433
▁soil	-10.7439
▁designer	-10.744
▁promises	-10.7443
product	-10.7444
▁ron	-10.7446
ge	-10.7455
▁190	-10.7456
▁sound	-10.7456
import	-10.746
▁unlike	-10.7463
500	-10.7466
▁2.2	-10.7471
▁workshop	-10.7473
▁joins	-10.7474
▁2000	-10.7474
▁2050.	-10.7483
83	-10.7486
69	-10.7499
▁mined	-10.7505
▁relationships	-10.7511
uk	-10.7523
▁steep	-10.7525
▁creative	-10.7526
▁stopped	-10.7527
▁pipeline	-10.7527
▁verified	-10.7528
▁7.5	-10.7537
▁cop	-10.7539
450	-10.7545
08	-10.7551
fabricated	-10.7557
▁76	-10.7558
▁rule	-10.7563
sheet	-10.7566
42	-10.7568
▁technique	-10.757
▁exceeded	-10.7579
▁shifts	-10.7583
▁nuclear	-10.759
▁brewing	-10.7598
▁weakening	-10.7601
▁smartphone	-10.7601
▁outdoor	-10.7602
▁7,000	-10.7603
600	-10.7603
▁controlled	-10.7604
▁finding	-10.7607
▁pull	-10.761
▁forming	-10.7613
▁gac	-10.7614
industry	-10.7621
▁app	-10.7622
▁combining	-10.7623
▁greenfield	-10.7624
▁brewery	-10.7624
91	-10.7626
▁perfectly	-10.7629
▁deadline	-10.7632
▁bagged	-10.7654
▁euros	-10.7658
▁drives	-10.7667
▁incident	-10.7667
resistant	-10.7685
old	-10.7687
▁prepare	-10.7693
▁prepared	-10.7695
▁detail	-10.7696
▁compound	-10.7699
▁73	-10.7704
▁pieces	-10.7706
weight	-10.7706
▁narrow	-10.7711
▁formal	-10.7712
▁17.	-10.7714
▁78	-10.7715
51	-10.7718
▁inclusion	-10.7718
▁priorities	-10.7719
▁compete	-10.772
▁muted	-10.7721
▁piece	-10.7723
▁wanted	-10.7729
▁attempt	-10.7732
▁employed	-10.7734
▁articles	-10.7739
33	-10.7739
09	-10.7748
while	-10.7749
▁michigan	-10.7752
ling	-10.7756
▁sharing	-10.7759
alloy	-10.7762
▁pioneer	-10.7763
▁samples	-10.777
▁eye	-10.7777
recycling	-10.7783
▁efficiencies	-10.7783
▁array	-10.7785
84	-10.7788
▁15%	-10.7794
▁welcomed	-10.7796
▁extent	-10.7816
▁versatile	-10.7816
▁widespread	-10.7816
▁changzhou	-10.7816
▁aughinish	-10.7817
▁constantly	-10.782
▁descend	-10.7833
▁220	-10.7837
56	-10.7844
af	-10.7847
▁optimisation	-10.7849
▁manner	-10.7849
▁metallurgy	-10.785
▁updates	-10.786
▁9.	-10.7864
▁230	-10.7865
mo	-10.7871
▁contemporary	-10.7881
founder	-10.7881
▁compensation	-10.7882
▁concentrated	-10.7888
▁indicate	-10.789
im	-10.7908
▁bit	-10.7909
ru	-10.7914
▁utilization	-10.7915
▁zhejiang	-10.7917
pa	-10.792
$2,7	-10.7929
▁interested	-10.7936
$22	-10.7943
▁decreasing	-10.7947
▁volvo	-10.7947
▁thickness	-10.7947
▁accessories	-10.7948
▁oxygen	-10.795
▁incorporated	-10.7956
▁oversupply	-10.7958
▁trader	-10.7964
ir	-10.7965
▁check	-10.7965
▁pots	-10.7966
▁1.	-10.7967
▁upside	-10.7969
these	-10.7973
▁initiate	-10.7976
retaliatory	-10.7981
ft	-10.7984
▁seamlessly	-10.7984
▁meets	-10.7985
km	-10.8007
▁lifting	-10.8008
after	-10.8009
▁starts	-10.801
pack	-10.8011
▁harm	-10.8013
▁proper	-10.8013
▁transparent	-10.8016
▁disclosed	-10.8017
52	-10.8026
▁2018-19	-10.8029
▁ab	-10.8035
▁2.3	-10.8039
▁ventures	-10.8045
▁shrunk	-10.8047
▁transformative	-10.8047
▁surfaces	-10.8047
▁integrity	-10.8048
▁gallium	-10.8048
▁dependence	-10.8049
▁titled	-10.8052
standing	-10.8059
▁composition	-10.8064
▁demonstration	-10.8065
▁di	-10.8067
▁topics	-10.8069
▁career	-10.8069
▁salt	-10.8076
▁illegal	-10.8078
▁club	-10.8079
▁71	-10.808
▁personnel	-10.808
▁hull	-10.8085
▁pursue	-10.8091
▁86	-10.8094
▁occasion	-10.8096
▁usgs	-10.8096
▁mounting	-10.8096
▁arrangement	-10.81
▁spirit	-10.8101
▁mini	-10.8104
▁93	-10.8104
▁rigorous	-10.8111
▁inception	-10.8114
▁imposing	-10.8116
▁accessible	-10.8116
▁confirm	-10.8122
▁commands	-10.8129
▁82	-10.813
▁printed	-10.8134
▁proactive	-10.8145
how	-10.8147
▁preparing	-10.8148
▁weiqiao	-10.8148
▁evolution	-10.8148
benz	-10.8148
▁dwindled	-10.8149
▁injury	-10.8149
▁hulamin	-10.8149
▁orbite	-10.8149
▁anticipates	-10.8152
▁claim	-10.8167
volving	-10.8171
products	-10.8172
▁code	-10.8177
mp	-10.8178
250	-10.8179
▁comfort	-10.818
▁stockpiling	-10.8181
▁hungary	-10.8181
▁refractory	-10.8182
▁exhibit	-10.819
supply	-10.8207
▁4.5	-10.8211
▁7.	-10.8215
▁mongolia	-10.8215
▁6.	-10.8222
400	-10.8224
▁landfills	-10.8228
▁funded	-10.8232
bo	-10.8233
▁delay	-10.8236
▁6.5	-10.8237
▁providers	-10.8238
▁tracking	-10.8242
▁camera	-10.8242
▁deripaska	-10.8249
water	-10.8249
neutral	-10.825
▁tomra	-10.8251
focused	-10.8253
▁represented	-10.8265
▁presents	-10.8265
but	-10.8266
▁holidays	-10.8268
▁kilometres	-10.8268
▁€	-10.8268
▁77	-10.8271
▁automaker	-10.8272
▁125	-10.8282
▁guyana	-10.8284
▁easing	-10.8285
ty	-10.8292
▁suv	-10.8302
▁reductions	-10.8311
▁slowed	-10.8312
▁governor	-10.8318
▁automatic	-10.832
▁84	-10.8325
▁respective	-10.8326
▁coc	-10.8328
▁intention	-10.833
▁license	-10.8334
▁richard	-10.834
▁picture	-10.8348
▁tensile	-10.8352
▁possibilities	-10.8352
▁tomorrow	-10.8353
▁3.3	-10.8364
ization	-10.8366
▁route	-10.8381
▁themselves	-10.8386
▁theme	-10.8387
▁acquiring	-10.8387
▁laid	-10.8388
▁hundreds	-10.839
ley	-10.839
▁vote	-10.8405
▁discussed	-10.8407
▁steve	-10.8418
▁dollars	-10.842
▁exception	-10.8421
▁diversification	-10.8421
▁territory	-10.8421
▁gladstone	-10.8423
▁speira	-10.8423
growing	-10.8428
▁calls	-10.8429
▁combat	-10.843
▁22.	-10.8435
emission	-10.844
▁kilogram	-10.8445
▁beneficial	-10.8456
▁choose	-10.8456
▁empty	-10.8456
▁nanchang	-10.8456
▁temporarily	-10.8456
▁69	-10.8456
▁bought	-10.8456
▁comparable	-10.8457
▁consulting	-10.8459
▁doesn	-10.8464
▁29.	-10.8465
vi	-10.8467
▁king	-10.8473
▁origin	-10.8475
▁acting	-10.8477
▁robert	-10.8481
▁salman	-10.8491
december	-10.8493
▁blend	-10.8495
▁colours	-10.8503
▁fields	-10.8506
▁reside	-10.8516
▁el	-10.8521
▁27.	-10.8524
▁placement	-10.853
▁resolution	-10.8532
▁places	-10.8533
▁soaring	-10.8537
61	-10.8543
▁reform	-10.8547
01	-10.8551
▁emphasising	-10.8553
▁partly	-10.8554
▁leave	-10.8555
▁happy	-10.8561
▁tandem	-10.8561
▁xinfa	-10.8561
▁consequently	-10.8561
europe	-10.8562
▁protecting	-10.8562
▁match	-10.8563
ting	-10.8577
▁tour	-10.858
▁collaborat	-10.8581
▁prompt	-10.8582
▁+	-10.8585
▁doubled	-10.8592
▁sms	-10.8596
▁emergency	-10.8596
▁simply	-10.8596
▁navigate	-10.8596
▁recovering	-10.8609
▁99	-10.8609
▁2018-20	-10.8609
▁eased	-10.861
▁amounts	-10.8623
▁16.	-10.8625
▁tin	-10.8626
▁lightweighting	-10.8629
▁circal	-10.8632
▁tomago	-10.8633
▁24.	-10.8637
▁signal	-10.8637
▁210	-10.8668
360	-10.8682
▁curtail	-10.8693
58	-10.8696
▁consideration	-10.8697
$7	-10.8697
▁pillars	-10.8699
▁0	-10.8701
▁cup	-10.8702
▁atmosphere	-10.8702
▁families	-10.8702
▁requiring	-10.8702
▁angul	-10.8705
▁dependent	-10.8708
▁guidelines	-10.8713
▁executives	-10.8714
▁requested	-10.8718
▁honour	-10.8734
▁receives	-10.8736
▁historic	-10.8737
attributable	-10.8738
▁shrank	-10.8738
380	-10.8738
hitting	-10.874
▁subsequently	-10.8742
-23	-10.8745
▁12.	-10.8747
▁iso	-10.8747
▁developer	-10.8747
▁pressing	-10.8752
▁inter	-10.8755
▁respond	-10.8768
▁sensor	-10.877
▁race	-10.8772
▁destocking	-10.8774
▁texas	-10.8774
▁treasury	-10.8774
▁jamalco	-10.8775
▁scotland	-10.8775
▁pai	-10.8776
ant	-10.8777
▁ebit	-10.8778
▁nearby	-10.8782
▁clearly	-10.8789
▁br	-10.8791
▁seem	-10.8799
▁2.8	-10.8803
▁responsibly	-10.881
▁sophisticated	-10.881
▁conductivity	-10.8812
▁/	-10.8812
▁plug	-10.8812
temperature	-10.8813
ingot	-10.8814
ko	-10.8818
▁passed	-10.882
07	-10.8824
800	-10.8836
▁networking	-10.8842
ive	-10.8843
▁chapter	-10.8846
▁utkal	-10.8846
▁murray	-10.8846
▁andhra	-10.8847
▁ohio	-10.8847
metre	-10.8851
▁60%	-10.8852
▁ad	-10.8855
▁rigid	-10.8855
▁lives	-10.8869
▁determine	-10.8871
▁bond	-10.8872
▁2032	-10.8876
ner	-10.8877
▁94	-10.8881
▁shaikh	-10.8882
▁forthcoming	-10.8882
▁feet	-10.8891
▁boats	-10.8903
▁removed	-10.8903
▁permits	-10.8913
▁destination	-10.8916
▁branch	-10.8917
▁summary	-10.8919
▁inaugurated	-10.8921
spired	-10.8922
light	-10.8924
▁80%	-10.8926
▁recycler	-10.8926
▁influenced	-10.8931
▁draw	-10.8931
pe	-10.8932
▁attendees	-10.8935
▁suit	-10.8936
▁drawing	-10.8943
ho	-10.8947
ally	-10.895
▁ecological	-10.8952
,500	-10.8955
▁stopping	-10.8955
$20	-10.8973
▁twin	-10.8991
▁enforcement	-10.8992
▁renewables	-10.9006
▁encouraged	-10.9015
▁functional	-10.9022
ya	-10.9022
▁tier	-10.9023
$4	-10.9025
▁failure	-10.9026
-25	-10.9027
▁huzhou	-10.9028
▁organizations	-10.9029
▁alignment	-10.903
▁convert	-10.903
▁cnc	-10.9033
▁tower	-10.9038
▁presses	-10.9039
▁bo	-10.9039
▁rein	-10.904
▁controls	-10.904
700	-10.9041
▁7%	-10.9042
▁8%	-10.9044
2022	-10.9044
▁le	-10.9048
▁talent	-10.9052
▁packs	-10.9061
cc	-10.9061
▁collecting	-10.9063
▁message	-10.9063
▁function	-10.9064
▁consultancy	-10.9065
▁15.	-10.9069
▁bhp	-10.9071
▁otherwise	-10.9072
▁alternatives	-10.9076
fold	-10.9086
ise	-10.9097
▁extract	-10.91
▁beauty	-10.9102
▁feedback	-10.9103
▁participating	-10.9103
▁acknowledged	-10.9105
▁enabled	-10.9107
saving	-10.9107
▁constructing	-10.9108
▁fight	-10.9109
▁tackle	-10.9115
▁lining	-10.9118
▁flakes	-10.9118
▁bright	-10.9118
$8	-10.9121
▁specialise	-10.9121
▁anil	-10.9122
countervailing	-10.9125
▁grand	-10.9127
▁moderate	-10.913
▁pushed	-10.9135
▁associations	-10.9136
▁integral	-10.914
▁graphite	-10.9141
▁warned	-10.9142
▁seasonal	-10.9147
▁fans	-10.9157
▁incorporate	-10.9157
▁23.	-10.9165
▁abundant	-10.9175
▁performed	-10.9176
▁accordance	-10.9177
▁northwest	-10.9179
▁shelf	-10.918
state	-10.9181
▁forging	-10.9181
▁tom	-10.9183
▁specialized	-10.9183
▁mere	-10.9184
▁proudly	-10.9192
▁assessed	-10.9195
▁trusted	-10.9198
▁tough	-10.92
▁tank	-10.9202
▁2008	-10.9212
▁imposition	-10.9214
▁combustion	-10.9215
▁jindal	-10.9216
▁hotel	-10.9216
▁powders	-10.9219
▁deck	-10.9231
rio	-10.9235
▁visual	-10.9237
▁stress	-10.9241
▁ms	-10.9243
▁slowing	-10.9245
▁maximise	-10.9249
▁enormous	-10.9249
ier	-10.9249
▁equal	-10.9251
▁basket	-10.9252
▁civil	-10.9253
▁tata	-10.9253
▁pharmaceutical	-10.9254
▁cargoes	-10.9255
car	-10.9257
▁inches	-10.9257
fired	-10.9259
▁licence	-10.9262
▁lanka	-10.927
▁21.	-10.9282
▁prove	-10.9283
▁2.6	-10.9289
▁modular	-10.929
▁downtrend	-10.9292
▁drs	-10.9294
▁trailer	-10.9299
▁barriers	-10.93
$6	-10.9309
▁stores	-10.9316
▁indicators	-10.9316
▁minutes	-10.9318
$17	-10.9319
▁du	-10.9319
▁midwest	-10.9328
▁homes	-10.9328
▁discovery	-10.933
▁plummeted	-10.933
3.1	-10.9342
▁2.1	-10.9344
▁voltage	-10.9344
▁groups	-10.9344
ful	-10.935
▁crash	-10.9354
▁miles	-10.9355
▁convention	-10.9363
▁singh	-10.9363
▁steam	-10.9367
▁assured	-10.9368
▁liberty	-10.9368
▁actually	-10.9373
▁safer	-10.9375
▁matt	-10.9385
▁19,000	-10.9385
ke	-10.9393
▁1.9	-10.9397
.75	-10.9398
▁fisher	-10.9405
▁dropping	-10.9407
▁behaviour	-10.9407
▁outlined	-10.9409
ray	-10.9411
ur	-10.9418
▁explains	-10.9425
em	-10.9434
▁generations	-10.9435
▁shifted	-10.9437
")	-10.9438
▁population	-10.9442
▁distinctive	-10.9442
▁mysteel	-10.9442
primary	-10.9447
april	-10.9447
▁tightening	-10.9452
▁neutral	-10.9452
▁oem	-10.9453
ng	-10.9456
,540	-10.9457
▁61	-10.9459
▁communications	-10.9459
▁parameters	-10.9461
▁augment	-10.9469
▁fulfil	-10.9478
▁landmark	-10.9481
▁split	-10.9481
▁metallic	-10.9483
-15	-10.9486
august	-10.9486
▁sam	-10.9492
▁provisional	-10.9493
id	-10.9494
▁arabal	-10.9497
▁91	-10.9498
▁2,4	-10.9501
▁showcases	-10.9509
▁accommodate	-10.9514
▁gradual	-10.9516
▁ordered	-10.9518
▁convenience	-10.9519
▁stranded	-10.9519
▁novel	-10.9522
▁orbit	-10.9524
▁permit	-10.9527
slated	-10.9529
82	-10.9529
▁13.	-10.953
▁105	-10.9536
▁ratings	-10.9537
▁slash	-10.9537
▁houses	-10.9543
▁earning	-10.9545
▁movements	-10.955
▁length	-10.9553
deemed	-10.9555
men	-10.9558
▁studio	-10.956
▁organized	-10.9563
sustainability	-10.9564
▁disclosure	-10.9564
▁prototype	-10.9566
▁ceramic	-10.9569
▁averages	-10.9573
plant	-10.9573
▁replaced	-10.9575
▁meaningful	-10.9594
▁bag	-10.9596
▁$20	-10.9596
▁conclusion	-10.9597
▁pass	-10.9597
▁kaolin	-10.9598
▁allocation	-10.9599
▁utilise	-10.9601
breaking	-10.9605
▁delayed	-10.9611
chinas	-10.9624
▁forecasted	-10.963
▁sides	-10.9631
signifies	-10.9635
▁optimism	-10.9636
▁mean	-10.9637
▁usual	-10.9643
▁expansions	-10.9643
▁cape	-10.9646
▁pulled	-10.965
▁ka	-10.9652
▁pvt	-10.9658
▁couple	-10.9658
▁progressing	-10.9665
▁document	-10.9674
▁denmark	-10.9675
▁75%	-10.9679
stakeholder	-10.9681
▁task	-10.9684
▁alfed	-10.969
▁schools	-10.9691
▁fill	-10.9692
pl	-10.9692
ps	-10.9698
▁aec	-10.9701
▁ferrous	-10.9702
▁ranks	-10.9704
thirds	-10.9706
550	-10.9708
▁immense	-10.9711
eliminating	-10.9714
billion	-10.972
▁baled	-10.9722
july	-10.9722
▁aspect	-10.9724
▁lab	-10.9728
ci	-10.9741
▁remote	-10.9751
▁moratorium	-10.9754
▁fear	-10.9754
▁alvance	-10.9755
▁90%	-10.9758
▁3.6	-10.9759
,600	-10.9761
▁aesthetic	-10.9764
▁certificate	-10.9765
▁loans	-10.9772
▁screen	-10.9773
▁generates	-10.9775
bi	-10.9778
▁bi	-10.9781
▁3.7	-10.9783
▁450	-10.9792
listed	-10.9794
▁cloud	-10.9795
▁institutional	-10.9796
▁recommended	-10.9798
▁cups	-10.9801
▁87	-10.9801
▁carrying	-10.9806
▁meant	-10.9806
▁4.1	-10.9806
ji	-10.9808
▁ir	-10.9809
vedanta	-10.981
active	-10.981
▁81	-10.9816
▁quotas	-10.9822
▁convenient	-10.983
▁versatility	-10.9833
▁workplace	-10.9834
▁surging	-10.9835
▁hyundai	-10.9835
▁amrun	-10.9835
▁graphene	-10.9837
▁contractor	-10.9837
▁stockpile	-10.9837
holiday	-10.984
october	-10.984
▁seminar	-10.9844
▁safely	-10.9846
▁happen	-10.985
▁embark	-10.985
▁expecting	-10.9857
ized	-10.9864
▁decarbonise	-10.9867
▁worsley	-10.9873
72	-10.9874
▁superyacht	-10.9875
▁alum	-10.9891
▁isn	-10.9893
▁md	-10.9905
▁pakistan	-10.9914
sanjeev	-10.9914
▁abroad	-10.9914
▁americas	-10.9916
▁stating	-10.9917
▁heard	-10.9922
▁hearing	-10.9924
▁delays	-10.9928
-24	-10.9948
▁gm	-10.9952
ist	-10.9952
▁optimal	-10.9952
▁importantly	-10.9952
▁agriculture	-10.9954
▁currencies	-10.9954
▁pride	-10.9954
▁nothing	-10.9956
▁whilst	-10.9956
▁900	-10.9965
.95	-10.9968
▁weighed	-10.9973
▁lesser	-10.9977
▁metall	-10.998
▁documents	-10.9985
▁anchor	-10.9994
▁dudley	-10.9995
▁appearance	-10.9995
▁engaging	-10.9996
▁customised	-10.9996
▁inked	-10.9999
▁portland	-10.9999
mi	-11.0004
▁decide	-11.0029
▁outcomes	-11.0033
▁evident	-11.0034
▁thought	-11.0034
hi	-11.0035
xxx	-11.0035
▁monetar	-11.0035
▁viability	-11.0035
▁stance	-11.0035
▁james	-11.0036
▁speciality	-11.0037
▁deeper	-11.0041
▁spike	-11.0042
▁3.2	-11.0044
,200	-11.0048
ol	-11.0049
▁thing	-11.0062
rich	-11.0069
▁roads	-11.0069
,700	-11.007
▁adapt	-11.0071
▁2010	-11.0073
▁bosnia	-11.0076
▁esteem	-11.0076
▁pahang	-11.0076
▁mozal	-11.0077
▁comply	-11.0078
▁anniversary	-11.0078
▁sunday	-11.0078
su	-11.0081
known	-11.0083
producing	-11.0084
pacific	-11.0085
za	-11.0093
▁buildup	-11.0094
▁11,000	-11.0097
▁platforms	-11.0102
▁insight	-11.0112
▁aware	-11.0113
▁upgrading	-11.0117
▁considerably	-11.0117
▁deployment	-11.0117
▁commencement	-11.0118
é	-11.0126
▁headwinds	-11.0129
▁spark	-11.013
▁0.2	-11.0136
▁positively	-11.0151
▁expenditures	-11.0151
▁definitive	-11.0158
▁exclaimed	-11.0158
▁gave	-11.0159
ut	-11.016
▁2.7	-11.016
▁prevailing	-11.0163
▁88	-11.0164
▁0.1	-11.0171
▁champion	-11.0175
▁ko	-11.0181
▁climb	-11.0184
▁person	-11.0185
▁tri	-11.0188
▁uncertainties	-11.0199
▁escalating	-11.0202
▁georgia	-11.0204
▁swiss	-11.0205
0,000	-11.0205
▁consumed	-11.0205
economic	-11.0207
▁lu	-11.0215
▁boom	-11.0217
▁terminal	-11.0219
ler	-11.0224
▁projection	-11.0232
2023	-11.0237
▁installing	-11.0238
▁shrink	-11.0239
▁3,500	-11.0246
▁collectively	-11.0247
.05	-11.0251
▁330	-11.0254
▁diversify	-11.0259
▁hill	-11.0266
pv	-11.0268
▁83	-11.027
▁conscious	-11.027
▁classic	-11.027
izing	-11.0279
.4%	-11.0281
▁struggling	-11.0283
▁difficulties	-11.0283
▁hazardous	-11.0285
▁finishes	-11.0286
▁designated	-11.0286
▁described	-11.0286
▁shot	-11.0287
▁na	-11.0291
▁60,000	-11.0292
br	-11.0296
au	-11.0312
▁mode	-11.0317
▁depreciation	-11.0324
▁ruling	-11.0324
▁autonomous	-11.0325
▁revolutionary	-11.0326
▁95%	-11.0327
▁video	-11.0331
foot	-11.0333
▁holly	-11.0338
▁clearance	-11.0344
▁ni	-11.0347
▁wmt	-11.0357
▁containing	-11.0365
completing	-11.0366
▁background	-11.0367
▁opens	-11.0368
▁mainstream	-11.0369
▁2.9	-11.0371
▁inspire	-11.0373
▁remov	-11.0376
▁determination	-11.0386
▁motorcycle	-11.0389
▁$15	-11.0393
ap	-11.0393
▁13,000	-11.0394
▁14.	-11.0395
▁nano	-11.0397
▁draft	-11.04
win	-11.04
▁5.3	-11.0402
▁intensive	-11.0405
▁agricultural	-11.0409
▁bilateral	-11.0409
▁functionality	-11.0409
.40	-11.0416
▁namely	-11.0417
▁proceeds	-11.0418
board	-11.0426
▁showcased	-11.0428
▁distributor	-11.043
▁accelerated	-11.0432
▁perform	-11.0433
06	-11.0433
nt	-11.0434
▁filling	-11.0435
▁persistent	-11.0437
▁drinking	-11.0438
▁turbines	-11.044
▁lindian	-11.0451
▁investigations	-11.0452
▁buses	-11.0455
▁begins	-11.0455
▁royal	-11.0456
▁79	-11.0457
▁accept	-11.0459
approved	-11.046
▁age	-11.0465
▁recognise	-11.0467
▁lay	-11.0468
▁endeavour	-11.0473
04	-11.0485
▁carolina	-11.0493
▁churn	-11.0494
50/	-11.0494
▁improves	-11.0495
▁decarbonization	-11.0495
▁ties	-11.0507
▁guide	-11.0508
ine	-11.0512
▁trials	-11.0521
▁2.0	-11.0523
▁restrict	-11.0524
ham	-11.053
▁4.	-11.0534
▁5.1	-11.0534
▁alüminyum	-11.0536
▁imperative	-11.0536
▁ample	-11.0537
▁calcined	-11.0537
▁silica	-11.0539
met	-11.054
▁taste	-11.054
certified	-11.0546
top	-11.0552
▁92	-11.0553
fi	-11.0554
ag	-11.056
▁semiconductor	-11.056
▁2013.	-11.056
▁pm	-11.0568
mining	-11.0572
▁elevate	-11.0574
▁underscor	-11.0577
▁5.8	-11.0578
▁dutch	-11.0579
▁mike	-11.0581
-10	-11.0584
▁fuelled	-11.0588
▁implications	-11.059
▁kt	-11.059
▁liu	-11.0591
tec	-11.0593
▁procedure	-11.0603
▁stockpiles	-11.061
▁partnering	-11.0611
▁intent	-11.0617
▁heads	-11.0618
-18	-11.0618
▁rock	-11.0619
drove	-11.0621
▁wear	-11.0624
▁undertaken	-11.0624
▁specified	-11.0625
▁sequentially	-11.0625
▁mega	-11.0626
▁chennai	-11.0628
▁gathering	-11.0639
.45	-11.0645
▁laptop	-11.0647
dc	-11.0651
▁si	-11.0653
▁89	-11.0653
ating	-11.0659
▁parallel	-11.0666
▁reusable	-11.0666
▁uptick	-11.0666
than	-11.0667
▁approaches	-11.0676
duty	-11.0676
▁facilitat	-11.0676
▁box	-11.0678
▁upper	-11.068
▁phases	-11.0682
▁acres	-11.0684
like	-11.0696
▁ra	-11.07
▁utilize	-11.0701
▁25.	-11.0705
▁typical	-11.0706
▁views	-11.0706
▁tasmania	-11.0706
▁facades	-11.0707
▁mutual	-11.0707
▁insulation	-11.0709
▁hardware	-11.0709
▁functions	-11.071
’19	-11.0711
▁suffered	-11.0713
▁offtake	-11.072
▁arrived	-11.0721
cu	-11.0724
▁curve	-11.0726
ate	-11.0731
71	-11.0732
▁inaugura	-11.0734
▁cabinet	-11.0734
▁sixth	-11.0734
▁preserve	-11.0745
▁tremendous	-11.0749
▁preceding	-11.0753
▁subdued	-11.0753
▁notified	-11.0753
▁vending	-11.0753
▁amcor	-11.0753
▁membership	-11.0754
▁inert	-11.0758
▁capex	-11.0759
president	-11.0763
▁minimis	-11.0764
▁installations	-11.0764
▁fluctuated	-11.0764
▁gst	-11.0765
▁waiting	-11.0769
▁25,000	-11.0775
▁2011	-11.0782
▁insufficient	-11.0783
▁builds	-11.0784
▁abdulnasser	-11.0797
▁cornerstone	-11.0797
▁shipyard	-11.0797
▁willingness	-11.0797
▁kuantan	-11.0797
▁buoyed	-11.08
▁su	-11.0803
▁cmd	-11.0806
,800	-11.0806
▁promotes	-11.0815
▁promise	-11.0818
▁offices	-11.082
▁curtailment	-11.0824
▁balanced	-11.0836
_	-11.0841
▁trimet	-11.0841
▁backdrop	-11.0842
zld	-11.0842
▁mitsubishi	-11.0842
▁competitors	-11.0844
▁conducting	-11.085
.70	-11.085
▁alcan	-11.085
1.5	-11.0871
120	-11.0873
▁symposium	-11.0885
▁boundaries	-11.0885
▁extraordinary	-11.0885
▁kazakhstan	-11.0885
▁sustainably	-11.0886
▁alumex	-11.0887
har	-11.0889
▁spotlight	-11.0891
▁vi	-11.0897
▁attain	-11.0901
▁5.4	-11.0918
▁manual	-11.0926
▁census	-11.0929
▁kobe	-11.093
▁9,000	-11.0932
po	-11.0932
offer	-11.0933
▁uphold	-11.0936
piece	-11.0939
origin	-11.0941
▁streams	-11.0947
▁40,000	-11.0948
▁canpack	-11.0948
▁addressed	-11.0949
▁voice	-11.0951
▁bins	-11.0953
ors	-11.0955
,730	-11.0971
material	-11.0971
▁melt	-11.0972
▁incorporates	-11.0973
▁christmas	-11.0976
▁anodised	-11.0976
▁14%	-11.0984
▁slowly	-11.0985
release	-11.0986
▁exit	-11.0996
▁sort	-11.0997
▁evaluate	-11.0998
▁ends	-11.0999
▁comments	-11.101
▁conductor	-11.1012
ck	-11.1015
▁resolve	-11.1015
▁embracing	-11.1019
▁opt	-11.1024
▁retailers	-11.1027
built	-11.1031
▁nzas	-11.1032
so	-11.1032
▁educational	-11.1034
▁gases	-11.1039
$2,9	-11.1046
▁5.7	-11.1048
▁3.4	-11.1059
ten	-11.1062
▁glazing	-11.1064
▁maharashtra	-11.1064
▁noteworthy	-11.1064
▁quantities	-11.1064
▁oleg	-11.1064
▁transit	-11.1065
▁vertically	-11.1069
▁integrate	-11.1089
▁barrier	-11.1099
▁urgent	-11.1106
▁agencies	-11.1109
▁incredible	-11.1109
▁rural	-11.1109
▁uacj	-11.1111
▁4.2	-11.1113
▁william	-11.1114
▁slovakia	-11.1116
▁0.3	-11.1116
ung	-11.1119
▁reforms	-11.1119
▁ramping	-11.1122
▁ha	-11.1126
▁spend	-11.1131
▁2013,	-11.1133
▁signall	-11.1144
▁2009	-11.1144
,060	-11.1152
▁managers	-11.1153
▁heritage	-11.1155
wise	-11.1157
▁relie	-11.1162
▁catering	-11.1164
▁sponsor	-11.1167
chalco	-11.1167
group	-11.1167
▁18,000	-11.1178
▁lid	-11.1179
▁directed	-11.118
.85	-11.1186
▁1000	-11.1187
650	-11.1194
▁islands	-11.1198
▁ultimate	-11.1198
▁uncertain	-11.12
▁legislation	-11.12
▁podback	-11.1202
▁valco	-11.1209
▁augmented	-11.1213
▁9%	-11.1218
▁packaged	-11.1232
▁incentive	-11.1236
▁longs	-11.1244
▁ipo	-11.1244
▁pursuing	-11.1246
▁nissan	-11.1248
▁ca	-11.1257
february	-11.1259
▁0.10	-11.1278
▁concentration	-11.1282
▁supreme	-11.1292
▁bespoke	-11.1295
chain	-11.13
▁cny	-11.1305
▁emphasises	-11.1311
▁abdulla	-11.1319
▁discharge	-11.1325
▁renovation	-11.1338
▁$100	-11.1339
▁weighing	-11.1339
▁burden	-11.134
ver	-11.1342
tier	-11.1342
▁acid	-11.1342
▁formation	-11.1343
▁spoke	-11.1353
▁19.	-11.1354
▁lands	-11.136
▁maintains	-11.1362
▁matters	-11.1367
▁€1	-11.1371
▁variants	-11.1372
▁displays	-11.1376
▁harvey	-11.1385
▁niche	-11.1385
▁commercially	-11.1385
▁shipbuilding	-11.1385
▁contamination	-11.1387
▁analytics	-11.1389
▁("	-11.1391
cans	-11.1405
▁surpassing	-11.1405
▁span	-11.1413
▁yachts	-11.1415
▁loaded	-11.1417
▁sections	-11.1419
$23	-11.1424
▁4.4	-11.1426
core	-11.1428
▁daniel	-11.1429
▁distinct	-11.1431
▁(2017)	-11.1432
▁spanish	-11.1433
▁12%	-11.1437
▁3.8	-11.1441
▁defined	-11.1443
▁accepted	-11.1444
▁biden	-11.145
▁realized	-11.145
▁...	-11.1452
ak	-11.1453
▁specialis	-11.1453
,460	-11.1457
▁belt	-11.1457
$30	-11.1461
▁hai	-11.1463
▁continent	-11.1472
,300	-11.1476
▁pursuit	-11.1479
▁bankruptcy	-11.1479
▁alleged	-11.1479
ger	-11.1479
▁sichuan	-11.1479
▁requests	-11.148
red	-11.1483
▁sensors	-11.1485
▁pan	-11.1487
▁talk	-11.1491
conscious	-11.1492
▁walls	-11.1499
▁essentially	-11.1501
▁households	-11.1503
▁assan	-11.1509
▁coated	-11.1514
▁jet	-11.1517
▁featured	-11.1518
▁preparation	-11.1518
▁270	-11.1522
▁enthusiasm	-11.1526
▁optimising	-11.1526
▁distributed	-11.153
▁economically	-11.1532
gi	-11.1536
▁colombia	-11.1536
▁tap	-11.1541
ent	-11.1542
alcoa	-11.155
▁breaking	-11.1551
▁eyes	-11.1553
▁transformed	-11.1555
▁propel	-11.1557
▁pose	-11.1557
▁meetings	-11.1559
ip	-11.156
▁cycles	-11.1563
▁revision	-11.1566
-22	-11.1567
han	-11.1572
▁kerbside	-11.1573
▁qualities	-11.1573
▁correction	-11.1575
▁accomplished	-11.1579
▁proposals	-11.158
ana	-11.1584
$18	-11.1595
ber	-11.1597
▁pitch	-11.1601
▁anticipate	-11.1608
$24	-11.1609
▁caps	-11.1613
▁connecting	-11.1616
▁epiq	-11.1621
▁questions	-11.1622
▁provincial	-11.1622
losing	-11.1623
▁channel	-11.163
▁£1	-11.1637
▁participated	-11.1637
▁hectares	-11.1638
.5%	-11.1644
▁brewers	-11.1645
▁laws	-11.1648
2021	-11.1649
tra	-11.1649
▁payments	-11.1651
ec	-11.1655
▁believed	-11.1659
rise	-11.1661
▁0.4	-11.1666
▁israel	-11.1668
▁britain	-11.1669
▁familiar	-11.1669
▁audience	-11.1669
▁macroeconomic	-11.1669
▁mozambique	-11.167
▁swedish	-11.167
▁felt	-11.1671
▁115	-11.1673
▁alpart	-11.1675
▁cfo	-11.1675
▁260	-11.1677
$12	-11.1685
▁bio	-11.1692
▁surges	-11.1698
▁provision	-11.1699
▁bulgaria	-11.1706
▁petition	-11.1709
▁revolutionise	-11.1712
▁regain	-11.1718
▁pen	-11.1719
▁pool	-11.172
▁runaya	-11.172
▁exclusively	-11.172
▁logo	-11.1723
pp	-11.1729
▁returning	-11.173
november	-11.1732
executive	-11.1732
▁undergoing	-11.1738
▁ml	-11.1748
▁title	-11.1759
▁cluster	-11.1761
▁pipe	-11.1762
▁victoria	-11.1764
▁innovate	-11.1765
▁doubling	-11.1766
see	-11.1768
▁smith	-11.1769
▁qualified	-11.1769
▁productive	-11.1774
▁et	-11.178
▁prompted	-11.178
shanghai	-11.178
▁measured	-11.1781
▁$30	-11.1784
▁$1,5	-11.1787
▁originally	-11.1787
▁6.3	-11.1801
900	-11.1804
▁nanshan	-11.1814
▁striking	-11.1814
▁valley	-11.1814
▁film	-11.1815
▁labor	-11.1816
▁grain	-11.1818
▁seat	-11.1819
▁5.2	-11.1825
▁withstand	-11.1827
ready	-11.1832
being	-11.1834
▁arrangements	-11.1834
▁oversee	-11.1834
▁17,000	-11.1835
▁550	-11.1839
▁pod	-11.1845
▁pa	-11.1847
ze	-11.1851
mtpa	-11.1855
▁capsule	-11.1861
▁electrolyte	-11.1862
▁pending	-11.1868
▁crew	-11.1868
▁150,000	-11.1869
▁zones	-11.1872
▁golden	-11.1872
▁earn	-11.1886
▁tar	-11.1887
▁onto	-11.1888
ship	-11.189
3.5	-11.189
▁obligations	-11.1894
▁cme	-11.1897
▁exemptions	-11.1905
▁norms	-11.1907
▁transported	-11.1907
▁swift	-11.1908
▁applicable	-11.1911
▁paragominas	-11.1911
▁qoq	-11.1911
▁healthcare	-11.1912
▁weakness	-11.1912
her	-11.1913
▁children	-11.1913
▁modernisation	-11.1913
▁asserted	-11.1914
▁escalation	-11.1915
▁newest	-11.1915
▁compatible	-11.1919
,790	-11.1927
south	-11.1928
▁jamaican	-11.1929
▁dam	-11.1943
▁ho	-11.1958
▁aasheim	-11.1961
▁satisfaction	-11.1961
▁egp	-11.1961
$9	-11.1962
▁mirror	-11.1962
▁scaling	-11.1963
▁jones	-11.1963
sen	-11.1964
▁equally	-11.1965
▁search	-11.1967
▁limits	-11.1967
▁consuming	-11.1972
▁deeply	-11.1973
op	-11.1979
▁2019-20	-11.1979
▁minimize	-11.1986
baked	-11.1989
▁banking	-11.1995
▁indiana	-11.1997
▁patterns	-11.2
▁280	-11.2004
▁infinite	-11.2008
1,500	-11.201
▁rep	-11.2012
,150	-11.2012
▁bath	-11.2014
▁greenback	-11.2019
body	-11.2019
sustainable	-11.2026
▁optimised	-11.2027
▁korean	-11.2029
▁spaces	-11.203
pro	-11.2036
▁gear	-11.2037
▁consequences	-11.2038
▁der	-11.2046
▁robot	-11.2046
▁em	-11.2052
▁par	-11.2052
▁fabricators	-11.2054
▁administrative	-11.206
▁delegation	-11.206
▁composed	-11.206
▁conveyor	-11.206
▁scott	-11.2061
▁lockdown	-11.2061
▁undertaking	-11.2061
▁accumulated	-11.2063
▁speaker	-11.2063
▁johnson	-11.2064
▁600,000	-11.2066
▁finalised	-11.2067
▁awac	-11.2068
▁outage	-11.2068
▁routes	-11.2075
▁narrowed	-11.2077
cap	-11.2081
▁useful	-11.2085
5,500	-11.2093
▁ross	-11.2097
,780	-11.2099
▁acquisitions	-11.2102
▁involvement	-11.2111
▁nevertheless	-11.2111
▁samsung	-11.2111
▁contributor	-11.2111
▁latin	-11.2112
▁antidumping	-11.2114
▁precisely	-11.2115
▁idled	-11.2116
2.5	-11.2122
▁--	-11.2122
▁slim	-11.2124
▁extracted	-11.2125
alu	-11.2126
▁(“	-11.2128
▁stored	-11.2128
▁bolstered	-11.2129
▁wins	-11.2129
▁presentations	-11.2132
kind	-11.2133
ii	-11.2135
▁mount	-11.2137
▁emerge	-11.2144
▁technically	-11.2151
▁giants	-11.2152
point	-11.2155
▁thorough	-11.2157
▁pave	-11.2158
compromising	-11.2159
≤	-11.216
▁synergies	-11.216
▁acceptance	-11.216
▁elysis	-11.2161
sh	-11.2162
▁rimowa	-11.2162
asia	-11.2162
▁ambassador	-11.2163
▁facade	-11.2165
▁translate	-11.2166
▁pickup	-11.2166
▁suite	-11.2167
ranked	-11.2171
-13	-11.2177
during	-11.2182
▁chip	-11.2183
▁publicly	-11.2195
▁sport	-11.2198
▁advances	-11.2198
mar	-11.2203
▁capita	-11.2205
▁apparent	-11.2208
▁intricate	-11.2211
▁choices	-11.2211
▁flaunt	-11.2211
▁dialogue	-11.2211
▁mytilineos	-11.2212
▁harmful	-11.2213
▁fabricated	-11.2215
▁canning	-11.222
▁ibaas	-11.2221
$13	-11.2222
▁portable	-11.2222
▁giadec	-11.2226
▁ap	-11.2232
>	-11.2244
▁raises	-11.2252
▁arena	-11.2253
▁eligible	-11.2261
▁nosedive	-11.2262
▁friction	-11.2263
meter	-11.2264
▁$8	-11.2265
4,100	-11.2267
▁overhead	-11.2268
▁discovered	-11.227
▁certainly	-11.2277
▁mp	-11.2278
series	-11.2279
▁stone	-11.228
winning	-11.2291
$25	-11.2304
▁flavour	-11.2307
▁restore	-11.231
du	-11.2312
▁protective	-11.2313
tion	-11.2314
▁austal	-11.2315
▁$7	-11.2316
▁neighbour	-11.2317
▁400,000	-11.2318
▁grounds	-11.2322
▁utilized	-11.2323
▁visited	-11.2325
▁trees	-11.2326
hindalco	-11.2331
▁3.1	-11.234
▁$50	-11.2342
▁slabs	-11.2345
▁lake	-11.2347
▁adhere	-11.2349
▁hu	-11.2352
▁18.	-11.2356
▁rated	-11.2357
▁satisfy	-11.2364
▁5.6	-11.2365
▁andrew	-11.2365
▁policymakers	-11.2365
▁aludium	-11.2367
oil	-11.2368
▁allocated	-11.237
▁135	-11.2376
▁shell	-11.238
project	-11.2388
▁guests	-11.2389
▁bse	-11.239
▁networks	-11.2398
▁names	-11.2399
▁wherein	-11.2414
▁potlines	-11.2415
▁grateful	-11.2415
▁racing	-11.2415
▁thick	-11.2417
▁cultural	-11.2417
range	-11.2417
▁exposed	-11.242
jebel	-11.2424
▁3.0	-11.2427
▁effectiveness	-11.2428
▁restricted	-11.243
▁approaching	-11.2431
▁magnetic	-11.2431
▁exhibited	-11.2432
▁trades	-11.2434
▁timeline	-11.244
▁amp	-11.2452
ek	-11.2455
▁sp	-11.2458
▁campus	-11.2467
▁intensified	-11.2467
▁visible	-11.2467
▁lifecycle	-11.2468
▁diluted	-11.2468
▁museum	-11.2468
▁siemens	-11.2468
▁radiators	-11.2469
▁hebei	-11.247
.3%	-11.2472
▁sek	-11.2476
digit	-11.2477
bu	-11.2477
▁circuit	-11.2478
▁firmly	-11.248
ari	-11.2483
stock	-11.2483
north	-11.2487
▁everyday	-11.2489
▁depends	-11.249
,020	-11.2495
,570	-11.2497
▁dis	-11.2503
▁projections	-11.2505
changing	-11.251
that	-11.251
▁predict	-11.2516
▁diligence	-11.2519
▁somewhat	-11.2523
▁publication	-11.2524
▁uptrend	-11.2525
▁250,000	-11.2526
▁max	-11.2528
▁catalyst	-11.2529
▁elected	-11.2529
,660	-11.2529
▁6.2	-11.2532
russia	-11.2536
make	-11.2539
▁1,200	-11.2543
export	-11.2549
▁21,000	-11.255
”)	-11.2551
▁attributes	-11.2552
▁appliances	-11.2555
alloyed	-11.2556
.48	-11.256
▁departments	-11.2562
▁desire	-11.2564
tm	-11.2566
ig	-11.257
▁refill	-11.2571
▁sch	-11.2571
▁anticipation	-11.2572
▁elsewhere	-11.2572
▁absence	-11.2572
▁rallied	-11.2572
▁instrumental	-11.2573
▁noise	-11.2577
▁robotics	-11.2578
mg	-11.258
▁opinion	-11.258
▁evaluated	-11.258
▁stressed	-11.2587
02	-11.2587
.09	-11.2599
▁count	-11.2603
▁resort	-11.2603
,010	-11.2604
▁try	-11.2604
▁benchmarks	-11.2606
▁sc	-11.2611
▁3.9	-11.2616
▁approached	-11.2624
▁academic	-11.2624
▁spokesman	-11.2624
▁passion	-11.2625
▁sumitomo	-11.2626
▁addresses	-11.2633
▁specification	-11.264
▁reused	-11.2641
▁nasa	-11.2642
▁abb	-11.2647
▁sliding	-11.2647
▁isri	-11.2648
rate	-11.2654
▁0.6	-11.2656
▁qr	-11.2657
▁2005	-11.2659
$26	-11.2664
▁environments	-11.2665
▁adverse	-11.2674
▁connectivity	-11.2677
▁honda	-11.2679
▁constrained	-11.2682
.07	-11.2686
▁dubal	-11.2687
mer	-11.2688
ard	-11.2688
.04	-11.2689
▁logistical	-11.2691
▁developers	-11.2693
▁curtailed	-11.2694
5%	-11.2694
through	-11.2696
▁vat	-11.2698
▁bare	-11.2699
▁credits	-11.2699
▁announc	-11.2701
▁correct	-11.2715
$16	-11.2723
▁spectrum	-11.273
▁unparalleled	-11.273
$28	-11.2732
▁anodized	-11.2733
▁embrace	-11.2733
▁inclusive	-11.2738
▁floating	-11.2739
▁computer	-11.2741
03	-11.2744
▁inputs	-11.2747
▁celebrated	-11.2747
standard	-11.275
▁transitioning	-11.2758
▁ranking	-11.276
▁calling	-11.2766
▁tu	-11.2767
▁20-	-11.277
.08	-11.2775
▁optimize	-11.2776
▁streamline	-11.2777
,050	-11.278
▁accuracy	-11.2784
▁adjacent	-11.2784
▁recession	-11.2784
▁bloomberg	-11.2784
▁nemak	-11.2785
▁walk	-11.2785
▁meridian	-11.2785
▁redefine	-11.2788
▁collaborations	-11.2788
▁derived	-11.279
tri	-11.279
cing	-11.2797
2025	-11.2802
▁strengths	-11.2802
▁kwh	-11.2808
▁powerhouse	-11.2809
▁talking	-11.2811
▁ripple	-11.2811
▁winners	-11.2813
▁asx	-11.2822
$14	-11.2822
▁absolute	-11.2835
▁virgin	-11.2837
▁solidify	-11.2837
‐	-11.2837
▁kalimantan	-11.2837
▁optimization	-11.2837
▁zorba	-11.2837
▁restocking	-11.2839
tr	-11.2841
▁distinguished	-11.2842
▁probe	-11.2842
▁unless	-11.2843
▁maan	-11.2844
▁executed	-11.2844
▁5-	-11.2847
prices	-11.2849
▁arrival	-11.2851
▁$25	-11.2852
▁flight	-11.2855
tpy	-11.2857
cbam	-11.286
western	-11.286
ash	-11.2862
▁trays	-11.2864
▁associates	-11.2867
▁ice	-11.2868
▁lights	-11.2886
▁eleven	-11.2889
▁noting	-11.289
▁mohammed	-11.2892
▁overcome	-11.2892
▁attracting	-11.2892
▁intermittent	-11.2893
▁posts	-11.2894
▁sierra	-11.2895
▁involve	-11.2898
▁steering	-11.2901
,090	-11.2903
▁experiences	-11.2905
▁turbine	-11.2908
▁economics	-11.2908
▁foot	-11.2909
▁recycles	-11.2911
▁dive	-11.2911
pressure	-11.2913
▁sq	-11.2916
▁sells	-11.2919
▁trans	-11.2927
▁youth	-11.2931
size	-11.2933
▁aggressive	-11.2943
▁adequate	-11.2944
▁chose	-11.2944
utilizing	-11.2946
▁steadfast	-11.2946
▁signature	-11.2946
▁valuation	-11.2946
▁spray	-11.2946
▁reshaping	-11.2946
urging	-11.2946
▁foundries	-11.2947
▁layout	-11.2947
▁discarded	-11.2948
▁overview	-11.2949
▁assessments	-11.2951
▁hp	-11.2953
▁0.8	-11.2953
▁specialists	-11.2955
▁mi	-11.2955
▁forge	-11.2958
▁topline	-11.2958
cycle	-11.2959
▁quota	-11.2961
▁slid	-11.2962
▁variant	-11.2962
field	-11.2963
▁expectation	-11.2964
▁remelting	-11.2967
▁mar	-11.2968
▁megawatts	-11.2968
port	-11.2974
▁magazine	-11.2979
▁outer	-11.2988
▁surpass	-11.2989
▁des	-11.2989
ial	-11.299
▁ta	-11.2992
▁beautiful	-11.2998
ee	-11.2999
▁proximity	-11.3001
▁satish	-11.3001
▁nonetheless	-11.3001
.8%	-11.3002
▁québec	-11.3002
▁montenegro	-11.3003
▁carefully	-11.3003
▁calculated	-11.3004
▁bless	-11.3004
add	-11.3011
ell	-11.3019
due	-11.3023
▁shri	-11.3023
▁cartons	-11.3029
▁ip	-11.3031
▁finnis	-11.3037
▁joe	-11.3044
.80	-11.305
$19	-11.3053
▁braidy	-11.3055
▁college	-11.3055
▁divert	-11.3056
▁slips	-11.3056
▁nameplate	-11.3056
▁dominant	-11.3056
▁resistant	-11.3057
▁blow	-11.3058
▁sharma	-11.3058
▁stayed	-11.3059
▁dominated	-11.3064
▁height	-11.3065
,170	-11.3071
▁reaction	-11.3073
eastern	-11.3078
▁grants	-11.3079
they	-11.3081
▁hurt	-11.3087
▁climbing	-11.3088
▁broke	-11.3089
az	-11.309
8,500	-11.3099
-16	-11.3103
smelter	-11.3108
destined	-11.3111
▁relentless	-11.3111
▁finland	-11.3111
▁sparkling	-11.3111
tor	-11.3117
$11	-11.312
▁shorts	-11.3121
▁proved	-11.3122
▁gmg	-11.3122
▁$9	-11.3125
▁realised	-11.3128
steel	-11.3133
.6%	-11.3136
▁gauge	-11.3137
,840	-11.3137
recycled	-11.3139
▁12-	-11.3147
▁4,500	-11.3149
ep	-11.3151
▁hydraulic	-11.3166
▁porsche	-11.3166
▁encompasses	-11.3167
▁milestones	-11.3167
▁anything	-11.3168
▁pledged	-11.3172
bar	-11.3175
▁deployed	-11.3176
▁cm	-11.3177
▁triggered	-11.3177
▁2,3	-11.318
▁concession	-11.3186
▁wang	-11.3189
amp	-11.3189
-17	-11.3194
▁suspend	-11.3199
▁bis	-11.3203
▁topic	-11.3205
,890	-11.321
▁lows	-11.3213
▁speeds	-11.3216
star	-11.3216
▁appreciate	-11.3216
▁dunkerque	-11.3224
▁contraction	-11.3225
,970	-11.3226
▁bad	-11.3227
▁booth	-11.3228
▁hubs	-11.3232
▁advisor	-11.3238
hr	-11.3241
▁slab	-11.3244
▁filled	-11.3245
covid	-11.3245
▁gearing	-11.3249
▁deco	-11.3253
▁recommendations	-11.3261
▁alloyed	-11.3262
▁workshops	-11.3262
▁spin	-11.3265
▁dong	-11.3268
ang	-11.3269
▁schemes	-11.3272
▁flavours	-11.3273
▁solve	-11.3274
▁timing	-11.3275
▁ke	-11.3276
▁ontario	-11.3278
▁hits	-11.3279
▁probably	-11.3279
▁paise	-11.328
▁absorb	-11.3284
▁timely	-11.3285
▁wake	-11.3286
▁750	-11.3288
capacity	-11.3291
▁dealers	-11.3296
▁carrie	-11.3299
▁airport	-11.33
▁extensively	-11.3301
square	-11.3302
rusal	-11.3302
when	-11.3303
▁papers	-11.3305
.9%	-11.3305
▁endeavours	-11.3306
users	-11.3324
▁cooper	-11.3335
▁aluminij	-11.3337
▁0.7	-11.3337
.67	-11.3341
▁120,000	-11.3343
▁11%	-11.3343
▁takeover	-11.3346
,630	-11.3349
▁particles	-11.3355
▁measurement	-11.3357
article	-11.3358
looking	-11.3359
▁reviewed	-11.3359
coated	-11.336
▁avenues	-11.3361
▁16,000	-11.3368
▁happening	-11.3369
wood	-11.3376
▁promoted	-11.338
form	-11.3385
▁prospect	-11.3388
▁decisive	-11.3388
▁relative	-11.3389
▁volkswagen	-11.3392
▁amazon	-11.3392
▁placing	-11.3392
▁dnv	-11.3392
▁england	-11.3392
▁defense	-11.3392
▁anodizing	-11.3393
▁complexity	-11.3394
▁intense	-11.3395
▁embedded	-11.3397
war	-11.3404
▁mayor	-11.3409
▁converted	-11.3409
▁village	-11.3414
fuel	-11.3417
▁cool	-11.3421
▁proof	-11.3434
▁2027	-11.3434
▁cy	-11.344
.01	-11.3441
ran	-11.3448
3)	-11.3448
▁insurance	-11.3449
▁tennessee	-11.3449
▁wrought	-11.3449
▁influx	-11.3449
▁trash	-11.3451
▁icsoba	-11.3454
▁invited	-11.3456
▁circumstances	-11.346
blank	-11.3473
▁sample	-11.3473
ghg	-11.3474
▁averaged	-11.3474
kt	-11.3479
▁label	-11.348
▁guarantees	-11.3481
2024	-11.3483
▁22,000	-11.3483
▁counterpart	-11.3485
▁2007	-11.3489
ik	-11.3492
▁shortly	-11.3499
▁invite	-11.3499
▁startup	-11.3499
▁pe	-11.3501
tc	-11.3503
▁lineup	-11.3503
▁alabama	-11.3506
▁demerger	-11.3506
▁credentials	-11.3506
▁morgan	-11.3506
▁regime	-11.3506
▁hillside	-11.3507
▁scottish	-11.3508
▁cited	-11.3508
▁advisory	-11.3511
▁cobalt	-11.3511
▁wireless	-11.3512
▁supportive	-11.3514
▁baseline	-11.3515
west	-11.3518
▁passengers	-11.3518
dmt	-11.3519
positioned	-11.3526
building	-11.3529
▁175	-11.353
▁traditionally	-11.3532
▁jack	-11.3537
▁greatly	-11.3539
▁ride	-11.3551
▁peers	-11.3556
▁trailers	-11.356
▁pegged	-11.3564
▁href	-11.3564
▁royalty	-11.3564
hu	-11.3569
wi	-11.3571
metals	-11.3573
▁tubing	-11.3573
▁trigger	-11.3577
▁ring	-11.3588
▁intervention	-11.3589
▁hospital	-11.3589
▁consequence	-11.359
2,500	-11.3592
specific	-11.3595
▁charged	-11.3596
▁mountain	-11.3598
▁aesthetics	-11.3607
6.5	-11.3614
▁capitalise	-11.3618
▁depth	-11.3618
▁epidemic	-11.3622
▁propulsion	-11.3622
▁thomas	-11.3622
▁traction	-11.3622
▁atlantic	-11.3625
▁strain	-11.3628
▁weld	-11.3631
▁log	-11.3631
▁loses	-11.364
▁farmers	-11.3642
▁associate	-11.3644
▁enthusiasts	-11.3646
▁submit	-11.3648
▁nearing	-11.3649
▁student	-11.3652
▁wi	-11.3652
▁quotes	-11.3653
,310	-11.3663
3,500	-11.3666
▁cr	-11.3672
sector	-11.3674
▁hind	-11.3675
-5-	-11.3678
▁consumes	-11.3679
▁glut	-11.368
▁giddings	-11.3681
▁khalid	-11.3681
ku	-11.3681
▁famous	-11.3684
▁intend	-11.3685
▁chequer	-11.3692
▁appear	-11.3697
efficiency	-11.3706
scrap	-11.3707
▁sculpture	-11.3708
zi	-11.3712
▁love	-11.3717
▁dock	-11.3721
▁1990	-11.3724
▁cylinder	-11.3725
▁exempt	-11.3729
cr	-11.3729
▁interesting	-11.3732
▁circulation	-11.374
▁decarbonising	-11.374
▁afternoon	-11.374
▁sdn	-11.374
▁tourism	-11.374
▁preserving	-11.374
▁originating	-11.374
▁click	-11.374
▁traffic	-11.3743
▁composites	-11.3746
▁garmco	-11.3746
▁19,300	-11.3747
ory	-11.3748
▁artist	-11.3749
▁225	-11.3749
▁negatively	-11.3752
▁fives	-11.3754
most	-11.3763
▁triple	-11.3764
reuters	-11.3766
▁2002	-11.3767
▁moon	-11.3768
▁shock	-11.3771
▁sum	-11.3781
▁recognis	-11.3783
▁packages	-11.3784
hand	-11.3786
▁reveal	-11.3793
.28	-11.3797
▁historically	-11.3797
▁welcomes	-11.3798
▁visibility	-11.3799
▁rehabilitation	-11.3799
▁diversity	-11.38
▁breweries	-11.3801
▁drawn	-11.3807
▁constitute	-11.3807
▁frp	-11.3815
▁zhang	-11.3815
▁inspections	-11.3816
▁slashed	-11.3817
▁fun	-11.3823
▁lastly	-11.3828
▁appears	-11.383
.1%	-11.3831
▁ceiling	-11.3832
▁145	-11.3834
▁hi	-11.3839
che	-11.3845
▁registers	-11.3846
ada	-11.3852
esg	-11.3852
▁haul	-11.3858
▁vibrant	-11.3858
▁kolkata	-11.3858
▁twenty	-11.3858
▁popularity	-11.3859
2/	-11.3859
▁rain	-11.3862
000	-11.3864
2017	-11.3864
▁$12	-11.3872
▁kilograms	-11.3875
▁ras	-11.3879
▁strides	-11.3879
▁versions	-11.388
▁reinforced	-11.3883
risk	-11.3888
▁jw	-11.3889
▁enhancement	-11.3893
▁tension	-11.3893
▁suited	-11.3895
▁prize	-11.3913
▁stabilise	-11.3913
▁croatia	-11.3914
ford	-11.3916
▁calcination	-11.3918
▁measuring	-11.3918
▁opposition	-11.3918
▁stimulus	-11.3918
▁ba	-11.3919
▁coverage	-11.3919
▁smes	-11.3919
▁missouri	-11.3919
▁debate	-11.3922
▁desired	-11.3927
▁subsidy	-11.3931
▁persist	-11.3935
ize	-11.3938
proof	-11.3939
conformances	-11.3942
▁approve	-11.3948
▁pathway	-11.3951
buy	-11.3953
sp	-11.3954
▁converting	-11.3957
'>	-11.396
▁dips	-11.3963
.02	-11.3969
oc	-11.3969
▁degrees	-11.3975
▁henderson	-11.3978
▁scarcity	-11.3978
▁twice	-11.3978
▁tetra	-11.3978
675	-11.3979
▁intellectual	-11.3979
▁oceania	-11.3979
▁logan	-11.3979
▁fantastic	-11.398
▁taha	-11.3983
▁channels	-11.3985
$21	-11.3985
▁machined	-11.3987
▁13%	-11.3988
,870	-11.399
,240	-11.3997
▁brief	-11.4
▁fan	-11.4001
strong	-11.4005
▁winner	-11.4007
.93	-11.4017
.66	-11.4018
▁reaffirm	-11.4027
▁execute	-11.4031
.7%	-11.4035
▁lianyungang	-11.4039
▁goldman	-11.4041
▁varied	-11.4041
▁backing	-11.4045
▁romanian	-11.4046
.44	-11.4047
evs	-11.4053
,590	-11.4056
.76	-11.4058
,710	-11.4065
chinese	-11.4067
despite	-11.4067
▁(3	-11.4069
ball	-11.4071
▁walling	-11.4072
▁undertake	-11.4074
referred	-11.4086
1,600	-11.409
▁sudden	-11.4097
▁sequential	-11.4097
▁shaped	-11.4098
▁lifespan	-11.41
▁pará	-11.41
▁standalone	-11.4101
▁customized	-11.4101
▁endurance	-11.4101
turn	-11.4103
▁trim	-11.4104
▁thinking	-11.4105
▁provisions	-11.4105
▁1.25	-11.4105
▁throughput	-11.4105
▁audits	-11.4114
ated	-11.4114
▁notification	-11.4116
▁eafa	-11.4117
▁fee	-11.4118
▁releases	-11.4118
▁negotiation	-11.4136
cm	-11.4144
▁striv	-11.4147
mann	-11.4156
▁tanks	-11.4159
▁sturdy	-11.4161
▁uninterrupted	-11.4161
▁paving	-11.4161
▁aud	-11.4162
▁prospective	-11.4162
▁comfortable	-11.4163
%)	-11.4165
▁disrupted	-11.417
▁dent	-11.4173
kw	-11.4186
▁concentrate	-11.4191
balco	-11.4191
,400	-11.4191
▁35,000	-11.4192
▁bikes	-11.4199
▁restarted	-11.4199
▁puts	-11.4205
▁certificates	-11.4207
ping	-11.4209
▁aai	-11.421
more	-11.4217
▁lochaber	-11.4224
▁instruments	-11.4226
▁spans	-11.4234
ab	-11.4236
oriented	-11.4251
ini	-11.4252
6,500	-11.4253
▁litres	-11.4254
,740	-11.4257
▁skill	-11.4258
▁declaration	-11.4261
4,500	-11.4269
▁hd	-11.4277
,340	-11.4278
work	-11.4283
vo	-11.4284
▁kitchen	-11.4285
▁mohamed	-11.4285
▁mandatory	-11.4285
▁clay	-11.4286
▁stepped	-11.4286
▁entrepreneurs	-11.4294
▁accordingly	-11.4296
▁$18	-11.4296
2015	-11.4301
▁attracted	-11.4314
ns	-11.4315
ish	-11.4318
▁hydroelectric	-11.4323
▁slide	-11.4323
qui	-11.4325
lin	-11.4327
▁slag	-11.433
▁skin	-11.4337
▁municipal	-11.4347
▁ourselves	-11.4348
▁dried	-11.4348
▁leakage	-11.4348
▁supposed	-11.4348
▁pennsylvania	-11.4348
▁optical	-11.4348
▁mit	-11.435
▁nokia	-11.435
▁earths	-11.4351
▁bidding	-11.4351
▁keyboard	-11.4353
▁separately	-11.4359
▁sept	-11.4363
▁80,000	-11.4367
▁realm	-11.4368
▁appoint	-11.4369
hour	-11.437
▁exhibits	-11.4372
▁nu	-11.4375
▁premises	-11.4375
▁tracks	-11.4384
▁occur	-11.4387
▁bicycle	-11.4387
dy	-11.4388
▁satellite	-11.4388
▁epa	-11.4389
▁metre	-11.4393
▁wan	-11.4394
trade	-11.4395
▁distance	-11.4396
▁commissioner	-11.4403
▁4.8	-11.4407
▁thrive	-11.441
▁bigmint	-11.4411
▁precious	-11.4412
▁internet	-11.4414
▁800,000	-11.4414
▁os	-11.4415
▁20,100	-11.4416
▁sen	-11.4416
▁19,200	-11.4419
▁sez	-11.4421
not	-11.4424
▁gt	-11.4427
▁1.0	-11.4434
▁invests	-11.4437
novelis	-11.4441
▁diamond	-11.4452
▁polymer	-11.4455
▁wise	-11.4462
▁speech	-11.4472
▁chicago	-11.4474
▁prosperity	-11.4474
▁keynote	-11.4474
litre	-11.4474
▁concurrently	-11.4475
▁indeed	-11.4476
▁foam	-11.4478
▁slovenia	-11.4482
.33	-11.449
.96	-11.4491
▁seventh	-11.4495
▁lag	-11.45
.69	-11.4502
.06	-11.4504
ium	-11.4506
edition	-11.4507
▁cosmetics	-11.4517
.77	-11.4517
lu	-11.452
,260	-11.4522
mb	-11.4523
▁develops	-11.4527
tu	-11.4528
,690	-11.453
3/	-11.453
▁eager	-11.4534
▁performing	-11.4537
accompanied	-11.4537
▁consensus	-11.4537
▁dramatically	-11.4538
▁energies	-11.4539
▁sydney	-11.4539
▁krasnoyarsk	-11.4539
▁flood	-11.4543
▁properly	-11.4543
▁accredited	-11.4544
▁seats	-11.4544
▁2050,	-11.4545
bike	-11.4547
▁gathered	-11.4548
ble	-11.4548
▁setup	-11.4549
▁sensitive	-11.4551
▁ve	-11.4551
▁jnarddc	-11.4552
ou	-11.4552
▁coo	-11.4562
technology	-11.4568
general	-11.4569
▁deploy	-11.4572
▁inherent	-11.4575
▁protocols	-11.4576
under	-11.4578
▁nov	-11.4584
coc	-11.4587
▁pc	-11.4588
850	-11.4589
▁spare	-11.4599
makers	-11.46
▁men	-11.4601
▁arriving	-11.4602
▁incredibly	-11.4602
▁mexican	-11.4602
▁worries	-11.4602
▁accreditation	-11.4602
▁music	-11.4602
▁marubeni	-11.4603
ef	-11.4605
.97	-11.4606
▁controlling	-11.4608
▁bonds	-11.4608
▁hedge	-11.4609
▁im	-11.461
▁ib	-11.4611
ite	-11.4612
▁strongest	-11.4614
10/	-11.4615
▁agree	-11.4618
▁connections	-11.4619
▁nev	-11.4622
▁omc	-11.4624
bb	-11.4627
cy	-11.463
.86	-11.4631
den	-11.4636
▁packed	-11.4636
▁prioritise	-11.4639
linked	-11.4643
lasting	-11.4647
▁yard	-11.4656
▁pad	-11.4656
▁investigate	-11.4658
▁ga	-11.4665
▁£2	-11.4666
▁assistant	-11.4667
▁azerbaijan	-11.4667
nu	-11.4668
▁google	-11.4668
▁broken	-11.4669
▁greatest	-11.467
▁phones	-11.4673
▁19,800	-11.4675
▁sky	-11.4675
▁tied	-11.4678
▁nor	-11.4681
▁surpassed	-11.4682
▁4.3	-11.4682
▁underline	-11.4683
▁undergo	-11.4683
▁welded	-11.4683
today	-11.4694
book	-11.4697
▁socio	-11.4697
january	-11.4698
,225	-11.4702
wire	-11.4709
▁powertrain	-11.4713
▁consultant	-11.4713
my	-11.4715
van	-11.4717
▁refine	-11.4721
.37	-11.4723
▁procure	-11.4726
les	-11.4726
▁swing	-11.4727
▁hydrate	-11.4728
▁broaden	-11.473
▁bayuquan	-11.4731
▁injuries	-11.4731
▁moisture	-11.4731
▁scrutiny	-11.4731
▁colorado	-11.4731
▁ducab	-11.4731
▁verification	-11.4731
▁inauguration	-11.4731
356	-11.4731
▁campaigns	-11.4734
propelled	-11.4737
▁19,400	-11.4738
▁presenting	-11.474
▁reading	-11.474
take	-11.4741
since	-11.4746
fa	-11.4748
▁saint	-11.4748
4.5	-11.4758
▁delve	-11.4758
▁(1	-11.4759
▁discover	-11.4763
$35	-11.4767
▁6.1	-11.477
▁speak	-11.477
▁layers	-11.4779
,880	-11.478
▁7.4	-11.4781
▁toll	-11.4786
foil	-11.4788
▁tree	-11.4789
min	-11.4795
navigating	-11.4796
▁aggregate	-11.4796
▁auxiliary	-11.4796
▁oswego	-11.4796
▁hilde	-11.4796
▁graham	-11.4796
▁rooftop	-11.4797
▁bhubaneswar	-11.4797
▁partial	-11.4798
▁fusion	-11.4798
▁mubadala	-11.4798
▁exactly	-11.4799
▁wishes	-11.48
▁guard	-11.4802
▁northeast	-11.4806
▁drag	-11.4807
▁binding	-11.4815
▁lose	-11.4822
$33	-11.4822
▁2017-19	-11.4823
set	-11.4827
business	-11.4829
ukraine	-11.4829
▁chi	-11.4833
▁perth	-11.4833
▁19,600	-11.4844
▁fraction	-11.4845
▁complaint	-11.4847
,140	-11.485
ib	-11.4856
,875	-11.4856
▁exact	-11.4859
$29	-11.486
,290	-11.4862
.2%	-11.4862
▁journal	-11.4862
evaluating	-11.4862
▁rescue	-11.4862
▁stadium	-11.4862
▁pune	-11.4862
▁remarked	-11.4864
▁boxes	-11.4864
▁reasonable	-11.4868
▁color	-11.487
.87	-11.487
▁mcx	-11.4873
▁360	-11.4874
$40	-11.4876
▁filter	-11.4878
ville	-11.4888
▁320	-11.489
▁biz	-11.4891
▁defines	-11.4893
.79	-11.4894
phase	-11.4895
drink	-11.4895
canada	-11.4896
▁4.6	-11.49
gw	-11.49
▁shrinking	-11.4901
▁gove	-11.4902
▁0.9	-11.4907
▁heights	-11.4908
.42	-11.4922
▁pivot	-11.4926
▁consolidation	-11.4928
▁kallevik	-11.4928
▁capesize	-11.4929
▁worst	-11.493
▁conserve	-11.4933
▁20,400	-11.4935
▁mu	-11.4936
▁clearing	-11.4938
▁35%	-11.4939
wheel	-11.4943
▁proceed	-11.4956
▁pat	-11.4958
▁gather	-11.496
awaited	-11.4962
,580	-11.497
▁consolidate	-11.4971
▁permission	-11.4972
ks	-11.4973
▁brake	-11.4982
▁substitute	-11.4986
ies	-11.4987
▁negotiate	-11.4988
iv	-11.4989
▁exercise	-11.4991
▁kw	-11.4993
▁explosion	-11.4995
▁louisiana	-11.4995
▁albras	-11.4995
▁gansu	-11.4995
▁inspiring	-11.4995
,830	-11.4997
▁stricter	-11.4999
going	-11.5
▁gaming	-11.5
pat	-11.5001
▁rick	-11.5006
▁certifie	-11.5006
▁19,500	-11.5007
▁underpin	-11.5013
▁encompassing	-11.5016
▁kit	-11.5026
▁remelt	-11.5027
▁106	-11.503
▁ru	-11.5033
▁reache	-11.5033
▁stick	-11.5037
▁mandate	-11.5041
$27	-11.5047
ara	-11.5049
▁te	-11.5053
rod	-11.5057
▁proceedings	-11.5058
▁#	-11.5059
▁gen	-11.5059
▁ar	-11.5059
▁crores	-11.5061
▁hydroxide	-11.5062
▁portugal	-11.5062
▁vacuum	-11.5062
▁goyal	-11.5062
▁virginia	-11.5063
▁transferred	-11.5063
▁brass	-11.5063
,330	-11.5065
▁rejected	-11.5067
▁platinum	-11.5068
▁16%	-11.5069
royce	-11.5069
▁18%	-11.5075
source	-11.5081
▁accident	-11.5082
,620	-11.5083
▁responded	-11.5083
▁lasting	-11.5086
360)	-11.5086
3.8	-11.5088
,420	-11.5091
▁ft	-11.5091
either	-11.5097
ance	-11.5109
▁1,250	-11.5113
▁cabin	-11.5119
▁extruder	-11.512
▁root	-11.5121
▁identifying	-11.5124
ja	-11.5127
▁lessen	-11.5129
▁renault	-11.513
▁adani	-11.513
▁hedging	-11.513
▁thyssenkrupp	-11.5131
▁sapphire	-11.5131
▁modernization	-11.5132
▁phinergy	-11.5132
▁tokyo	-11.5132
▁hawesville	-11.5132
▁rob	-11.5132
drs	-11.5134
▁jlr	-11.5135
▁assembled	-11.5139
▁egyptalum	-11.5139
▁coastal	-11.514
▁75,000	-11.5144
▁happened	-11.5149
▁ps	-11.5152
▁ph	-11.5155
▁processor	-11.516
▁semiconductors	-11.5161
▁pathways	-11.5161
wmt	-11.5163
▁2040	-11.5164
▁recognises	-11.5165
▁limitations	-11.5171
▁spearhead	-11.5174
▁185	-11.5174
▁outperform	-11.5176
°	-11.5183
▁urge	-11.5186
▁2001	-11.5186
om	-11.5189
▁profound	-11.5195
.64	-11.5195
▁idle	-11.5196
▁wines	-11.5196
▁uniform	-11.5197
▁progressive	-11.5197
▁occupation	-11.5198
▁continuity	-11.5198
▁jiangxi	-11.5198
▁bed	-11.5198
▁cancellation	-11.5198
▁thriving	-11.5199
▁vimetco	-11.5199
▁realise	-11.52
▁illustrated	-11.5202
▁dan	-11.5204
▁emphasized	-11.5204
▁bench	-11.5204
▁4.7	-11.5205
▁promised	-11.521
▁6.7	-11.5211
▁philippines	-11.5212
ions	-11.5217
▁regulators	-11.5218
.03	-11.522
cut	-11.5222
▁$60	-11.5229
posed	-11.5231
▁mention	-11.5231
▁nevs	-11.5233
ama	-11.524
▁310	-11.5245
▁380	-11.5246
▁screw	-11.5249
,370	-11.5252
pc	-11.5257
ure	-11.5259
cal	-11.5261
▁dealing	-11.5261
▁absorption	-11.5266
▁creativity	-11.5266
▁torque	-11.5266
▁cubic	-11.5266
▁upswing	-11.5266
▁turnaround	-11.5267
▁kwinana	-11.5268
▁warmly	-11.5268
▁justice	-11.5269
io	-11.5269
▁nsw	-11.527
▁ramped	-11.527
▁motion	-11.5271
▁xi	-11.5271
▁seal	-11.5274
,270	-11.5275
▁gwh	-11.5278
▁2027.	-11.5278
industrial	-11.528
ring	-11.5281
▁intra	-11.5283
▁★)	-11.5284
frame	-11.5287
play	-11.5291
▁prefer	-11.5292
▁27,000	-11.5296
,185	-11.5297
bodied	-11.5302
▁arc	-11.5302
will	-11.5302
mc	-11.5305
2019	-11.5307
▁$13	-11.531
▁refiners	-11.5311
▁2,750	-11.5311
▁stakeholder	-11.5314
▁2017-20	-11.5328
▁diameter	-11.5329
▁inspiration	-11.5333
▁warning	-11.5334
ão	-11.5335
▁backbone	-11.5335
▁celestial	-11.5337
▁coach	-11.5339
▁brl	-11.5339
-000-	-11.5339
▁titan	-11.5339
ram	-11.534
▁shortfall	-11.534
▁brown	-11.5341
recycle	-11.5344
▁2004	-11.5344
▁snap	-11.5345
▁bound	-11.535
▁cbg	-11.5351
▁holders	-11.5357
▁entrepreneur	-11.5357
▁7.6	-11.5358
member	-11.536
▁divisions	-11.5361
▁carmakers	-11.5362
ki	-11.5365
,130	-11.5367
▁picked	-11.5371
precision	-11.5372
tan	-11.5377
▁saved	-11.5377
,190	-11.5381
▁formula	-11.5383
let	-11.5391
▁citizens	-11.5392
▁preference	-11.5395
▁revive	-11.5397
$3,2	-11.5398
,030	-11.5399
▁columbia	-11.5405
▁impurities	-11.5405
▁ranshofen	-11.5405
▁revival	-11.5405
▁knots	-11.5405
▁alufoil	-11.5405
▁fitted	-11.5406
▁mln	-11.5408
pre	-11.5411
▁robotic	-11.5411
▁streamlined	-11.5415
▁beach	-11.5415
▁southland	-11.5418
stop	-11.5418
275	-11.5419
ea	-11.5422
▁adher	-11.5424
▁24,000	-11.5428
▁treated	-11.5428
.84	-11.5434
▁yen	-11.5436
▁disputes	-11.5436
▁auctions	-11.5446
pur	-11.5452
uae	-11.5462
nm	-11.5464
▁sail	-11.5467
▁emerges	-11.5471
mn	-11.5474
▁valid	-11.5474
▁academy	-11.5475
▁appetite	-11.5475
▁lunar	-11.5475
.62	-11.5475
▁saguenay	-11.5475
▁ordinary	-11.5476
▁formwork	-11.5477
▁tenure	-11.5477
sales	-11.5479
▁fiji	-11.5479
▁explored	-11.5484
▁20,300	-11.5484
▁roofing	-11.5484
▁tighter	-11.5486
▁165	-11.5493
▁teamed	-11.5498
▁weaken	-11.5507
what	-11.5508
▁epc	-11.5509
certification	-11.551
national	-11.5512
investment	-11.552
▁sig	-11.5522
▁$200	-11.5524
▁map	-11.5533
▁exhaust	-11.5534
▁collapse	-11.5538
3%	-11.5539
dis	-11.554
▁lock	-11.5542
▁hundred	-11.5543
▁election	-11.5544
▁vp	-11.5544
responsibilities	-11.5545
▁residual	-11.5545
▁duffel	-11.5545
▁expend	-11.5546
▁allied	-11.5547
lb	-11.5548
▁consistency	-11.5548
▁digitalisation	-11.5548
beit	-11.5551
▁threatened	-11.5552
▁unfairly	-11.5552
▁17%	-11.5554
925	-11.5554
▁aero	-11.5555
▁scaled	-11.556
▁colleagues	-11.5564
▁fa	-11.5565
▁restarting	-11.5567
.43	-11.557
▁er	-11.5572
track	-11.5572
8,100	-11.5573
▁regarded	-11.5574
,510	-11.5579
▁considers	-11.5583
output	-11.5583
.16	-11.5589
start	-11.559
▁extracting	-11.5591
▁goa	-11.5595
2,750	-11.5597
ppa	-11.5597
▁9.5	-11.5598
▁pit	-11.5607
▁celebration	-11.5609
▁rivals	-11.5612
▁steinert	-11.5616
ice	-11.5616
▁serbia	-11.5616
▁football	-11.5616
▁tightness	-11.5618
▁trafigura	-11.5618
▁ec	-11.5622
ker	-11.5622
backed	-11.5622
▁dumped	-11.5623
▁evolved	-11.5623
▁lg	-11.5624
▁appreciated	-11.5626
▁compelling	-11.5626
▁realization	-11.5627
▁pra	-11.5627
▁pati	-11.563
▁downside	-11.5641
▁psu	-11.5648
▁4.9	-11.5648
▁(31	-11.5649
.68	-11.5649
▁adjust	-11.5651
.11	-11.566
,230	-11.5665
mark	-11.5669
▁pop	-11.5672
▁bear	-11.5674
▁lifestyle	-11.5681
ny	-11.5682
750	-11.5682
▁wing	-11.5683
▁width	-11.5685
▁roy	-11.5687
▁employer	-11.5687
▁anodising	-11.5687
▁gratitude	-11.5687
▁ningbo	-11.5687
▁cardboard	-11.5688
▁freedom	-11.5688
▁counsel	-11.5688
▁dominance	-11.5688
▁tangible	-11.569
ey	-11.569
▁naval	-11.569
▁$0.01	-11.569
▁injection	-11.569
▁roller	-11.5691
▁storm	-11.5692
▁artwork	-11.5693
▁twh	-11.5693
▁prof	-11.5696
pi	-11.5696
▁meantime	-11.5696
▁antam	-11.57
▁exceptionally	-11.5705
fo	-11.5707
2)	-11.5711
▁ann	-11.5714
,520	-11.5719
stage	-11.5723
▁2,250	-11.573
▁movers	-11.5732
▁frank	-11.5733
rm	-11.5745
▁examine	-11.5754
ounce	-11.5755
▁8.5	-11.5758
▁charles	-11.5759
▁hyderabad	-11.5759
▁depict	-11.5759
▁anglo	-11.5759
▁foremost	-11.5759
▁jeff	-11.5759
▁yarwun	-11.576
▁exploitation	-11.576
dr	-11.5764
▁gary	-11.5765
▁lee	-11.5766
,475	-11.5767
▁longstanding	-11.5768
aught	-11.5773
▁sponsors	-11.5776
▁resolved	-11.5778
▁tailings	-11.578
▁290	-11.5788
▁naturally	-11.5803
,775	-11.5805
▁shutdowns	-11.581
▁2006	-11.5812
link	-11.5814
▁pump	-11.5817
,640	-11.5823
▁berlin	-11.5825
▁pak	-11.5826
▁instrument	-11.5827
▁submission	-11.5827
6.8	-11.5828
▁reactor	-11.583
▁beam	-11.5831
▁dramatic	-11.5832
▁competing	-11.5832
▁mahindra	-11.5832
▁wrote	-11.5832
▁advice	-11.5832
▁quantum	-11.5833
▁$1.5	-11.5834
,920	-11.5836
▁refillable	-11.5837
▁safeguarding	-11.5843
▁csr	-11.5845
der	-11.5848
▁consultations	-11.5851
▁george	-11.5851
nan	-11.5865
bl	-11.5866
ay	-11.5869
border	-11.5873
2.7	-11.5884
ong	-11.5886
4/	-11.5886
▁acp	-11.5892
shi	-11.5893
▁gl	-11.5893
que	-11.5893
era	-11.5895
▁discipline	-11.5896
▁tea	-11.5897
▁6.9	-11.5898
▁survive	-11.5899
▁shops	-11.59
▁dc	-11.5903
▁detroit	-11.5905
▁synergy	-11.5905
7.5	-11.5905
▁fashion	-11.5906
▁ferry	-11.5907
▁celebrating	-11.5908
▁ion	-11.5911
.63	-11.5913
ov	-11.5913
ide	-11.5914
▁anhui	-11.5916
▁suffering	-11.5921
▁370	-11.5925
▁benefiting	-11.5925
.29	-11.5936
▁carrier	-11.5942
2.2	-11.5945
▁6.4	-11.5947
bank	-11.5948
▁po	-11.5951
140	-11.5952
▁ingredients	-11.5957
5/	-11.5964
.27	-11.5968
▁spa	-11.5968
▁struggle	-11.5969
▁rebate	-11.5977
▁hurdles	-11.5977
▁albanese	-11.5978
▁calderys	-11.5978
▁luggage	-11.5978
▁scalable	-11.5978
▁patrick	-11.5979
▁dated	-11.5979
▁circlebiz	-11.5979
▁hint	-11.598
▁advised	-11.598
▁|	-11.598
▁litter	-11.5981
ok	-11.5985
▁2015-16	-11.5985
▁slip	-11.5989
now	-11.5989
▁2003	-11.599
▁edges	-11.5991
▁lids	-11.5998
▁fluid	-11.5999
▁audio	-11.6
▁independence	-11.6006
▁revealing	-11.6008
ities	-11.6008
ori	-11.6011
.36	-11.6012
.99	-11.6016
▁mould	-11.6016
▁sar	-11.6018
borne	-11.6019
mobility	-11.6019
metallurgical	-11.6019
expected	-11.602
called	-11.602
ez	-11.6021
1,750	-11.6022
9.4	-11.6023
melting	-11.6025
▁smartphones	-11.6027
type	-11.6033
▁analyse	-11.6034
▁scenarios	-11.6035
▁$1.2	-11.6039
$50	-11.604
,275	-11.6045
▁reshape	-11.6045
ore	-11.6045
two	-11.6047
well	-11.6048
▁amazing	-11.6052
▁karmøy	-11.6052
▁optimum	-11.6052
▁prioritising	-11.6052
▁limestone	-11.6052
▁sachs	-11.6052
▁relation	-11.6053
▁harsh	-11.6053
▁chile	-11.6054
▁kitimat	-11.6054
▁thai	-11.6055
▁alcomet	-11.6056
▁staggering	-11.6056
▁poly	-11.6059
▁excluded	-11.606
▁indirectly	-11.6061
▁maximize	-11.6061
▁transporting	-11.6061
▁19,700	-11.6063
.94	-11.6072
▁ores	-11.6073
7,600	-11.6075
▁closes	-11.608
▁trace	-11.608
▁fu	-11.6081
▁spirits	-11.6084
▁patents	-11.6091
wheeler	-11.6091
▁motorcycles	-11.6091
▁stack	-11.6093
,075	-11.6094
bullish	-11.6094
voltage	-11.6094
ura	-11.6095
▁$11	-11.6096
even	-11.6097
▁2035	-11.6099
2020	-11.6103
went	-11.6106
gu	-11.6109
▁commit	-11.6111
▁suppress	-11.6115
▁dimensions	-11.6117
▁graphics	-11.6121
1.9	-11.6122
▁hopeful	-11.6125
merete	-11.6126
▁ciprián	-11.6127
▁blister	-11.6127
▁philosophy	-11.6127
▁interface	-11.6127
▁architect	-11.6128
▁prolonged	-11.6129
▁chemistry	-11.6129
▁sme	-11.6132
▁sortera	-11.6132
▁opposed	-11.6134
▁enduring	-11.6136
,480	-11.6142
ceo	-11.6143
▁guided	-11.615
1020	-11.615
▁70,000	-11.615
▁ver	-11.6152
▁deploying	-11.6155
inventories	-11.6169
european	-11.6171
▁climbs	-11.6172
▁screening	-11.6173
▁barr	-11.6175
1.2	-11.6177
meticulously	-11.6179
▁pl	-11.6179
▁soars	-11.6179
,180	-11.618
950	-11.6183
▁shield	-11.6185
▁1,750	-11.6186
’22	-11.6187
▁ceramics	-11.6189
▁electro	-11.6189
20/	-11.619
▁consume	-11.6195
,575	-11.6199
▁turkish	-11.6202
▁impairment	-11.6202
▁ch	-11.6202
▁crunch	-11.6204
▁corner	-11.6204
▁expense	-11.6205
▁twist	-11.6206
▁vale	-11.6207
▁pty	-11.6209
▁cp	-11.6212
▁lng	-11.6212
pplying	-11.6212
▁riding	-11.6216
build	-11.6216
▁austrian	-11.6217
▁else	-11.622
▁exchangers	-11.6221
nov	-11.6222
▁demanded	-11.6222
▁ne	-11.6228
▁contained	-11.623
.71	-11.6233
▁whereby	-11.6237
▁104	-11.6241
,210	-11.6242
▁caution	-11.6243
▁separated	-11.6243
▁diversifying	-11.6246
▁1,5	-11.6251
▁brock	-11.6255
0°	-11.6255
kar	-11.6256
▁(4	-11.6258
▁60-	-11.626
▁$16	-11.6261
▁unlocking	-11.6261
fer	-11.6267
▁assume	-11.627
amongst	-11.6271
▁bal	-11.6273
▁kerr	-11.6274
▁prince	-11.6276
110	-11.6276
possibly	-11.6278
▁dependency	-11.6278
▁longevity	-11.6278
▁negotiating	-11.6278
▁$500	-11.6278
▁intact	-11.6278
▁matalco	-11.6278
▁predominantly	-11.6279
▁virus	-11.628
▁levied	-11.628
▁milan	-11.6281
▁landing	-11.6285
10,000	-11.6295
1.4	-11.6297
▁renewal	-11.6309
▁breaks	-11.631
▁gu	-11.6315
▁inch	-11.6316
waiting	-11.6316
▁battle	-11.6321
shaped	-11.6321
▁feels	-11.6323
▁portal	-11.6324
maker	-11.6325
▁saf	-11.6326
▁5000	-11.6326
ani	-11.6326
.59	-11.6329
▁happens	-11.6333
▁eyeing	-11.6335
ups	-11.6341
▁tell	-11.6345
▁outlines	-11.6346
▁ethical	-11.6351
▁pixel	-11.6354
▁accumulation	-11.6354
▁exemplified	-11.6354
▁korba	-11.6354
▁police	-11.6354
▁depressed	-11.6355
▁adaptability	-11.6355
▁complementary	-11.6355
▁appreciation	-11.6355
▁stepping	-11.6356
▁compressed	-11.6357
▁generator	-11.6359
yan	-11.6359
▁6061	-11.6367
▁costly	-11.6369
▁rival	-11.6369
▁page	-11.6369
▁words	-11.6371
▁cfr	-11.6371
9,350	-11.6371
▁fairly	-11.6375
selling	-11.6379
▁founding	-11.6385
▁reporters	-11.6391
▁144	-11.6392
▁$40	-11.6393
▁az	-11.6394
▁msmes	-11.6396
warrant	-11.6398
ken	-11.64
▁spur	-11.6405
▁111	-11.6411
▁fears	-11.6412
.49	-11.6413
▁tasks	-11.6414
▁bolstering	-11.6418
▁mono	-11.6423
0.8	-11.6423
,940	-11.6425
▁distribute	-11.6425
▁evolve	-11.6427
gan	-11.643
▁supplement	-11.6431
▁henry	-11.6431
▁ahmed	-11.6431
▁curated	-11.6432
▁dy	-11.6432
▁cairn	-11.6434
.46	-11.6435
9,500	-11.6435
▁written	-11.6437
▁138	-11.6438
▁severely	-11.644
▁preferences	-11.6442
▁pillar	-11.6443
▁optimized	-11.6444
▁mild	-11.6446
▁bu	-11.6447
ach	-11.6455
▁102	-11.6464
packaging	-11.6476
busch	-11.6477
non	-11.6484
drive	-11.6496
7,500	-11.6501
6.2	-11.6502
▁para	-11.6507
▁shi	-11.6508
▁entries	-11.6509
▁intermediate	-11.6509
▁unfavourable	-11.6509
▁warehousing	-11.6509
▁clarity	-11.6509
▁routine	-11.6509
▁definitely	-11.6509
▁death	-11.6509
▁trivium	-11.651
▁ben	-11.6513
▁dream	-11.6514
975	-11.6517
▁jisco	-11.6518
▁20,200	-11.652
▁allies	-11.6521
▁specializes	-11.6532
▁pair	-11.6538
▁107	-11.6538
▁tooling	-11.6541
,410	-11.6546
▁aside	-11.6546
gate	-11.6549
dollar	-11.6554
▁disrupt	-11.6554
▁passing	-11.6557
road	-11.6557
▁”	-11.6558
▁energi	-11.6559
▁dividends	-11.6563
row	-11.6573
▁acer	-11.6573
▁magnet	-11.6576
▁concludes	-11.6577
▁honor	-11.6577
▁formats	-11.6578
▁packing	-11.6582
hours	-11.6582
▁causes	-11.6582
▁fatigue	-11.6587
▁honeycomb	-11.6587
▁morocco	-11.6587
▁unmatched	-11.6587
▁qinghai	-11.6587
▁feasible	-11.6587
▁methodology	-11.6587
▁plateau	-11.6587
▁classified	-11.6589
▁modified	-11.659
▁sugar	-11.6591
▁bayer	-11.6594
ism	-11.6595
▁fruit	-11.6595
▁minda	-11.6599
▁hon	-11.66
,525	-11.6604
,625	-11.6606
▁134	-11.6606
▁5.9	-11.6607
proving	-11.6609
▁sealing	-11.6616
▁independently	-11.6618
6,600	-11.662
▁objects	-11.6627
reliant	-11.6632
▁lo	-11.6636
,610	-11.6636
8,750	-11.6638
lan	-11.6639
processing	-11.6648
▁educate	-11.6649
▁390	-11.6658
▁billiton	-11.6666
▁meadow	-11.6666
▁prowess	-11.6666
▁fabric	-11.6666
▁accus	-11.6666
▁thinner	-11.6666
▁trophy	-11.6667
▁grey	-11.6667
▁spectro	-11.6668
▁praised	-11.6669
▁periods	-11.6675
▁horizon	-11.6675
▁fabricator	-11.6678
▁parker	-11.6686
▁alike	-11.669
,670	-11.6694
ina	-11.67
▁stretch	-11.6705
▁boosts	-11.6707
▁vs	-11.6709
berg	-11.6709
development	-11.671
facility	-11.6712
ita	-11.6713
ye	-11.6718
▁enclosures	-11.672
▁bir	-11.6721
▁kick	-11.6722
ding	-11.6723
▁($1	-11.6725
▁symbol	-11.6728
▁pr	-11.6729
solar	-11.6731
▁magnets	-11.6737
▁surprise	-11.6737
▁2012,	-11.6738
2016	-11.6739
av	-11.674
▁theoretical	-11.6742
100/	-11.6744
▁protected	-11.6745
▁alouette	-11.6745
▁antaike	-11.6745
▁clarified	-11.6745
▁fenestration	-11.6745
▁leather	-11.6745
▁luxembourg	-11.6745
▁pavilion	-11.6745
▁0.07	-11.6745
▁traceability	-11.6745
▁restoration	-11.6745
▁worker	-11.6745
▁pullback	-11.6746
▁bangladesh	-11.6747
▁pledge	-11.6748
taining	-11.6748
▁conclude	-11.675
▁sanction	-11.6752
▁accomplishment	-11.6756
▁000	-11.6758
▁structured	-11.6761
formally	-11.6764
▁didn	-11.6765
cat	-11.6766
▁148	-11.6771
changer	-11.6777
▁bowl	-11.6783
▁treat	-11.6784
ets	-11.6786
.74	-11.68
fr	-11.6801
▁fin	-11.6807
▁137	-11.6807
▁asking	-11.6807
pm	-11.681
emissions	-11.6813
▁cab	-11.6814
▁wholesale	-11.6814
▁6.6	-11.6815
ence	-11.6817
▁yang	-11.6818
▁unexpected	-11.6823
▁interact	-11.6824
▁answer	-11.6824
▁decorative	-11.6825
▁exemplifies	-11.6825
▁meckering	-11.6825
▁utilities	-11.6825
▁anheuser	-11.6825
▁entertainment	-11.6825
▁irish	-11.6825
▁pretty	-11.6825
▁automatically	-11.6825
▁spacecraft	-11.6826
▁govern	-11.6826
▁continually	-11.6826
▁exhibitions	-11.6827
▁restarts	-11.683
8,600	-11.6833
▁mull	-11.6834
▁assorted	-11.6834
▁argued	-11.6836
▁fiber	-11.6836
.83	-11.6837
▁outlets	-11.6839
▁20,500	-11.6841
▁varying	-11.6844
▁6000	-11.6845
▁oct	-11.6846
▁widening	-11.6847
▁agrees	-11.685
▁ensured	-11.6851
▁23,000	-11.6859
▁132	-11.6862
▁modi	-11.6869
▁gaps	-11.6869
▁155	-11.6871
worth	-11.6873
▁har	-11.6875
▁sy	-11.6875
▁beat	-11.6877
▁128	-11.6878
▁11.5	-11.6878
▁tra	-11.6881
billet	-11.6885
ud	-11.6887
rn	-11.6894
▁underscored	-11.6897
▁alter	-11.6898
▁del	-11.6902
▁denotes	-11.6906
▁executing	-11.6906
▁invaluable	-11.6906
▁sodium	-11.6906
▁arbitrage	-11.6906
▁plasma	-11.6906
▁allotted	-11.6906
santee	-11.6906
▁cooperative	-11.6907
▁anywhere	-11.6907
▁wagons	-11.6907
▁greek	-11.6907
▁bronze	-11.691
▁shareholding	-11.6911
▁duration	-11.6911
▁filtration	-11.6913
▁directorate	-11.6913
á	-11.6919
▁stories	-11.6922
ei	-11.6931
fc	-11.6936
▁technologically	-11.6937
▁kilo	-11.6948
▁(1)	-11.695
od	-11.6951
▁shrinks	-11.6952
▁pact	-11.6953
6.7	-11.6956
ven	-11.6958
▁ki	-11.6959
▁103	-11.6959
,080	-11.6962
▁concepts	-11.6972
▁barge	-11.6973
jo	-11.6977
▁item	-11.6979
▁fyi	-11.698
▁149	-11.6985
veraging	-11.6986
▁stimulate	-11.6986
▁düsseldorf	-11.6987
▁identity	-11.6987
▁johor	-11.6987
▁florida	-11.6987
▁drastically	-11.6987
▁competence	-11.6987
▁boyne	-11.6987
▁parity	-11.6987
relating	-11.6988
▁alumetal	-11.6988
▁alumil	-11.6988
▁dte	-11.6991
▁noble	-11.6992
mr	-11.6993
▁tag	-11.6995
▁18,800	-11.6997
▁toxic	-11.6997
▁older	-11.7
▁19,900	-11.7
▁fertiliser	-11.7001
▁oz	-11.7007
▁iii	-11.7012
.89	-11.7014
▁2009,	-11.702
7,100	-11.7021
dustrialisation	-11.7021
▁mechanisms	-11.7022
▁captured	-11.7027
acre	-11.7028
▁$300	-11.7032
6.4	-11.7035
▁(2)	-11.7036
▁ku	-11.7039
ade	-11.7042
ltd	-11.7042
▁none	-11.7045
▁tall	-11.7047
▁succeed	-11.7048
▁turns	-11.7058
▁referr	-11.7066
hai	-11.7068
▁robots	-11.7068
▁brussels	-11.7069
▁moscow	-11.7069
▁predecessor	-11.7069
▁holistic	-11.7069
▁divergence	-11.7069
▁eurozone	-11.7069
▁wisconsin	-11.707
▁uneven	-11.707
▁league	-11.7071
,425	-11.7071
chi	-11.7071
6.9	-11.7072
▁remainder	-11.7072
▁convertible	-11.7072
▁divided	-11.7074
▁attached	-11.7074
▁parks	-11.7078
▁judge	-11.7079
▁configuration	-11.7085
▁statements	-11.7086
ér	-11.7088
ning	-11.7088
design	-11.7091
▁principle	-11.7092
▁rocket	-11.71
▁formerly	-11.7107
▁sha	-11.711
▁6.8	-11.7112
▁bridges	-11.7113
▁vendors	-11.7117
▁counterparts	-11.7117
▁420	-11.712
▁bottled	-11.7124
▁interiors	-11.7129
mill	-11.7131
rc	-11.7133
▁milling	-11.7133
▁mitigat	-11.7133
▁characteris	-11.7145
▁1,600	-11.7147
▁acceleration	-11.7152
▁karnataka	-11.7152
▁lawsuit	-11.7152
▁pinjarra	-11.7152
▁applies	-11.7152
▁ferrari	-11.7152
▁issuance	-11.7152
▁retirement	-11.7152
▁warrick	-11.7152
▁fellow	-11.7153
▁grinding	-11.7155
▁intake	-11.7157
▁swiftly	-11.7157
aai	-11.716
▁21%	-11.7166
▁speculation	-11.7168
▁warming	-11.7172
▁collector	-11.7172
▁utensils	-11.7178
▁cameras	-11.7182
▁flooding	-11.7183
▁28,000	-11.7183
door	-11.7185
▁dark	-11.7185
▁builders	-11.7186
ski	-11.7186
▁yielded	-11.7193
cher	-11.7193
mil	-11.7201
,220	-11.7201
plus	-11.7202
profile	-11.7202
▁tpy	-11.7203
▁concessions	-11.7207
tal	-11.7211
▁ce	-11.7211
ous	-11.7217
▁refund	-11.7217
▁$22	-11.7219
▁variations	-11.7221
9.5	-11.7227
gm	-11.7227
heat	-11.7231
▁indispensable	-11.7235
▁refrain	-11.7235
▁stunning	-11.7235
▁universities	-11.7235
▁craftsmanship	-11.7235
▁egyptian	-11.7236
navratna	-11.7236
▁impressed	-11.7237
▁navy	-11.7237
▁mutually	-11.7241
,930	-11.7241
▁pvc	-11.7246
▁dominate	-11.7249
▁7.2	-11.725
3.6	-11.725
,375	-11.7255
stream	-11.7255
▁venue	-11.7257
performing	-11.7262
par	-11.7264
,760	-11.7268
▁realisation	-11.727
org	-11.7273
▁rank	-11.7279
6,750	-11.7279
▁dispose	-11.7279
▁allegations	-11.7281
▁laying	-11.7282
▁majorly	-11.7283
developed	-11.7288
▁gi	-11.7289
7.4	-11.7296
▁id	-11.7297
▁illustrates	-11.7298
,325	-11.73
▁4000	-11.7303
,720	-11.7303
volume	-11.7314
,990	-11.7315
1/	-11.7315
▁incorporation	-11.7318
▁brandtzæg	-11.7319
▁arbitration	-11.7319
▁visakhapatnam	-11.732
3.3	-11.7321
▁11.6	-11.7322
▁towers	-11.7323
▁quest	-11.7326
▁qamco	-11.7327
▁withdraw	-11.7327
▁coors	-11.7329
ria	-11.733
1,100	-11.7331
▁band	-11.7333
,320	-11.7335
▁exclusion	-11.7338
▁crane	-11.734
▁reopening	-11.7341
▁consultants	-11.7343
,430	-11.7344
,280	-11.7344
▁1,400	-11.7346
▁eps	-11.7347
▁sorted	-11.7348
,860	-11.7349
▁stark	-11.7358
1.3	-11.736
▁benefited	-11.7363
australian	-11.7372
▁attend	-11.7376
▁rush	-11.7377
▁maximis	-11.7378
cutting	-11.7382
,025	-11.7382
▁133	-11.7385
20,000	-11.7387
hold	-11.7387
▁detect	-11.739
▁envision	-11.7393
▁1980	-11.7394
▁aerosols	-11.7394
▁perspectives	-11.7395
▁squeeze	-11.7396
▁lifetime	-11.7398
▁frequent	-11.7401
▁backlog	-11.7401
▁abdul	-11.7403
▁exist	-11.7404
▁galaxy	-11.7404
▁hamilton	-11.7404
▁peninsula	-11.7404
▁pottangi	-11.7404
▁shelves	-11.7404
▁stylish	-11.7404
▁twelve	-11.7404
▁taint	-11.7404
1%	-11.7404
▁2019-21	-11.7404
▁timber	-11.7404
▁refractories	-11.7405
▁skyrocketed	-11.7407
▁resist	-11.7407
▁capped	-11.7408
▁ja	-11.7411
▁cope	-11.7413
▁19,100	-11.7413
▁card	-11.7415
conjunction	-11.7416
▁1.05	-11.7418
▁gal	-11.7418
▁reaffirmed	-11.7419
.47	-11.7427
▁amendment	-11.7427
zhou	-11.7427
▁jim	-11.7436
1.6	-11.7445
6.3	-11.7447
▁encompass	-11.7452
white	-11.7456
▁$1.1	-11.7456
some	-11.7459
▁205	-11.7461
▁yu	-11.7464
▁claiming	-11.7465
designed	-11.7466
marc	-11.7476
▁118	-11.7476
vehicle	-11.7478
▁compromise	-11.7481
▁feb	-11.7488
▁paradigm	-11.7489
▁preservation	-11.7489
▁explicit	-11.7489
▁rubber	-11.7489
▁asahan	-11.7489
00,000	-11.749
▁birmingham	-11.749
▁hua	-11.7491
▁outotec	-11.7491
▁lotte	-11.7492
▁mc	-11.7493
▁reiterated	-11.7494
fall	-11.7502
▁19%	-11.7504
ens	-11.7505
▁counted	-11.7507
6.6	-11.7511
▁simulation	-11.7511
wall	-11.7511
▁139	-11.7516
imports	-11.7517
▁crystal	-11.7519
,680	-11.7519
-30	-11.7526
▁institution	-11.7527
▁0.20	-11.7532
▁2011,	-11.7532
▁bel	-11.7533
2.6	-11.754
established	-11.7546
fl	-11.7551
▁heading	-11.7563
0.6	-11.7564
▁tailor	-11.7565
▁ze	-11.7566
▁throw	-11.7567
.92	-11.7574
▁entrance	-11.7575
▁releasing	-11.7575
▁svein	-11.7575
▁billionaire	-11.7575
▁gerald	-11.7575
▁mundra	-11.7575
▁brownfield	-11.7575
▁download	-11.7576
▁classification	-11.7576
▁confirmation	-11.7576
▁welcoming	-11.7577
▁flash	-11.7577
▁language	-11.7577
▁geo	-11.758
▁~	-11.758
▁alf	-11.7581
1000	-11.7585
▁sr	-11.7585
▁safeguards	-11.7585
2.1	-11.7587
works	-11.7588
▁abr	-11.7588
▁eighth	-11.7591
▁fittings	-11.7593
▁anrak	-11.7593
▁doubt	-11.7599
▁integrates	-11.76
▁ingredient	-11.76
▁bonded	-11.7602
▁tonnage	-11.7602
▁valve	-11.7606
▁mis	-11.7608
▁quotations	-11.7611
bc	-11.7613
▁underpinn	-11.7617
▁uniquely	-11.7621
▁sits	-11.7625
▁650	-11.7625
delhi	-11.7629
1.7	-11.763
2018	-11.7631
thinking	-11.7635
260	-11.7637
▁vande	-11.7643
head	-11.7644
hy	-11.7646
tract	-11.7651
▁usb	-11.7652
▁representation	-11.7655
3,100	-11.7655
▁williams	-11.7656
▁0.05	-11.7656
▁expedite	-11.7657
.78	-11.766
▁disc	-11.766
▁atlanta	-11.7662
▁clientele	-11.7662
▁oplinger	-11.7662
▁paramount	-11.7662
▁gateway	-11.7662
▁penetration	-11.7663
▁email	-11.7663
▁nadu	-11.7663
▁choosing	-11.7664
▁bridgnorth	-11.7665
,070	-11.7675
▁cba	-11.7678
▁smarter	-11.7678
▁1.14	-11.7683
▁wild	-11.7685
▁write	-11.7686
▁hair	-11.7686
▁transformers	-11.7687
▁qualification	-11.7688
▁recommendation	-11.769
▁indicator	-11.769
launches	-11.7691
▁tvs	-11.7691
▁mounted	-11.7695
▁codes	-11.7697
▁bahraini	-11.7697
▁minute	-11.7699
▁108	-11.7701
,490	-11.7701
▁checks	-11.7705
,440	-11.7713
▁stakes	-11.7722
▁1.04	-11.773
▁$1.3	-11.7731
▁coup	-11.7736
gr	-11.7737
▁rent	-11.7737
▁123	-11.7738
premium	-11.7743
▁pharmaceuticals	-11.7745
▁dingsheng	-11.775
▁expansive	-11.775
▁kalahandi	-11.775
▁vulnerable	-11.775
▁investigating	-11.775
▁incurred	-11.775
▁nordic	-11.7751
eivind	-11.7753
▁herzegovina	-11.7753
ists	-11.7754
qfy	-11.7754
▁reciprocal	-11.7756
▁arranged	-11.7757
▁crushing	-11.7759
▁20,600	-11.7763
rk	-11.7764
▁$2.5	-11.7769
▁leaves	-11.7771
ane	-11.7771
▁alert	-11.7777
▁cmi	-11.7778
▁cosmetic	-11.7778
▁enclosure	-11.7778
▁vap	-11.778
2.4	-11.7782
▁wrap	-11.7784
▁monitored	-11.7786
rt	-11.7786
▁bull	-11.7789
▁0.25	-11.7792
▁kinds	-11.7797
32,	-11.7797
▁attempts	-11.7803
service	-11.7804
▁incidents	-11.7805
ebitda	-11.7806
induced	-11.7811
,725	-11.7813
▁12.5	-11.7814
,040	-11.7816
wto	-11.7818
ible	-11.7822
▁5,500	-11.7824
ped	-11.7826
▁farms	-11.7827
max	-11.783
▁paste	-11.7831
▁clark	-11.7832
▁6.0	-11.7833
▁den	-11.7835
▁excessive	-11.7836
▁beneficiation	-11.7838
▁jordan	-11.7838
▁welfare	-11.7838
▁0.03	-11.7838
▁wiring	-11.7839
▁tamil	-11.7839
▁accommodation	-11.7839
▁0.3%	-11.7839
▁redirect	-11.7839
▁pyrogenesis	-11.784
▁rajasthan	-11.784
▁pumps	-11.7843
▁visionary	-11.7843
▁kap	-11.7846
▁0.11	-11.7846
4.9	-11.7847
▁disciplined	-11.7848
▁20,800	-11.785
▁compliant	-11.7861
▁tried	-11.7863
▁3,250	-11.787
▁agent	-11.7873
▁scored	-11.7873
500/	-11.7874
4.4	-11.7876
1.1	-11.7877
▁rakes	-11.7879
▁thinks	-11.7881
▁sh	-11.7881
▁7.3	-11.7882
▁fr	-11.7889
scandium	-11.7895
▁phased	-11.7898
▁ess	-11.7911
▁bc	-11.7912
.34	-11.7922
▁defend	-11.7928
▁damanjodi	-11.7928
▁electrified	-11.7928
▁necessity	-11.7928
▁sherwin	-11.7928
▁android	-11.7928
▁juice	-11.7928
▁undergone	-11.7928
▁payload	-11.7929
▁detection	-11.7929
▁apex	-11.7929
▁breakdown	-11.7929
▁balancing	-11.7929
▁capturing	-11.793
▁pi	-11.7932
▁aerobal	-11.7935
.39	-11.7935
▁bud	-11.7935
▁widened	-11.7939
▁tug	-11.7941
▁smoothly	-11.7942
▁au	-11.7943
▁anyone	-11.7943
▁187	-11.7943
▁(+	-11.7952
,960	-11.7953
.82	-11.7957
propelling	-11.7958
▁incremental	-11.7958
▁90,000	-11.7959
▁obligation	-11.7959
▁52-	-11.7962
,980	-11.7962
▁manifest	-11.7967
▁sino	-11.7978
pandemic	-11.7985
however	-11.7986
three	-11.7986
▁mwh	-11.7986
▁offload	-11.7992
2,250	-11.7993
▁$17	-11.7993
▁painting	-11.7997
▁lend	-11.8003
▁inflow	-11.8006
▁generators	-11.8012
5,750	-11.8013
▁$90	-11.8014
▁nyinahin	-11.8015
extrusion	-11.8016
▁agility	-11.8018
▁götz	-11.8018
▁muscle	-11.8018
▁resemble	-11.8018
▁commencing	-11.8018
▁utmost	-11.8018
115	-11.8019
▁minority	-11.8019
▁regardless	-11.8021
▁0.08	-11.8024
▁grace	-11.8024
▁emea	-11.8026
▁loads	-11.8026
▁pulse	-11.8027
▁housings	-11.8028
$34	-11.8031
▁18,600	-11.8034
▁permitting	-11.8035
.58	-11.8037
▁18,500	-11.804
ett	-11.8043
▁approx	-11.8043
▁footprints	-11.8045
▁refiner	-11.8049
5.8	-11.8055
▁soar	-11.8059
hl	-11.8066
3,600	-11.807
aec	-11.8072
▁mena	-11.8072
▁9.8	-11.8076
▁functioning	-11.8077
▁gauges	-11.808
▁1.02	-11.8082
▁nm	-11.8087
▁emits	-11.81
▁ti	-11.8105
▁universal	-11.8106
▁culminat	-11.8108
▁cushion	-11.8109
▁accessibility	-11.8109
▁bottling	-11.8109
▁continuation	-11.8109
▁excellency	-11.8109
▁koraput	-11.8109
▁tajikistan	-11.8109
▁yamaha	-11.8109
▁thread	-11.8109
▁petrol	-11.8109
▁permitted	-11.8109
centric	-11.811
▁deepen	-11.811
▁ecovadis	-11.8111
▁formulated	-11.8111
▁endlessly	-11.8111
▁underground	-11.8112
.38	-11.8113
▁database	-11.8116
,820	-11.8118
▁compare	-11.8118
▁tightened	-11.812
part	-11.8121
▁sl	-11.8122
▁18,900	-11.8124
▁talked	-11.813
▁warranty	-11.8131
▁xiaomi	-11.8141
▁downtime	-11.8141
▁iv	-11.8142
gac	-11.8146
▁reliant	-11.8147
,825	-11.8154
▁ct	-11.8157
▁pioneers	-11.8162
▁595	-11.8165
▁evening	-11.8166
▁cc	-11.8169
▁lean	-11.8177
▁narrowing	-11.8177
pt	-11.8181
7.9	-11.8181
▁bob	-11.8183
9,250	-11.8184
king	-11.8195
▁reviewing	-11.8198
▁careful	-11.8199
attributing	-11.8201
▁bourse	-11.8201
▁chunk	-11.8201
▁microsoft	-11.8201
▁decarbonize	-11.8201
▁horizontal	-11.8201
▁adventure	-11.8201
▁angeles	-11.8201
▁inflate	-11.8202
▁manchester	-11.8202
▁gravity	-11.8202
▁stellantis	-11.8202
$32	-11.8202
▁swisstek	-11.8203
▁contractual	-11.8203
▁communicated	-11.821
▁173	-11.8211
▁widen	-11.8211
gas	-11.8223
▁sealed	-11.8223
▁stemm	-11.8226
▁uni	-11.8227
7.7	-11.823
▁difficulty	-11.8231
▁conversation	-11.8237
▁protocol	-11.8237
▁lin	-11.8237
▁briefing	-11.8237
ron	-11.824
▁1,700	-11.8242
▁2,400	-11.8242
ü	-11.8242
▁(5	-11.8252
▁booming	-11.8254
▁curbs	-11.8257
▁reopen	-11.8259
feasibility	-11.826
8.7	-11.8262
▁responding	-11.8263
city	-11.8264
▁facilitated	-11.8268
▁sop	-11.8269
▁headed	-11.8273
▁specializ	-11.8283
▁repeat	-11.8284
▁belief	-11.8293
▁catamaran	-11.8293
▁elegant	-11.8293
▁gramercy	-11.8293
▁consent	-11.8293
▁disaster	-11.8293
▁incurring	-11.8293
▁atewa	-11.8293
▁beacon	-11.8293
▁supervision	-11.8294
▁commendable	-11.8294
▁tapan	-11.8295
▁giga	-11.8295
▁340	-11.8296
▁bechtel	-11.8297
ably	-11.8298
▁prevention	-11.83
▁dragge	-11.8306
▁broadly	-11.8307
▁continents	-11.8308
1,350	-11.8309
30/	-11.8313
▁mrai	-11.8313
▁tenders	-11.8314
working	-11.8317
▁11.1	-11.8317
:00	-11.8321
ao	-11.8322
▁koon	-11.8323
effect	-11.8342
▁calculations	-11.8342
▁bl	-11.8343
je	-11.8348
oz	-11.8355
▁(20	-11.8358
▁hy	-11.8363
higher	-11.8364
▁fix	-11.8365
▁tighten	-11.8366
vis	-11.8366
▁beers	-11.8381
▁und	-11.8382
▁foods	-11.8385
▁web	-11.8385
▁unveiling	-11.8386
▁melbourne	-11.8387
▁royalties	-11.8387
▁oxidation	-11.8387
▁interactive	-11.8387
▁plunges	-11.8388
▁ser	-11.839
▁assemblies	-11.8392
▁sweeping	-11.8392
▁timeframe	-11.8393
▁jo	-11.8394
▁acts	-11.8394
▁tumbled	-11.8394
▁succeeded	-11.8399
▁dx	-11.8399
▁2.5%	-11.8399
▁shaw	-11.84
sch	-11.8402
▁2009.	-11.8406
▁164	-11.8407
▁jin	-11.8414
▁trip	-11.8416
2,850	-11.8417
6,100	-11.8419
,675	-11.8421
2.9	-11.8422
▁calciner	-11.8425
▁palm	-11.8425
nes	-11.8425
▁seltzer	-11.8425
▁sedan	-11.8426
▁restriction	-11.8429
-3-	-11.8432
oh	-11.8434
are	-11.8436
6.1	-11.8438
▁tend	-11.844
▁drill	-11.8446
critical	-11.8448
russian	-11.8452
-2023-	-11.8453
60/	-11.8456
▁mah	-11.8459
9.3	-11.846
▁$1.4	-11.8462
▁separat	-11.8463
▁establishe	-11.8467
.98	-11.8467
▁accomplish	-11.8468
▁exploit	-11.8469
revolutionising	-11.847
operation	-11.8471
▁appealing	-11.8475
spite	-11.8476
9,750	-11.8477
▁incessant	-11.8478
▁residues	-11.8479
▁spreads	-11.848
▁shenhuo	-11.8481
▁legislative	-11.8481
▁polestar	-11.8481
▁geology	-11.8481
▁readily	-11.8481
▁predictive	-11.8481
▁municipality	-11.8481
▁mecfor	-11.8482
▁shutting	-11.8482
▁maturity	-11.8482
▁0.02	-11.8482
▁outreach	-11.8483
▁citic	-11.8484
▁noticeable	-11.8485
▁0.01	-11.8485
▁subsidized	-11.8486
▁films	-11.8486
▁danieli	-11.8487
▁uplift	-11.8487
▁dependable	-11.8487
.13	-11.8489
▁loose	-11.8493
▁accidents	-11.85
▁1.06	-11.8503
5.5	-11.8503
▁nbs	-11.8508
▁hop	-11.851
▁2,700	-11.851
4.8	-11.8511
▁$14	-11.8513
▁55,000	-11.8514
▁suvs	-11.8514
▁attained	-11.8516
▁dow	-11.8519
▁bua	-11.8519
▁1,800	-11.8524
▁114	-11.8525
0.9	-11.8527
mah	-11.8531
▁villages	-11.8538
▁$23	-11.8538
▁metrics	-11.854
▁enabler	-11.8545
7,250	-11.8545
▁raj	-11.8546
2.8	-11.8547
pet	-11.8556
▁sheds	-11.8559
both	-11.8562
,175	-11.8563
tl	-11.8567
▁slumps	-11.8568
▁129	-11.8569
▁forgings	-11.8574
▁ian	-11.8575
▁achenbach	-11.8576
▁ancillary	-11.8576
▁brisbane	-11.8576
▁deliberate	-11.8576
▁streamlining	-11.8576
▁adherence	-11.8576
▁levies	-11.8576
▁validation	-11.8577
▁patra	-11.8577
▁0.4%	-11.8577
▁scratch	-11.8578
▁modelling	-11.858
▁absolutely	-11.8582
▁maxion	-11.8582
▁700,000	-11.8583
▁capitalisation	-11.8584
▁explain	-11.8584
ola	-11.8585
▁109	-11.8588
▁louis	-11.8589
▁corona	-11.8593
mon	-11.8593
▁brew	-11.8593
▁trending	-11.8594
▁45%	-11.8597
ative	-11.8598
▁talented	-11.8605
5.6	-11.8605
▁breakthroughs	-11.8606
wheelers	-11.8608
ira	-11.861
atuk	-11.861
▁recovers	-11.861
3.9	-11.8613
▁recognize	-11.8614
half	-11.8614
▁7.7	-11.8616
▁variable	-11.8618
-2-	-11.8619
cash	-11.8622
▁rewards	-11.8623
▁5.0	-11.8624
▁bidder	-11.8625
▁€3	-11.8628
▁clearances	-11.8628
▁1.12	-11.863
dip	-11.863
5.4	-11.8632
manufacturing	-11.8637
controlled	-11.8638
glass	-11.8639
7.6	-11.864
1.8	-11.8642
.61	-11.8643
7/	-11.8645
▁collects	-11.8647
kwh	-11.865
,470	-11.8657
▁bounce	-11.8667
$3,4	-11.8669
6,900	-11.8669
▁specify	-11.8672
▁invention	-11.8672
▁storing	-11.8672
▁ethos	-11.8672
▁creek	-11.8672
▁rainfall	-11.8672
▁perhaps	-11.8673
▁favorable	-11.8673
▁digestion	-11.8673
▁native	-11.8673
▁cues	-11.8673
▁116	-11.8675
narendra	-11.8677
▁acknowledges	-11.8677
▁insulated	-11.8679
▁floated	-11.868
▁glad	-11.868
▁124	-11.8681
102)	-11.8685
0.7	-11.8686
▁reed	-11.8686
arl	-11.8687
▁rebuild	-11.8688
▁intensifying	-11.8693
▁fe	-11.8698
“	-11.8702
▁schedules	-11.8702
▁reflection	-11.8704
▁licenses	-11.8704
,910	-11.871
-2022-	-11.8711
,925	-11.8719
$100	-11.872
ren	-11.872
val	-11.8724
▁shredder	-11.8724
70/	-11.8724
tz	-11.8725
▁visits	-11.8729
hs	-11.8729
degree	-11.8736
▁cha	-11.8737
,770	-11.8741
▁apt	-11.8742
▁0.27	-11.8743
san	-11.8745
wo	-11.8746
▁vis	-11.8748
▁3.38	-11.875
▁leone	-11.8752
shan	-11.8756
2.3	-11.8757
▁repairs	-11.8766
▁kelly	-11.8769
▁laboratories	-11.8769
▁pleasure	-11.8769
▁rayagada	-11.8769
▁bonnell	-11.8769
▁denko	-11.877
▁refinance	-11.877
▁futuristic	-11.8771
▁2014-15	-11.8772
▁metalmatters	-11.8776
▁26%	-11.8777
▁wastewater	-11.8778
mac	-11.8778
,975	-11.8779
▁stocking	-11.878
▁gra	-11.878
▁restora	-11.8781
▁hear	-11.8781
▁foray	-11.8783
▁unions	-11.8789
▁brakes	-11.8792
▁ideally	-11.8792
,160	-11.8794
▁€2	-11.8797
▁146	-11.88
▁evo	-11.88
▁booked	-11.8805
▁$150	-11.8809
▁enthusiastic	-11.881
▁protest	-11.8812
▁cleared	-11.8814
▁object	-11.8815
▁livelihood	-11.8816
9,100	-11.8817
▁1.08	-11.8818
3.7	-11.8819
▁additions	-11.882
▁inks	-11.8821
fin	-11.8822
▁eng	-11.8826
entrepreneurship	-11.8826
▁430	-11.8827
▁carton	-11.8831
▁renew	-11.8833
construction	-11.8833
approximately	-11.8834
inalum	-11.8838
3,750	-11.8839
780	-11.884
95,000	-11.8841
▁cranes	-11.8844
eng	-11.8851
3,800	-11.8852
▁conditioning	-11.8855
▁feeling	-11.8859
▁mall	-11.8859
▁das	-11.8859
▁tc	-11.886
▁2017-18	-11.8861
▁akufo	-11.8867
▁heineken	-11.8867
▁testimony	-11.8867
▁kevin	-11.8868
▁coordination	-11.8868
8/	-11.8868
▁jewellery	-11.8869
▁examples	-11.8869
▁mississippi	-11.8869
▁certainty	-11.8869
▁evtec	-11.887
▁accountability	-11.8871
▁formability	-11.8871
▁wrapped	-11.8872
▁overhaul	-11.8872
▁18,300	-11.8876
▁1.18	-11.8877
▁fulfilling	-11.8878
you	-11.8878
▁atomic	-11.8879
▁regularly	-11.8879
▁aug	-11.8879
sc	-11.8879
▁20,900	-11.8886
▁2307	-11.8887
▁catch	-11.8887
.72	-11.889
▁imidro	-11.8896
▁grip	-11.8899
▁1,300	-11.8904
ima	-11.8908
▁stem	-11.8909
▁enjoyed	-11.891
▁modes	-11.891
▁brewer	-11.8914
▁whom	-11.8916
▁distributors	-11.8918
▁newer	-11.8923
▁tray	-11.8925
7,900	-11.8929
▁initiat	-11.8934
usgs	-11.8934
gra	-11.8934
.0%	-11.8935
▁peace	-11.8938
reports	-11.8938
environmental	-11.8944
▁flying	-11.8944
▁wage	-11.8946
▁275	-11.8949
eco	-11.895
▁ask	-11.8956
,810	-11.8961
▁cho	-11.8965
▁bri	-11.8966
▁germain	-11.8966
▁nitride	-11.8966
▁harbor	-11.8966
▁braking	-11.8966
▁petcoke	-11.8967
▁sheikh	-11.8967
▁refinancing	-11.8967
▁sitting	-11.8967
▁tapping	-11.8967
▁maiden	-11.8967
hard	-11.8967
▁turnkey	-11.8967
▁basically	-11.8967
▁hvac	-11.8972
▁endorse	-11.8977
▁imf	-11.8977
▁negotiated	-11.8978
▁permanently	-11.8978
▁stamping	-11.8979
▁usmca	-11.8979
▁180,000	-11.8979
);	-11.8984
▁hosting	-11.8985
lab	-11.8985
▁1200	-11.8985
▁exempted	-11.8985
▁assisting	-11.8986
▁nio	-11.8987
▁reward	-11.8988
▁accurately	-11.8991
sson	-11.8992
5.9	-11.8993
▁researcher	-11.8994
▁sciences	-11.8995
▁guaranteed	-11.8995
yr	-11.8996
▁kan	-11.9
▁warm	-11.9001
plates	-11.9003
rated	-11.9007
2,600	-11.9008
▁560	-11.9012
▁counting	-11.9012
▁va	-11.9013
▁wages	-11.9016
-11	-11.9017
▁guest	-11.9018
▁linkage	-11.9019
▁hospitals	-11.9022
xin	-11.9026
▁branding	-11.9026
grows	-11.9027
▁ac	-11.9027
▁lion	-11.9029
sk	-11.9032
0,100	-11.9033
best	-11.9046
▁explorer	-11.9047
▁burn	-11.9048
▁coincide	-11.9051
▁wonder	-11.9058
▁trouble	-11.906
▁bloc	-11.9064
▁ale	-11.9065
incl	-11.9066
▁advertising	-11.9066
▁kleinfeld	-11.9066
▁purification	-11.9066
▁cardiff	-11.9066
▁dinner	-11.9067
rahul	-11.9067
▁alteration	-11.9067
▁supervisory	-11.9069
aki	-11.9069
▁polluting	-11.907
▁scene	-11.9074
bra	-11.9076
▁ppg	-11.9077
▁poses	-11.9078
▁han	-11.908
addo	-11.908
▁normally	-11.9082
▁eeg	-11.9083
▁xin	-11.9086
▁440	-11.9094
▁army	-11.9099
▁decreases	-11.91
▁economical	-11.91
▁bald	-11.9109
burg	-11.9111
using	-11.9115
▁painted	-11.9115
▁indication	-11.9119
▁domain	-11.9119
▁imbalance	-11.9119
▁printer	-11.9125
▁forever	-11.9125
▁habits	-11.9128
▁msme	-11.9129
▁119	-11.9129
%),	-11.9131
company	-11.9134
century	-11.9134
6,200	-11.9135
ob	-11.9137
▁10.5	-11.9144
130	-11.9147
ali	-11.916
▁mon	-11.916
8.5	-11.916
104)	-11.9162
▁$24	-11.9164
▁2016-17	-11.9164
▁arizona	-11.9167
▁cockpit	-11.9167
▁magnitude	-11.9167
▁ventilation	-11.9167
▁boffa	-11.9167
▁masdar	-11.9167
▁stefan	-11.9167
▁charity	-11.9168
▁retaliation	-11.9168
▁dairy	-11.9168
▁chairperson	-11.9168
▁unrest	-11.9168
7.2	-11.9169
▁pittsburgh	-11.917
▁lenders	-11.917
▁concord	-11.9171
▁orange	-11.9171
▁fo	-11.9173
$3,1	-11.9173
▁nominal	-11.9174
▁1995	-11.9175
▁ri	-11.9178
138	-11.9178
▁lotus	-11.9185
▁busy	-11.9185
▁1.16	-11.9187
.91	-11.9188
▁inbev	-11.9189
med	-11.9189
▁0.15	-11.919
▁refreshing	-11.919
▁discussing	-11.9194
▁suggestions	-11.9195
▁lending	-11.9195
usa	-11.9198
320	-11.9198
▁moulding	-11.9201
220	-11.9203
▁tab	-11.9204
▁spurr	-11.9205
▁viva	-11.9207
stone	-11.9209
jason	-11.9213
▁missed	-11.9215
▁enhancements	-11.9217
▁define	-11.9219
▁threshold	-11.9222
▁withdrawal	-11.9225
▁40-	-11.9225
▁yields	-11.9227
▁advocat	-11.923
▁tackl	-11.9234
▁avenue	-11.9236
▁eric	-11.9238
▁7.8	-11.9239
▁lime	-11.924
8.9	-11.9247
▁147	-11.9248
▁feeding	-11.9249
▁seco	-11.925
▁rails	-11.925
▁cal	-11.9251
▁mold	-11.9253
grid	-11.9256
force	-11.9261
▁differences	-11.9267
pak	-11.9268
▁missing	-11.9269
madhya	-11.9269
▁plunging	-11.9269
▁subscription	-11.9269
▁impossible	-11.927
▁kamsar	-11.927
▁cider	-11.927
▁simard	-11.927
▁sultanate	-11.927
▁authorised	-11.927
▁cake	-11.927
▁foreseeable	-11.927
▁substitution	-11.9271
▁leases	-11.9271
▁heidi	-11.9271
▁pierre	-11.9273
▁adversely	-11.9276
▁170,000	-11.9279
▁separators	-11.9281
▁21,800	-11.9281
▁attack	-11.9282
▁22%	-11.9282
▁experiment	-11.929
2,200	-11.9292
record	-11.9292
tariff	-11.9293
▁metallica	-11.9293
▁complaints	-11.9296
▁2027,	-11.9303
last	-11.9303
▁casthouses	-11.9304
▁technicians	-11.9304
▁melted	-11.9307
▁iot	-11.931
4.6	-11.9313
▁8.7	-11.9315
▁$21	-11.9318
▁pays	-11.9321
▁command	-11.9322
eg	-11.9324
▁interaction	-11.9327
▁escalate	-11.9328
8.8	-11.933
▁26,000	-11.9331
00+	-11.9332
dal	-11.9332
▁sag	-11.9336
▁michel	-11.9338
international	-11.934
▁7.1	-11.9346
around	-11.9346
▁screens	-11.9347
▁0.21	-11.9349
▁bintan	-11.9351
ow	-11.9352
▁onwards	-11.9356
▁vary	-11.9358
▁stabilize	-11.9365
▁seize	-11.9368
▁klaus	-11.9373
▁macquarie	-11.9373
▁unemployment	-11.9373
▁hiring	-11.9373
▁analyses	-11.9373
▁steelworkers	-11.9374
.73	-11.9374
eh	-11.9375
▁slovalco	-11.9375
▁satisfied	-11.9375
▁repurposed	-11.9375
▁eos	-11.9376
▁alcohol	-11.9376
▁jain	-11.9378
▁ace	-11.9379
▁gift	-11.9381
▁350,000	-11.9382
fill	-11.9382
duct	-11.9383
▁nick	-11.9383
2,100	-11.9385
▁swap	-11.9387
▁cruise	-11.9392
▁harnessing	-11.9395
▁settings	-11.9398
▁derivatives	-11.94
▁shine	-11.9401
ert	-11.9405
▁adjusting	-11.9408
eur	-11.9408
▁166	-11.9409
▁handled	-11.9412
▁167	-11.9415
▁innovators	-11.9415
,125	-11.9418
▁alan	-11.9418
▁2028.	-11.9422
-2021	-11.9424
▁shorter	-11.9427
▁poll	-11.9427
▁garden	-11.9431
cent	-11.9431
▁corridor	-11.9431
▁215	-11.9433
9.8	-11.9434
▁outflow	-11.9436
▁subjected	-11.9437
▁obstacles	-11.9443
▁1500	-11.9443
respective	-11.9444
▁matching	-11.9444
crore	-11.9445
produced	-11.9448
▁sw	-11.9452
▁cards	-11.9454
▁waves	-11.9455
▁142	-11.9457
del	-11.9461
esh	-11.9463
▁1.07	-11.9465
▁citi	-11.9473
▁2,600	-11.9473
▁flex	-11.9476
▁entitle	-11.9476
▁successive	-11.9477
▁computing	-11.9477
▁lorin	-11.9477
▁taylor	-11.9477
▁montreal	-11.9477
▁narrative	-11.9477
▁readiness	-11.9477
▁diplomatic	-11.9477
▁jsw	-11.9477
▁suzhou	-11.9477
▁proposition	-11.9477
▁gender	-11.9477
▁highway	-11.9477
▁queen	-11.9477
mu	-11.9477
▁sunlight	-11.9478
▁mayer	-11.9479
▁carriers	-11.948
▁sit	-11.948
▁befesa	-11.9481
▁frequently	-11.9481
▁alucam	-11.9481
▁vinacomin	-11.9482
▁refused	-11.9483
▁donated	-11.9484
▁shedding	-11.9485
▁stays	-11.9486
▁repeated	-11.9486
▁21,100	-11.9486
▁18,400	-11.9488
ular	-11.9492
’23	-11.9502
▁1.27	-11.9503
▁jar	-11.9504
▁documented	-11.9507
9,600	-11.9508
▁meticulous	-11.9509
▁born	-11.951
▁midal	-11.9515
▁0.22	-11.9517
only	-11.9518
df	-11.9523
▁recommend	-11.9526
▁alternate	-11.9527
175	-11.9528
.31	-11.9528
▁mature	-11.9531
▁seating	-11.9531
▁tradition	-11.9534
craft	-11.9535
▁scientist	-11.9539
▁innovator	-11.9541
ena	-11.9543
registered	-11.9551
highest	-11.9551
farm	-11.9552
160	-11.9553
▁megawatt	-11.9557
▁ky	-11.9566
▁sincere	-11.9571
▁pause	-11.9576
ago	-11.9577
▁minimiz	-11.958
▁attitude	-11.9582
▁burgeoning	-11.9582
▁fuselage	-11.9582
▁gasoline	-11.9582
▁limerick	-11.9582
▁degradation	-11.9582
▁banned	-11.9583
▁122	-11.9583
▁examination	-11.9584
lf	-11.9584
▁collision	-11.9584
5.7	-11.9585
▁convinced	-11.9585
▁offsetting	-11.9586
▁eminent	-11.9589
▁encountered	-11.9592
▁impactful	-11.9592
▁observes	-11.9596
▁sanctioned	-11.9597
▁threats	-11.9597
▁bearing	-11.9597
▁cooking	-11.96
▁smb	-11.9607
▁frameworks	-11.9608
▁restored	-11.9608
tron	-11.9608
8,700	-11.961
▁planes	-11.9613
▁chen	-11.9614
uc	-11.9616
notch	-11.9616
▁pond	-11.9623
▁respected	-11.9625
▁0.33	-11.9626
139	-11.9631
clean	-11.9638
▁2010,	-11.9639
▁fer	-11.9641
▁kar	-11.9642
▁senator	-11.9645
▁iit	-11.9646
▁capacitor	-11.9651
brand	-11.9651
unit	-11.9651
▁1970	-11.9652
▁libs	-11.9655
headquartered	-11.9655
▁refresh	-11.9665
step	-11.9668
▁haven	-11.9672
425	-11.9673
▁alloying	-11.9673
open	-11.9674
▁usher	-11.9675
▁textiles	-11.9679
▁afford	-11.9687
sufficiency	-11.9688
▁anticipating	-11.9688
▁husnes	-11.9688
▁procuring	-11.9688
▁rashid	-11.9688
▁sarawak	-11.9688
▁suzuki	-11.9688
optimizing	-11.9688
▁embodie	-11.9688
▁slaven	-11.9688
▁midlands	-11.9688
▁contrary	-11.9688
▁lord	-11.9689
▁agile	-11.9689
▁boke	-11.9689
▁sparklo	-11.9689
▁repayment	-11.9689
▁forth	-11.9689
▁wings	-11.9689
▁coordinator	-11.969
▁outdated	-11.9691
▁crossover	-11.9692
mat	-11.9693
▁quicker	-11.9697
▁900,000	-11.9698
▁assumed	-11.9699
uri	-11.97
zo	-11.9701
▁guiding	-11.9703
▁235	-11.9704
▁cl	-11.9704
▁weighted	-11.9708
▁completes	-11.9711
▁136	-11.9714
▁2028	-11.9714
emergence	-11.9724
park	-11.9725
load	-11.9725
▁exchanges	-11.9725
process	-11.9726
▁grappl	-11.9728
▁kam	-11.9731
▁kr	-11.9742
▁graduate	-11.9745
▁$35	-11.9748
▁recognizes	-11.975
▁departure	-11.9754
▁icra	-11.9756
▁hood	-11.9758
reliance	-11.9763
http	-11.9763
chairman	-11.9763
watch	-11.9764
32’	-11.9769
tinto	-11.9772
▁advocate	-11.9775
▁ken	-11.9782
90/	-11.9782
ix	-11.9783
every	-11.9786
9%	-11.9787
▁gun	-11.9792
▁pu	-11.9795
▁sovereign	-11.9796
▁bluetooth	-11.9796
▁geometry	-11.9796
▁bosai	-11.9796
▁precedent	-11.9796
▁species	-11.9796
▁sidelines	-11.9796
▁vietnamese	-11.9796
combustible	-11.9796
▁hospitality	-11.9797
▁avoiding	-11.9797
7.8	-11.9798
▁dicastal	-11.9798
▁reusing	-11.9798
▁complicated	-11.98
▁fusina	-11.98
▁definition	-11.9801
▁conveyed	-11.9801
▁postponed	-11.9802
▁looming	-11.9803
▁earmark	-11.9803
stand	-11.9804
▁annualized	-11.9804
▁mur	-11.9804
rolling	-11.9806
▁fimi	-11.9807
▁cradle	-11.9808
▁20,700	-11.9812
▁airlines	-11.9817
▁gram	-11.9824
▁peoples	-11.9824
▁inform	-11.9826
7.3	-11.9826
right	-11.9828
face	-11.9829
▁matched	-11.9831
jay	-11.9839
7,750	-11.9841
▁abhij	-11.9847
▁jumps	-11.9849
▁tribal	-11.9864
▁2025:	-11.9864
▁casing	-11.9865
▁brick	-11.9866
▁lei	-11.9867
▁foresees	-11.9867
▁emphasise	-11.987
giadec	-11.9871
which	-11.9872
jean	-11.9873
▁react	-11.9873
cell	-11.9875
-1-	-11.9878
475	-11.9878
nor	-11.9879
▁announcements	-11.988
such	-11.9887
▁matte	-11.9891
▁refer	-11.9891
690	-11.9893
▁echo	-11.9894
▁aspire	-11.9895
3,850	-11.99
5,850	-11.9901
ata	-11.9901
posing	-11.9902
▁jakob	-11.9905
▁manaksia	-11.9905
▁ravenswood	-11.9905
▁remedies	-11.9905
▁hefty	-11.9905
▁bengaluru	-11.9905
▁shredding	-11.9905
▁slitting	-11.9905
▁(30	-11.9905
▁precursor	-11.9905
nc	-11.9905
▁heavier	-11.9905
▁signage	-11.9906
▁herald	-11.9906
▁milk	-11.9906
▁188	-11.9907
▁prefecture	-11.9908
▁metra	-11.9908
sky	-11.9909
▁adjustable	-11.9909
,530	-11.9909
▁hinder	-11.9911
▁aggressively	-11.9911
ld	-11.9912
▁commemorate	-11.9912
▁embraced	-11.992
smart	-11.9923
50,000	-11.9925
,390	-11.9928
▁2011.	-11.9934
▁aren	-11.9936
mit	-11.9937
,560	-11.9939
5,100	-11.994
▁bang	-11.9941
▁logistic	-11.9946
0%,	-11.995
▁outflows	-11.9952
▁recyclables	-11.9953
▁dell	-11.9961
bel	-11.9971
▁stir	-11.9972
▁143	-11.9973
▁receipt	-11.9976
▁stride	-11.9976
▁stephen	-11.9976
▁ministers	-11.9977
▁particle	-11.9978
▁dates	-11.9978
▁carmaker	-11.9979
scope	-11.9981
beverage	-11.9981
480	-11.9983
▁simplify	-11.999
▁tal	-12
▁$80	-12.0001
▁victor	-12.0006
3.2	-12.001
▁disclose	-12.0013
▁dh	-12.0014
▁exacerbate	-12.0015
▁jacques	-12.0015
▁penalties	-12.0015
▁samalaju	-12.0015
▁sampling	-12.0015
▁soloviev	-12.0015
▁urgency	-12.0015
▁neighbourhood	-12.0015
▁camalco	-12.0015
▁trimmed	-12.0015
▁passive	-12.0015
2,900	-12.0015
▁liability	-12.0016
▁mackenzie	-12.0016
▁levs	-12.0016
▁travelling	-12.0016
▁mirrors	-12.0016
▁nz	-12.0017
▁rollout	-12.0018
▁repeatedly	-12.0018
▁realize	-12.0018
▁garnered	-12.002
$38	-12.0021
▁radio	-12.0022
▁immensely	-12.0023
▁101	-12.0024
▁annualised	-12.0027
,785	-12.0036
▁amended	-12.0037
▁arrow	-12.0041
▁inland	-12.0042
▁3,200	-12.0043
▁deepening	-12.0044
▁ran	-12.0044
▁son	-12.0046
▁cn	-12.0048
system	-12.0049
▁standout	-12.005
4,750	-12.0051
▁threaten	-12.0055
▁0.26	-12.0059
ino	-12.0061
▁mcc	-12.0061
indian	-12.0062
▁meter	-12.0065
9.9	-12.0066
▁livelihoods	-12.0072
exports	-12.0074
▁14,500	-12.0076
▁cre	-12.0076
▁pallets	-12.0079
▁issu	-12.0081
▁cu	-12.0083
▁570	-12.0084
▁bids	-12.0084
▁suitcase	-12.0087
▁electrode	-12.0088
$36	-12.0088
3,250	-12.0092
log	-12.0094
▁firmer	-12.0098
▁heighten	-12.01
▁trail	-12.01
plans	-12.0103
yu	-12.0103
coal	-12.0109
▁brian	-12.0112
▁2,300	-12.0113
▁warns	-12.0118
▁exponential	-12.0122
▁unusual	-12.0123
bed	-12.0124
▁pepsi	-12.0125
▁austin	-12.0126
▁clarification	-12.0126
▁enterprising	-12.0126
▁influential	-12.0126
▁lucrative	-12.0126
▁stagnant	-12.0126
▁stausholm	-12.0126
▁worried	-12.0126
▁chloride	-12.0126
▁huawei	-12.0126
▁algeria	-12.0126
▁0.04	-12.0126
▁granco	-12.0126
▁elite	-12.0127
▁denied	-12.0127
▁overwhelming	-12.0128
▁reversal	-12.0128
▁fiat	-12.0128
▁statistical	-12.0129
▁finalise	-12.0129
▁ghanaian	-12.0129
▁168	-12.013
▁160,000	-12.0133
▁70-30	-12.0134
▁expectedly	-12.0134
▁51%	-12.0136
▁unfortunately	-12.0136
order	-12.0137
▁24%	-12.014
▁3000	-12.0141
▁bankable	-12.0142
▁magna	-12.0144
▁cooperate	-12.0146
▁spiked	-12.0148
▁nurtur	-12.0151
7,200	-12.0152
▁9.2	-12.0153
▁pin	-12.0154
9/	-12.0157
▁(2023)	-12.0161
▁tian	-12.0162
cur	-12.0162
▁lens	-12.0165
awa	-12.0167
▁suffer	-12.0167
▁privately	-12.0168
$37	-12.0168
▁1709	-12.0172
▁heated	-12.0172
style	-12.0177
-26	-12.0187
▁gar	-12.0189
integrated	-12.0189
$45	-12.0189
hua	-12.019
▁1,100	-12.0192
ht	-12.0192
has	-12.0193
▁startups	-12.0195
▁compounds	-12.0195
holding	-12.0195
reduce	-12.0197
rie	-12.0199
▁harness	-12.0201
▁utensil	-12.0202
▁tv	-12.0202
about	-12.0206
▁zhong	-12.0212
▁labs	-12.0213
▁scooter	-12.0213
▁intensify	-12.0214
▁rim	-12.0217
▁yi	-12.0218
▁setback	-12.0219
-28	-12.0219
gue	-12.0224
hp	-12.0225
futures	-12.0229
eli	-12.023
▁vaccines	-12.0233
ado	-12.0234
▁lockdowns	-12.0236
influencing	-12.0238
occitane	-12.0238
▁illinois	-12.0238
▁flagged	-12.0238
▁unified	-12.0238
▁straightforward	-12.0238
▁alkaline	-12.0238
▁llp	-12.0238
▁fused	-12.0239
▁creditors	-12.024
▁hunter	-12.024
materials	-12.0241
▁determin	-12.0242
forming	-12.0243
▁tilt	-12.0243
hen	-12.0245
imported	-12.0245
▁20,350	-12.0245
▁frequency	-12.0246
▁seriously	-12.0251
▁santa	-12.0254
▁couldn	-12.0254
rg	-12.0254
▁considerations	-12.0258
▁advantageous	-12.026
▁undermine	-12.0263
▁remarks	-12.0268
omc	-12.0269
▁nord	-12.0274
▁163	-12.0279
▁satellites	-12.0279
▁ju	-12.0281
▁games	-12.0283
625	-12.0284
kh	-12.0284
key	-12.0287
0,750	-12.0287
▁val	-12.029
▁onboard	-12.0292
$215	-12.0305
▁fighting	-12.0312
▁crossed	-12.0317
▁tunnel	-12.0317
odisha	-12.0319
income	-12.0319
▁8.2	-12.0325
▁$1.8	-12.0325
hd	-12.0327
alum	-12.0331
▁fish	-12.0333
▁je	-12.0334
ue	-12.0335
cop	-12.0336
▁11.3	-12.0338
central	-12.0341
▁9.4	-12.035
▁0.13	-12.035
▁rp	-12.0351
▁linamar	-12.0352
▁mingtai	-12.0352
▁notwithstanding	-12.0352
▁generous	-12.0352
▁brokerage	-12.0352
▁superstructure	-12.0352
▁refinement	-12.0352
▁shopping	-12.0352
▁reynolds	-12.0353
▁8.8	-12.0359
▁hopefully	-12.0361
▁supporter	-12.0362
▁230,000	-12.0362
surge	-12.0366
▁practically	-12.0366
▁copy	-12.0367
▁0.35	-12.0371
▁159	-12.0375
$48	-12.0377
▁amplify	-12.0378
▁boilers	-12.0385
▁45,000	-12.0386
▁grab	-12.0386
▁lately	-12.0387
lux	-12.0388
▁0.19	-12.039
home	-12.0391
▁oxides	-12.0395
▁reversed	-12.0395
▁cpi	-12.04
▁245	-12.0403
▁1.15	-12.0415
▁disadvantage	-12.0417
▁$400	-12.042
40/	-12.042
▁conversations	-12.0422
▁jun	-12.0422
▁expire	-12.0425
▁agents	-12.0428
▁inflows	-12.0429
phone	-12.0429
▁regulator	-12.0429
serve	-12.0429
australia	-12.0431
▁boiler	-12.0433
imidro	-12.0433
average	-12.0433
bridge	-12.0434
▁0.34	-12.0434
▁optional	-12.0435
aa	-12.0436
lightweight	-12.0437
▁trained	-12.0439
▁dome	-12.0446
▁gb	-12.0446
dra	-12.0447
▁surveyed	-12.0448
▁8.4	-12.0452
▁0.09	-12.0459
▁2060	-12.0459
▁restor	-12.0459
pen	-12.0462
dian	-12.0464
▁hitachi	-12.0467
▁invasion	-12.0467
▁uzbekistan	-12.0467
▁resurgence	-12.0467
▁shoals	-12.0467
▁fluorine	-12.0467
▁estonia	-12.0467
▁lizhong	-12.0467
▁aids	-12.0467
▁expedition	-12.0468
▁peel	-12.0468
aluminerie	-12.0469
▁0.36	-12.047
▁sometimes	-12.0473
▁gerd	-12.0474
▁tasmanian	-12.0474
▁85%	-12.0476
▁file	-12.0476
▁27%	-12.0476
▁softer	-12.0477
▁toyo	-12.0478
▁steven	-12.0478
paired	-12.0479
▁sight	-12.048
▁1.5%	-12.0483
▁mandated	-12.0483
▁yan	-12.0488
▁failing	-12.049
14,000	-12.049
▁headlines	-12.0493
▁141	-12.0494
nce	-12.0495
▁parking	-12.0498
▁damaged	-12.0499
▁hosts	-12.0501
8.1	-12.0501
▁noticed	-12.0502
4%	-12.0503
▁min	-12.0504
nie	-12.0508
▁bh	-12.0508
▁grams	-12.051
1,700	-12.0511
▁0.18	-12.0518
▁wow	-12.0519
▁162	-12.052
▁rake	-12.052
▁tabs	-12.0521
0.3	-12.0525
▁7000	-12.0534
▁indo	-12.0536
acci	-12.0538
▁attending	-12.0539
jan	-12.054
▁waters	-12.0543
ster	-12.0543
▁121	-12.0546
section	-12.055
although	-12.0551
factory	-12.0552
▁paints	-12.0554
burn	-12.0556
▁configurations	-12.056
-4-	-12.056
▁alarm	-12.0561
▁forklifts	-12.0562
cp	-12.0564
fast	-12.0567
▁hero	-12.0569
▁divest	-12.0574
▁ham	-12.0579
▁mounts	-12.0579
4.3	-12.0579
▁geographic	-12.058
<5.5)	-12.0583
<7.0)	-12.0583
▁tüv	-12.0583
elevating	-12.0583
▁niyamgiri	-12.0583
▁phosphate	-12.0583
▁resuming	-12.0583
▁tribunal	-12.0583
▁trudeau	-12.0583
▁varieties	-12.0583
▁fastmarkets	-12.0583
▁senate	-12.0583
ami	-12.0584
▁shah	-12.0584
▁struck	-12.0584
▁possesses	-12.0584
▁constructive	-12.0584
▁grundartangi	-12.0584
▁mitigation	-12.0584
▁0.46	-12.0587
▁windalco	-12.0587
▁stellar	-12.0587
▁onsite	-12.0588
▁ridge	-12.059
▁finalized	-12.0592
▁envelope	-12.0595
▁examined	-12.0595
▁employers	-12.0595
▁dump	-12.0596
nam	-12.0596
▁8.6	-12.0596
▁fundamentally	-12.0597
8%	-12.0601
▁endure	-12.0601
▁crafting	-12.0605
▁appeared	-12.0605
▁2012.	-12.0606
▁contents	-12.0608
▁longest	-12.0608
▁designation	-12.061
▁540	-12.0612
▁1.22	-12.0614
aya	-12.0616
▁cooled	-12.0626
▁button	-12.0626
tur	-12.0627
▁summ	-12.0628
ching	-12.0635
▁financially	-12.0635
▁hal	-12.0638
▁kits	-12.0639
▁costa	-12.064
▁shen	-12.0649
▁mn	-12.065
▁tr	-12.0652
▁bonding	-12.0661
tel	-12.0663
alcoholic	-12.0667
approx	-12.0667
cylinder	-12.0667
eafa	-12.0667
▁bolt	-12.067
▁derivative	-12.0672
▁rough	-12.0674
3,200	-12.0674
▁suggestion	-12.0676
▁showroom	-12.0677
▁blast	-12.0678
▁proposes	-12.0678
▁viewed	-12.068
▁utilises	-12.0684
town	-12.0686
digital	-12.0687
▁wasn	-12.0692
▁cease	-12.0693
ora	-12.0694
ida	-12.0695
▁obvious	-12.0697
▁rethink	-12.0699
▁eskom	-12.07
▁eternal	-12.07
▁harbour	-12.07
▁mixture	-12.07
▁patnaik	-12.07
▁qualify	-12.07
▁turmoil	-12.07
▁webinar	-12.0701
▁adaro	-12.0701
▁essence	-12.0701
▁pepsico	-12.0701
▁0.5%	-12.0702
▁nitrex	-12.0702
▁thicker	-12.0705
sufficient	-12.0705
ati	-12.0706
▁smallest	-12.0708
▁0.14	-12.071
▁redesigned	-12.0711
▁procured	-12.0714
▁builder	-12.0723
▁$34	-12.0725
▁threatening	-12.0726
▁harder	-12.0728
▁charter	-12.0729
shipments	-12.0736
▁paulo	-12.074
▁fortune	-12.074
▁sailing	-12.0742
arabian	-12.0749
▁prospecting	-12.0751
▁laptops	-12.0753
▁cad	-12.0753
▁aluk	-12.0754
5,250	-12.0756
▁collaborates	-12.0758
▁1960	-12.0759
mine	-12.0761
825	-12.0761
ical	-12.0763
▁redefin	-12.0767
▁situations	-12.0771
sell	-12.0778
▁flag	-12.078
-2025	-12.0781
▁defects	-12.0781
▁1.03	-12.0782
▁tone	-12.0782
8,250	-12.0783
ral	-12.0783
▁2,800	-12.0784
*	-12.0786
automotive	-12.0786
innovation	-12.0786
mexico	-12.0786
impact	-12.0786
▁0.44	-12.0793
▁10.8	-12.0794
iya	-12.0799
▁transformer	-12.0803
▁von	-12.0803
bin	-12.0804
$44	-12.0808
▁johan	-12.0816
▁riders	-12.0816
▁allocate	-12.0819
▁geographical	-12.0819
▁sultan	-12.0819
compagnie	-12.082
▁alumínio	-12.082
▁amortisation	-12.082
▁analysing	-12.082
▁kuwait	-12.082
▁majeure	-12.082
▁wrong	-12.082
▁innovating	-12.082
▁biomass	-12.082
▁blueprint	-12.082
▁occurring	-12.082
▁disruptive	-12.082
▁metlen	-12.082
▁termination	-12.082
▁oslo	-12.082
▁feat	-12.0821
▁equispheres	-12.0821
epa	-12.0822
▁nippon	-12.0822
▁frontier	-12.0822
▁baotou	-12.0823
▁14,850	-12.0825
▁holder	-12.0825
▁secret	-12.0826
▁hired	-12.0827
▁480	-12.083
▁kenya	-12.0831
▁napco	-12.0832
▁belonging	-12.0833
80/	-12.0834
▁stabilised	-12.0835
▁payable	-12.0835
▁1997	-12.0835
ear	-12.0835
,535	-12.0836
▁375	-12.0836
▁talco	-12.0836
▁18,700	-12.0838
▁urges	-12.0842
▁0.32	-12.0843
case	-12.0845
▁enforce	-12.0847
▁pursued	-12.0847
▁plot	-12.0848
▁linear	-12.0849
▁seed	-12.085
▁medal	-12.0851
▁bai	-12.0851
▁23%	-12.0855
▁112	-12.0856
▁receipts	-12.0862
mont	-12.0863
anti	-12.0864
fully	-12.0865
▁replaces	-12.087
859	-12.0871
$47	-12.0872
▁1,0	-12.0878
▁8.3	-12.0883
▁32,000	-12.0886
▁retained	-12.0887
▁adapting	-12.0891
▁31,000	-12.0891
▁126	-12.09
tpa	-12.09
▁shin	-12.0902
government	-12.0904
competitive	-12.0906
lithium	-12.0907
country	-12.0907
clad	-12.0908
nzas	-12.0908
alupro	-12.0909
nbs	-12.0913
▁handed	-12.0922
▁defin	-12.0926
$46	-12.0926
▁0.42	-12.0927
mph	-12.0927
$60	-12.0931
4.7	-12.0931
▁dies	-12.0934
cor	-12.0935
▁selective	-12.0938
▁pouch	-12.0939
▁shoulder	-12.0939
gp	-12.094
▁jharkhand	-12.094
▁measurable	-12.094
▁spokeswoman	-12.094
▁£4	-12.094
▁alexander	-12.094
▁councillor	-12.094
▁alteo	-12.094
hindustan	-12.094
▁musk	-12.094
▁commonwealth	-12.094
▁substation	-12.094
▁passionate	-12.094
▁favourite	-12.094
fit	-12.0941
▁sister	-12.0941
▁villagers	-12.0941
▁survival	-12.0941
▁hammerer	-12.0941
▁initiation	-12.0942
▁author	-12.0943
▁alstom	-12.0943
▁zhengzhou	-12.0944
▁criticism	-12.0944
▁victory	-12.0945
▁113	-12.0945
▁atlas	-12.0946
▁shadow	-12.0946
▁electron	-12.0947
bit	-12.0949
▁nafta	-12.0949
▁1.2%	-12.0952
▁chances	-12.0958
▁0.31	-12.0958
▁lbs	-12.0962
5,350	-12.0963
▁endless	-12.0966
▁headline	-12.0968
▁clearer	-12.097
▁1.65	-12.097
kan	-12.0972
▁adapted	-12.0973
▁purchasers	-12.0982
▁0.48	-12.0985
▁dragon	-12.0986
▁curtailments	-12.0986
▁mor	-12.0987
▁zu	-12.0994
future	-12.1002
▁seconds	-12.1009
▁fail	-12.101
▁queues	-12.1015
▁ci	-12.1017
▁rounds	-12.1019
▁195	-12.1021
▁hk	-12.1022
▁conferences	-12.1023
▁adam	-12.1024
▁16.5	-12.1025
▁kia	-12.1026
real	-12.1029
▁challenged	-12.1029
▁exists	-12.1032
▁#5	-12.1033
▁th	-12.1035
▁merchant	-12.1035
ug	-12.1036
▁worry	-12.1038
▁directive	-12.1038
paying	-12.1042
used	-12.1044
▁word	-12.1046
205	-12.1053
many	-12.1054
▁modernise	-12.1057
-2021-	-12.106
▁127	-12.106
▁venezuela	-12.1061
▁smartwatch	-12.1061
▁elizabeth	-12.1062
▁advocacy	-12.1062
▁ecuador	-12.1062
▁leichtmetall	-12.1062
▁madrid	-12.1062
▁reduxa	-12.1062
▁sridhar	-12.1062
▁umbrella	-12.1062
▁craig	-12.1062
▁liabilities	-12.1062
▁sinohydro	-12.1062
▁1.01	-12.1062
▁delta	-12.1063
▁alumar	-12.1064
▁sk	-12.1064
▁customary	-12.1064
▁mba	-12.1065
▁hydration	-12.1065
▁deutsche	-12.1065
▁oversight	-12.1066
,705	-12.1066
▁aldel	-12.1067
▁reactive	-12.1068
▁brighter	-12.1068
▁tubex	-12.1068
▁merged	-12.1069
▁dampened	-12.107
ned	-12.1072
,110	-12.1072
mag	-12.1073
▁21,300	-12.1076
▁tiny	-12.1077
▁picking	-12.1077
earth	-12.1078
▁dar	-12.1081
▁850	-12.1083
rl	-12.1084
pr	-12.1087
▁hang	-12.109
▁characterize	-12.109
▁£3	-12.109
▁internally	-12.1092
2026	-12.1095
operations	-12.1098
7%	-12.1105
care	-12.1111
▁hr	-12.1111
▁8.1	-12.1116
‘	-12.1118
▁bottlenecks	-12.1121
▁1.28	-12.1123
▁°	-12.1123
▁overseeing	-12.1123
america	-12.1133
▁highness	-12.1133
▁tony	-12.1138
▁crack	-12.1139
4,400	-12.1139
▁persons	-12.114
contract	-12.1147
og	-12.1147
▁ur	-12.1151
warwick	-12.1152
agreement	-12.1152
auction	-12.1152
bearish	-12.1152
arabal	-12.1153
fire	-12.1153
▁assure	-12.1154
▁intalco	-12.1156
▁mb	-12.1157
4,850	-12.1157
▁membrane	-12.1158
▁holes	-12.1159
▁rupee	-12.1159
enter	-12.116
round	-12.116
▁oven	-12.1161
▁cooler	-12.1164
eps	-12.1164
▁fitting	-12.1169
▁substrates	-12.1173
▁encounter	-12.1174
ile	-12.1178
▁distress	-12.1179
▁quiet	-12.118
▁repay	-12.1181
don	-12.1182
8.4	-12.1183
▁1994	-12.1183
▁accelerates	-12.1184
▁financed	-12.1184
▁decoration	-12.1185
▁dismantling	-12.1185
▁junaidi	-12.1185
▁relevance	-12.1185
▁rheinfelden	-12.1185
▁statutory	-12.1185
▁cryolite	-12.1185
▁baowu	-12.1185
▁pjsc	-12.1186
naveen	-12.1186
anthony	-12.1186
▁recruitment	-12.1186
▁hayes	-12.1186
▁rainwater	-12.1186
▁0.6%	-12.1186
▁unaffected	-12.1186
▁alucast	-12.1187
▁oak	-12.1187
▁explosive	-12.1187
▁plain	-12.1187
▁narrated	-12.1188
▁armenia	-12.1188
decline	-12.1188
▁titagarh	-12.1189
▁fraud	-12.1189
▁digitalization	-12.119
▁controller	-12.119
▁binder	-12.1193
▁axle	-12.1194
▁assigned	-12.1195
▁proactively	-12.1197
▁chartered	-12.1197
▁reflective	-12.1198
▁lightest	-12.1198
▁airline	-12.12
▁0.43	-12.1202
▁zimbabwe	-12.1203
▁fib	-12.1207
wan	-12.1207
▁0.30	-12.1209
▁assures	-12.1211
$1.5	-12.1211
▁sim	-12.1211
ua	-12.1212
$3,5	-12.1214
oldest	-12.1219
▁tk	-12.122
180	-12.1224
▁colin	-12.1224
presidential	-12.1231
9.6	-12.1233
▁treating	-12.1233
▁29,000	-12.1235
▁fitch	-12.1237
luminous	-12.124
▁sporting	-12.1245
▁patients	-12.1247
▁officiate	-12.125
▁1.45	-12.1251
▁hasn	-12.1253
9,800	-12.1255
▁131	-12.1256
isri	-12.1261
▁col	-12.1265
zz	-12.1265
▁177	-12.1267
▁las	-12.1268
▁helm	-12.1271
▁jets	-12.1274
▁leak	-12.1274
▁polish	-12.1275
having	-12.1276
plastic	-12.1277
owner	-12.1278
▁bfs	-12.1279
▁ji	-12.128
▁farming	-12.1282
▁conditional	-12.1284
lic	-12.1285
▁prioritize	-12.1286
▁backup	-12.1286
count	-12.1287
whopping	-12.1287
hal	-12.1293
cvd	-12.1293
▁fins	-12.1294
▁spl	-12.1298
▁grids	-12.1299
▁donate	-12.1306
▁$70	-12.1306
▁apollo	-12.131
▁boké	-12.131
▁bombardier	-12.131
▁brilliant	-12.131
▁damaging	-12.131
▁luxurious	-12.131
▁speculators	-12.131
▁sterlite	-12.131
▁ahmad	-12.131
▁remarkably	-12.131
▁festive	-12.131
▁mishra	-12.131
▁triangle	-12.131
▁hamburg	-12.131
▁impression	-12.1311
▁township	-12.1311
▁relocation	-12.1311
▁drew	-12.1311
▁estimation	-12.1312
▁documentation	-12.1312
▁compatibility	-12.1313
▁assuming	-12.1313
▁glenn	-12.1313
▁brunel	-12.1314
▁174	-12.1314
▁retired	-12.1317
▁20,250	-12.1318
▁camp	-12.1318
dual	-12.1319
iggy	-12.132
rail	-12.1321
uff	-12.1321
▁19,450	-12.1323
▁daiki	-12.1324
▁bending	-12.1327
▁washing	-12.133
impending	-12.1333
8.6	-12.1334
▁progressed	-12.1336
vin	-12.135
4,250	-12.1352
,945	-12.1353
▁lam	-12.1355
▁gin	-12.1355
▁reviews	-12.1355
rr	-12.1356
$41	-12.1357
ros	-12.1363
ica	-12.1365
develop	-12.1368
▁ls	-12.1369
▁rebounding	-12.1374
▁2,900	-12.1374
event	-12.1377
▁(4.5	-12.1377
▁collections	-12.1378
bd	-12.1382
▁2040.	-12.1386
▁champions	-12.1387
▁3,750	-12.1387
ipo	-12.1387
ox	-12.1388
6/	-12.1389
0,350	-12.1391
lead	-12.1393
bil	-12.1393
hit	-12.1396
▁images	-12.1397
$42	-12.1399
▁11.7	-12.1399
▁entails	-12.1399
▁understands	-12.1399
together	-12.14
▁boards	-12.1401
saint	-12.1404
▁arising	-12.1405
▁books	-12.1409
ney	-12.1412
▁phillip	-12.1414
▁prototypes	-12.1416
dan	-12.1416
▁rai	-12.1416
▁490	-12.1418
gl	-12.1421
▁outlet	-12.1425
▁exert	-12.1426
▁calculate	-12.1429
▁157	-12.1432
▁2,100	-12.1433
90,000	-12.1436
▁phantom	-12.1437
▁elegance	-12.1437
▁hygiene	-12.1437
▁delicate	-12.1437
▁microstructure	-12.1437
▁jackson	-12.1437
▁hindley	-12.1437
▁luke	-12.1438
▁nomination	-12.1438
▁disposable	-12.1438
▁talum	-12.1439
▁rebates	-12.1439
▁freshness	-12.144
▁fencing	-12.144
▁analytical	-12.1441
▁lac	-12.1443
▁conakry	-12.1444
▁tie	-12.1444
▁affiliated	-12.1445
▁onset	-12.1446
280	-12.1446
▁19,050	-12.1446
bis	-12.1448
▁bears	-12.145
2,350	-12.1451
▁chandra	-12.1451
▁rollers	-12.1451
▁19,250	-12.1451
▁honored	-12.1455
▁marian	-12.1458
▁0.29	-12.1459
▁oh	-12.1465
$53	-12.1466
▁ray	-12.1471
▁polar	-12.1474
jet	-12.1474
▁comp	-12.1475
▁watching	-12.1475
▁$28	-12.1481
▁locked	-12.1482
ju	-12.1486
mes	-12.1499
rak	-12.1499
lac	-12.15
▁highlands	-12.15
▁persists	-12.1501
▁cylinders	-12.1505
clined	-12.151
▁6,500	-12.1516
▁equip	-12.1517
launch	-12.1518
▁1999	-12.1519
▁ria	-12.152
▁760	-12.1521
▁elon	-12.1523
▁chill	-12.1523
guinea	-12.153
constellium	-12.1532
pri	-12.1532
▁asa	-12.1533
solid	-12.1533
estimated	-12.1534
▁0.16	-12.1534
,755	-12.1541
▁dispatch	-12.1554
tube	-12.1559
▁foundations	-12.156
ale	-12.1561
▁angola	-12.1562
deal	-12.1563
▁1.75	-12.1564
▁clamp	-12.1565
claude	-12.1565
▁kodingamali	-12.1565
▁matthew	-12.1565
▁minnesota	-12.1565
▁prototyping	-12.1565
▁taishet	-12.1565
▁slatina	-12.1565
▁sunndal	-12.1565
▁adorn	-12.1565
▁barrios	-12.1565
▁accompany	-12.1565
▁stuck	-12.1566
▁diligently	-12.1566
▁elval	-12.1566
▁cruising	-12.1567
▁unanimously	-12.1567
▁constantia	-12.1567
▁brisk	-12.1568
▁roofs	-12.1568
▁telecommunicat	-12.1569
▁gel	-12.157
▁cess	-12.157
▁scaffolding	-12.1572
▁posting	-12.1572
▁baking	-12.1573
▁$32	-12.1574
ien	-12.1578
▁tabor	-12.1579
epc	-12.1579
▁265	-12.1584
▁scop	-12.1586
▁hybrids	-12.1587
▁172	-12.1588
▁buk	-12.1589
▁410	-12.1589
invest	-12.1593
funded	-12.1595
▁za	-12.1599
▁eliminated	-12.1604
▁dealer	-12.1605
industries	-12.1606
flow	-12.1609
very	-12.1611
-100-	-12.1615
▁mx	-12.1615
ban	-12.1616
▁33,000	-12.1616
,765	-12.1616
▁553	-12.1617
joins	-12.1618
▁grande	-12.1619
uch	-12.1621
40,000	-12.1628
▁stems	-12.1631
8,950	-12.1633
▁cpc	-12.1636
▁bidders	-12.1637
cum	-12.1641
575	-12.1647
▁resolv	-12.1647
ward	-12.1652
▁blending	-12.1655
$1,900	-12.1656
▁0.24	-12.1657
▁diminish	-12.1658
significant	-12.1659
layer	-12.166
content	-12.1662
affected	-12.1662
rigid	-12.1662
following	-12.1666
▁applaud	-12.1667
▁cor	-12.1673
▁aerodynamic	-12.1675
▁accomplishments	-12.1678
▁remind	-12.1679
701	-12.1681
▁donation	-12.1683
▁centers	-12.1683
▁fence	-12.1684
▁sat	-12.1686
thin	-12.1693
,605	-12.1694
▁hire	-12.1695
piyush	-12.1695
▁elevation	-12.1695
▁garbage	-12.1695
▁juncture	-12.1695
▁licensing	-12.1695
▁nikitin	-12.1695
▁stabilising	-12.1695
▁untapped	-12.1695
▁osaka	-12.1695
▁merit	-12.1695
▁impol	-12.1695
▁bosch	-12.1695
▁understood	-12.1696
▁competent	-12.1696
▁radar	-12.1696
▁recreational	-12.1696
uted	-12.1696
▁indefinitely	-12.1696
▁retailer	-12.1696
▁sunil	-12.1697
▁comparatively	-12.1697
▁backward	-12.1697
▁cambodia	-12.1697
▁2020-21	-12.1698
▁cycling	-12.17
pu	-12.17
ilbur	-12.1701
▁mainland	-12.1702
signs	-12.1702
▁reconsider	-12.1704
▁05	-12.1705
wind	-12.1709
▁21,200	-12.1709
▁oneplus	-12.171
$31	-12.1715
▁295	-12.1716
▁relied	-12.1717
▁(6.0	-12.1719
0,250	-12.1719
▁roots	-12.1721
▁geared	-12.1725
▁1.35	-12.1725
▁landowners	-12.1726
210	-12.1728
gold	-12.1733
▁1.17	-12.1733
▁tpa	-12.1735
▁2010.	-12.1736
lum	-12.1736
▁apac	-12.1737
▁pioneered	-12.174
▁friends	-12.1742
▁rig	-12.1746
▁1800	-12.1749
▁scan	-12.1752
▁moto	-12.1752
yang	-12.1757
▁117	-12.1758
pf	-12.176
▁treatments	-12.1764
put	-12.1766
flex	-12.1769
▁mat	-12.177
▁wo	-12.1771
▁1998	-12.1772
▁labels	-12.1773
▁15-	-12.1774
▁dana	-12.1777
▁branded	-12.1783
▁forests	-12.1784
4,700	-12.1785
earnings	-12.1787
▁leg	-12.179
inspired	-12.1791
ious	-12.1792
autumn	-12.1793
dragon	-12.1793
compliant	-12.1793
commerce	-12.1794
★)	-12.1794
chair	-12.1794
good	-12.1794
person	-12.1798
alfed	-12.18
five	-12.1801
▁judges	-12.1801
▁accolades	-12.1801
share	-12.1802
▁observe	-12.1802
9.2	-12.1808
▁volunteer	-12.181
▁fluctuation	-12.1812
plan	-12.1815
ries	-12.1816
▁corporations	-12.1816
▁merge	-12.1817
dar	-12.1819
-27	-12.1821
$43	-12.1823
▁smoke	-12.1824
▁gearbox	-12.1825
▁bachelor	-12.1827
▁caribbean	-12.1827
▁chrysler	-12.1827
▁coventry	-12.1827
▁guinée	-12.1827
▁hurricane	-12.1827
▁lipstick	-12.1827
▁yankuang	-12.1827
▁revolve	-12.1827
▁excitement	-12.1827
▁nitrogen	-12.1827
▁jeep	-12.1827
examining	-12.1827
▁unclear	-12.1827
▁lawmakers	-12.1827
▁siberian	-12.1829
purpose	-12.1829
▁library	-12.183
jesse	-12.1831
▁calcium	-12.1831
▁brexit	-12.1833
▁mac	-12.1835
ct	-12.1835
▁ceased	-12.1835
▁polished	-12.1839
1,250	-12.1839
▁55%	-12.184
▁130,000	-12.1841
▁payout	-12.1841
▁suppressed	-12.1847
▁183	-12.1848
▁256	-12.1849
▁1.09	-12.1851
▁revers	-12.1852
▁stockpiled	-12.1852
▁1971	-12.1853
▁fails	-12.1856
operating	-12.1858
▁rewarding	-12.1859
▁autumn	-12.186
▁qal	-12.186
7.1	-12.1861
▁robin	-12.1862
▁tas	-12.1866
▁0.45	-12.1868
uf	-12.1869
▁sap	-12.1875
▁induce	-12.1876
store	-12.1876
▁emal	-12.1883
fu	-12.1888
lti	-12.189
390	-12.1891
2.0	-12.1893
▁$36	-12.1897
oi	-12.1897
▁panic	-12.1899
,565	-12.1899
▁trucking	-12.1912
▁2031	-12.1913
rb	-12.1915
▁firming	-12.1915
▁12.1	-12.1916
close	-12.1916
▁alex	-12.1918
xi	-12.1922
▁coat	-12.1923
▁retreat	-12.1924
▁flowing	-12.1925
84,000	-12.1925
▁wu	-12.1926
▁aspirations	-12.1926
crude	-12.1927
germany	-12.193
▁ascends	-12.1936
▁$38	-12.1938
abate	-12.1938
▁separator	-12.1946
▁prediction	-12.1947
18,850	-12.1947
▁supermarket	-12.1947
▁uv	-12.1948
▁pal	-12.1948
▁vibration	-12.1949
▁pur	-12.1951
▁$2.6	-12.1951
rat	-12.1951
í	-12.1954
▁alleviate	-12.1955
▁1993	-12.1955
▁compensate	-12.1956
alloys	-12.1957
▁possess	-12.1957
▁jacob	-12.1959
▁ashapura	-12.196
▁braghi	-12.196
▁deutschland	-12.196
▁ducati	-12.196
▁fraunhofer	-12.196
▁identification	-12.196
▁jupiter	-12.196
▁liquor	-12.196
▁luoyang	-12.196
▁nagpur	-12.196
▁greensill	-12.196
▁immersive	-12.196
▁instability	-12.196
▁jorc	-12.196
▁micromill	-12.196
▁haulage	-12.1961
▁newspaper	-12.1961
▁reasonably	-12.1961
,485	-12.1961
▁christian	-12.1962
▁communicate	-12.1962
▁elvalhalcor	-12.1962
▁19,550	-12.1963
▁19,650	-12.1964
▁altek	-12.1964
▁0.75	-12.1964
▁reminder	-12.1966
▁activated	-12.1967
▁shaft	-12.1969
▁38%	-12.1969
,315	-12.1971
room	-12.1971
▁rtd	-12.1974
▁pushes	-12.1974
▁1.8%	-12.1974
▁13,950	-12.1975
▁140,000	-12.1976
rf	-12.1978
▁coordinated	-12.1979
▁arms	-12.1979
▁32%	-12.1983
▁midas	-12.1987
jun	-12.1988
4.1	-12.199
ala	-12.1994
025	-12.1994
▁rid	-12.2003
▁verticals	-12.2003
▁thermally	-12.2006
▁chem	-12.2006
▁bricks	-12.201
helmut	-12.2013
▁12,500	-12.2016
▁highways	-12.2018
▁indoor	-12.2018
▁7.9	-12.2023
18,550	-12.2023
▁cano	-12.2024
▁3,0	-12.2025
330	-12.2025
▁ecosystems	-12.2028
base	-12.2032
▁carlo	-12.2033
7,350	-12.2036
▁dev	-12.2036
other	-12.2038
5,600	-12.2039
▁knowing	-12.2041
20,750	-12.2042
▁1.32	-12.2043
▁aston	-12.2044
bus	-12.2044
list	-12.2059
paid	-12.2061
second	-12.2062
printed	-12.2062
battery	-12.2062
safety	-12.2062
▁12.2	-12.2063
▁$26	-12.207
▁gate	-12.2072
▁recogniz	-12.2079
6,700	-12.2084
▁countering	-12.2084
▁chips	-12.2089
▁angle	-12.2089
▁districts	-12.2091
▁capitalize	-12.2092
▁256,6	-12.2092
▁annealing	-12.2095
▁attorney	-12.2095
▁binjour	-12.2095
▁cadillac	-12.2095
▁lenovo	-12.2095
▁mercantile	-12.2095
▁riyadh	-12.2095
▁romco	-12.2095
▁rotterdam	-12.2095
▁shelter	-12.2095
▁synthetic	-12.2095
▁tanjung	-12.2095
▁unnecessary	-12.2095
▁dubbed	-12.2095
reputable	-12.2095
▁stanley	-12.2095
▁piping	-12.2095
▁cyber	-12.2095
▁ecology	-12.2095
▁inaugurate	-12.2095
▁metef	-12.2096
▁binzhou	-12.2097
▁manpower	-12.2097
▁bulletin	-12.2097
▁aluminio	-12.2099
▁wildpack	-12.21
▁topped	-12.21
▁0.47	-12.2102
▁0.57	-12.2102
▁thoroughly	-12.2104
▁diminished	-12.2107
▁pabc	-12.2108
▁226	-12.2108
▁resumes	-12.2112
▁pfs	-12.2113
els	-12.2117
cb	-12.2118
1,850	-12.2122
▁seam	-12.2123
▁ye	-12.2127
▁winding	-12.2127
▁$75	-12.2129
▁handles	-12.2132
▁14.5	-12.2134
▁succeeding	-12.2135
▁clad	-12.2137
▁57,000	-12.2139
loading	-12.214
ika	-12.214
▁tur	-12.2142
▁exportation	-12.2151
▁169	-12.2155
▁parish	-12.2156
▁mrn	-12.2157
semi	-12.2157
jv	-12.2158
▁1.37	-12.2161
▁gmt	-12.2162
▁linkages	-12.2162
▁ya	-12.2166
sponsored	-12.2169
gh	-12.217
,795	-12.217
▁13,800	-12.2174
44,000	-12.2177
trend	-12.218
▁apprentices	-12.2181
250/	-12.2181
via	-12.2186
▁interviews	-12.2192
▁gf	-12.2193
▁argu	-12.2193
▁189	-12.2195
transformation	-12.2199
special	-12.2199
▁9.3	-12.2199
revenue	-12.2199
just	-12.22
240	-12.22
,835	-12.2203
hot	-12.2205
9,900	-12.2207
hamad	-12.2211
0.2	-12.2214
▁1.23	-12.2217
▁economist	-12.222
▁substance	-12.2221
▁competitor	-12.2221
▁tyres	-12.2222
▁characteristic	-12.2222
▁assemble	-12.2225
▁dead	-12.2225
▁licences	-12.2226
▁accumulate	-12.2227
▁terrain	-12.2227
▁gov	-12.2228
▁torch	-12.2231
▁snow	-12.2232
▁triumph	-12.2232
▁countermeasures	-12.2232
▁istanbul	-12.2232
▁navigation	-12.2232
▁thrust	-12.2232
▁tropical	-12.2232
▁almatis	-12.2232
▁bengal	-12.2232
▁rotary	-12.2232
▁acute	-12.2232
▁klang	-12.2232
▁rigidity	-12.2233
▁golf	-12.2234
▁complexities	-12.2234
▁devoted	-12.2234
3.4	-12.2234
▁ryan	-12.2235
▁telangana	-12.2235
▁struggles	-12.2235
▁healthier	-12.2236
▁insisted	-12.2236
▁99%	-12.2236
▁chrome	-12.2236
▁benefitted	-12.2237
▁0.38	-12.2237
▁linger	-12.2238
▁existence	-12.2238
▁borough	-12.2239
thy	-12.2239
▁validated	-12.224
▁2033	-12.224
▁boss	-12.2241
▁visually	-12.2244
▁11.2	-12.2244
▁rust	-12.2244
▁peaked	-12.2245
▁18,750	-12.2246
▁seized	-12.2247
▁14,700	-12.2248
she	-12.225
8.2	-12.2251
▁rub	-12.2253
▁marco	-12.226
▁cabins	-12.226
▁owed	-12.226
▁lifts	-12.2262
▁explaining	-12.2267
▁broker	-12.2267
▁07	-12.2274
▁$55	-12.2277
▁breach	-12.2279
▁rooms	-12.2287
▁0.23	-12.2289
▁weakly	-12.2291
-871	-12.2294
▁flip	-12.2294
▁restaurants	-12.2298
▁poles	-12.2298
gil	-12.2298
18,470	-12.2299
9,300	-12.2311
▁1.11	-12.2315
qua	-12.2318
nz	-12.2319
▁0.53	-12.2322
▁describes	-12.2326
▁bets	-12.2327
$57	-12.2329
5,400	-12.233
▁17.5	-12.2332
ground	-12.2333
▁intel	-12.2336
corrosive	-12.2338
venture	-12.2338
domestic	-12.2338
heavy	-12.2338
renewable	-12.2338
▁unfolds	-12.2338
cuts	-12.2341
▁1.13	-12.2341
bir	-12.2343
▁0.51	-12.2348
▁minds	-12.2352
▁validate	-12.2354
▁2007,	-12.2355
▁correcti	-12.2357
▁column	-12.2361
▁tune	-12.2362
▁bat	-12.2365
▁spill	-12.2366
▁retire	-12.2367
▁genuine	-12.2368
▁surprising	-12.2368
▁albert	-12.2369
▁xe	-12.237
▁bristol	-12.2371
▁henkel	-12.2371
▁hogna	-12.2371
▁mercury	-12.2371
▁organizing	-12.2371
▁plenty	-12.2371
▁zhenjiang	-12.2371
▁formidable	-12.2371
▁optifine	-12.2371
▁spacious	-12.2371
▁electrochemical	-12.2371
▁plea	-12.2371
▁franklin	-12.2371
▁roundtable	-12.2371
▁jury	-12.2371
▁talgo	-12.2372
▁warren	-12.2372
▁prosperous	-12.2372
▁escape	-12.2372
▁everywhere	-12.2372
▁0.1%	-12.2372
▁rotor	-12.2373
▁reddy	-12.2373
▁samuel	-12.2374
▁roman	-12.2374
-6-	-12.2374
▁arts	-12.2374
18,380	-12.2375
▁pln	-12.2375
▁contaminated	-12.2378
▁siding	-12.238
▁depart	-12.2381
▁maha	-12.2382
▁realistic	-12.2384
▁1.1%	-12.2385
▁strictly	-12.2386
▁cautiously	-12.2388
each	-12.2389
tek	-12.239
▁0.58	-12.239
▁175,000	-12.2393
▁nova	-12.2397
hin	-12.2401
▁ear	-12.2404
▁onshore	-12.2405
▁65,000	-12.2405
▁uncover	-12.2406
▁bow	-12.2408
▁blends	-12.2409
▁vin	-12.2412
▁01	-12.2416
1,200	-12.2419
iba	-12.2419
kin	-12.2419
▁shiny	-12.2423
▁$42	-12.2423
▁layoffs	-12.2423
▁#4	-12.2424
▁kal	-12.2428
▁borders	-12.2432
▁9.1	-12.2445
2000	-12.2446
▁2,200	-12.2448
live	-12.245
rec	-12.2453
sistently	-12.2458
▁arrange	-12.2459
▁switched	-12.246
drop	-12.2461
▁advisors	-12.2463
act	-12.2465
▁1100	-12.2465
▁fold	-12.2465
,685	-12.2465
4.2	-12.2466
▁lp	-12.2466
report	-12.2467
cmi	-12.2469
▁float	-12.2469
revolving	-12.247
,885	-12.2473
▁digit	-12.2474
,735	-12.2476
9.7	-12.2476
blown	-12.2478
annual	-12.2479
economy	-12.2479
▁bills	-12.2479
-950	-12.2479
lower	-12.2482
var	-12.2482
▁cv	-12.2484
chief	-12.2484
die	-12.2487
▁9.7	-12.2489
6,850	-12.2491
▁buzz	-12.2494
▁bp	-12.2494
cf	-12.2497
▁acknowledge	-12.2497
ill	-12.2497
▁99.99	-12.2501
▁commend	-12.2502
qu	-12.2504
▁elaborate	-12.2504
▁restructure	-12.2505
▁relate	-12.2505
fuelling	-12.2506
▁worse	-12.2508
▁coin	-12.251
▁cook	-12.2511
▁drastic	-12.2512
▁vulcan	-12.2512
▁chocolate	-12.2512
▁conservative	-12.2512
▁consolidating	-12.2512
▁contingent	-12.2512
▁mechatherm	-12.2512
▁nexans	-12.2512
▁nitriding	-12.2512
▁simandou	-12.2512
▁tribute	-12.2512
▁vanadium	-12.2512
▁welsh	-12.2512
▁heesen	-12.2512
▁stockholders	-12.2512
▁refurbishment	-12.2512
▁zhongfu	-12.2512
▁levitate	-12.2512
▁inviting	-12.2512
▁mapping	-12.2513
▁panchpatmali	-12.2513
▁fenesta	-12.2514
▁mananalu	-12.2514
▁mumtalakat	-12.2514
▁quietly	-12.2515
▁evade	-12.2517
125	-12.2517
▁cyclical	-12.2518
▁progressively	-12.2518
5.3	-12.252
▁slm	-12.2521
▁19,750	-12.2521
award	-12.2521
▁1.67	-12.2521
▁upvc	-12.2522
▁hollow	-12.2524
▁19,150	-12.2524
▁promptly	-12.2524
▁1708	-12.2526
▁33%	-12.2527
▁arise	-12.2528
▁tail	-12.2529
▁chery	-12.253
▁volunteers	-12.253
▁cautioned	-12.2533
▁lane	-12.2533
elect	-12.2534
▁pumped	-12.2535
▁committ	-12.2538
▁constituted	-12.254
▁fishing	-12.2542
▁trademark	-12.2544
▁0.28	-12.2548
▁origins	-12.2553
▁flexibles	-12.2553
nb	-12.2556
▁€4	-12.2558
▁1.24	-12.256
aneka	-12.2564
▁refers	-12.2564
▁occurs	-12.2564
aac	-12.2568
,055	-12.2571
metric	-12.2573
moving	-12.2574
▁0.37	-12.2575
▁10.1	-12.2577
▁readers	-12.2577
,645	-12.2579
1,900	-12.2584
ick	-12.2585
▁distortions	-12.2586
▁artists	-12.2587
▁1.48	-12.259
▁tenements	-12.2591
▁$19	-12.2591
▁auctioned	-12.2593
pan	-12.2593
▁regionally	-12.2594
▁dispos	-12.2595
9,700	-12.26
▁ions	-12.2603
230	-12.2609
▁8,500	-12.2614
▁pigments	-12.2617
treatment	-12.262
further	-12.2622
japan	-12.2622
firm	-12.2622
yoy	-12.2622
▁totally	-12.2622
pound	-12.2623
▁10.3	-12.2623
▁photo	-12.2623
▁venues	-12.2624
▁outlin	-12.2624
▁steer	-12.2624
box	-12.2629
▁0.2%	-12.2629
matic	-12.2629
$59	-12.263
▁mars	-12.263
wave	-12.2632
wu	-12.2633
▁inject	-12.2636
6,300	-12.2639
large	-12.2642
▁differentiate	-12.2647
▁radiator	-12.265
tna	-12.265
ead	-12.2652
▁kilowatt	-12.2653
▁newcastle	-12.2655
▁fertilizer	-12.2655
▁beneath	-12.2655
▁buffer	-12.2655
▁glasgow	-12.2655
▁imminent	-12.2655
▁inquiry	-12.2655
▁panasonic	-12.2655
▁retention	-12.2655
▁saxony	-12.2655
▁stadler	-12.2655
▁tycoon	-12.2655
▁induction	-12.2655
▁pension	-12.2655
▁perfume	-12.2655
▁emitted	-12.2655
▁tambang	-12.2655
▁glance	-12.2655
▁endorsement	-12.2655
▁blind	-12.2655
▁drought	-12.2656
▁1979	-12.2656
▁reinvent	-12.2656
▁deferred	-12.2657
▁detrimental	-12.2657
,965	-12.2657
▁shenzhen	-12.2657
▁sink	-12.2657
▁differential	-12.2658
▁unsustainable	-12.2658
▁18,650	-12.2658
▁protectionist	-12.2658
▁guangzhou	-12.2658
▁scout	-12.2658
▁distinction	-12.2659
▁ssd	-12.2659
▁stimulat	-12.266
▁asean	-12.266
▁49%	-12.2661
▁0.55	-12.2662
,585	-12.2663
▁infinity	-12.2664
▁42%	-12.2665
▁substances	-12.2667
▁taxation	-12.2667
▁charger	-12.267
▁focussed	-12.267
▁0.54	-12.267
ace	-12.2673
▁dg	-12.2673
▁220,000	-12.2673
▁insolvency	-12.2674
▁seals	-12.268
▁successor	-12.268
▁shore	-12.268
▁$3.5	-12.2681
▁agm	-12.2683
!”	-12.2683
▁exchanger	-12.2686
▁rec	-12.2687
▁ea	-12.2693
▁3,300	-12.2701
▁12.3	-12.2704
-937	-12.2715
▁hurting	-12.2718
▁cb	-12.2719
▁fetch	-12.2723
▁reject	-12.2725
▁$29	-12.2728
▁aeroplanes	-12.2737
▁buys	-12.2738
▁06	-12.2742
▁tai	-12.2742
▁violations	-12.2746
▁$2.4	-12.2748
xing	-12.2749
▁reap	-12.2756
,865	-12.2758
lia	-12.276
mile	-12.276
▁0.61	-12.2761
catching	-12.2766
bearing	-12.2766
jnarddc	-12.2766
consuming	-12.2766
▁hoped	-12.2767
coming	-12.2767
▁reclaim	-12.2769
:30	-12.2769
given	-12.277
▁fta	-12.2771
feb	-12.2771
▁byproduct	-12.2772
uni	-12.2776
cny	-12.2776
▁harvest	-12.2777
-835	-12.2779
▁9.6	-12.2785
▁laminate	-12.2788
▁contest	-12.2789
▁upwards	-12.2791
▁200-	-12.2794
▁excels	-12.2794
▁cream	-12.2795
▁contributors	-12.2796
▁observation	-12.2796
4,600	-12.2797
four	-12.2798
▁medicine	-12.2798
▁embargo	-12.2798
050	-12.2799
▁barcarena	-12.28
▁clarendon	-12.28
▁demolition	-12.28
▁ibrahim	-12.28
▁kobelco	-12.28
▁leisure	-12.28
▁lincoln	-12.28
▁pronounced	-12.28
▁remedy	-12.28
▁transhipment	-12.28
▁marvel	-12.28
▁tianshan	-12.28
▁aurum	-12.28
▁negligible	-12.28
▁crackdown	-12.28
▁lender	-12.28
▁alumobility	-12.28
▁conductive	-12.2801
▁oliver	-12.2802
▁customisation	-12.2802
▁rhb	-12.2803
▁acceptable	-12.2803
▁sal	-12.2803
▁adaptable	-12.2803
▁wagon	-12.2804
▁brain	-12.2804
▁18,810	-12.2805
▁recurring	-12.2806
frp	-12.2806
▁coking	-12.2807
ault	-12.2809
▁streets	-12.281
▁clarke	-12.281
▁arun	-12.281
▁43%	-12.281
▁younger	-12.281
▁beams	-12.2812
$55	-12.2813
▁gh	-12.2816
▁carbonated	-12.2816
▁prioritised	-12.2817
▁tear	-12.2821
▁epd	-12.2821
▁withdrawn	-12.2822
▁ally	-12.2823
▁2.4%	-12.2824
db	-12.2828
▁sooner	-12.2829
tariffs	-12.2832
conserving	-12.2834
▁slugs	-12.2836
dec	-12.2836
▁1.21	-12.284
▁alcoholic	-12.2842
loss	-12.2844
▁prioritises	-12.2845
▁rims	-12.2847
▁logical	-12.285
▁unlocked	-12.2854
▁gbc	-12.2854
▁favoured	-12.2854
▁1992	-12.2855
▁cancel	-12.2861
▁shower	-12.2862
▁20,450	-12.2864
▁tablet	-12.2865
▁37,000	-12.2866
,355	-12.2871
lay	-12.2875
▁protests	-12.2876
▁dial	-12.2882
▁ill	-12.2882
▁accepting	-12.2883
▁rem	-12.2885
▁nana	-12.2889
axis	-12.2895
ovic	-12.2898
▁ul	-12.2902
▁325	-12.2904
▁460	-12.2908
kov	-12.2911
▁plummet	-12.2911
ancy	-12.2912
م	-12.2913
financial	-12.2914
$2,500	-12.2914
cagr	-12.2914
▁sas	-12.2916
pad	-12.2919
cia	-12.2921
▁1.54	-12.2922
▁opinions	-12.2923
abi	-12.2923
▁wars	-12.2925
▁sleep	-12.2927
,385	-12.2929
▁es	-12.2933
solutions	-12.2935
american	-12.2937
,745	-12.2939
▁replicate	-12.2939
ators	-12.2939
▁crowd	-12.294
▁kim	-12.2941
▁english	-12.2947
×	-12.2947
▁crisil	-12.2947
▁fragile	-12.2947
▁identifies	-12.2947
▁ministries	-12.2947
▁polyethylene	-12.2947
▁streak	-12.2947
▁styling	-12.2947
▁yellow	-12.2947
▁dixon	-12.2947
▁russellville	-12.2947
137	-12.2947
▁ferries	-12.2947
▁static	-12.2947
▁exemplary	-12.2947
▁sponsorship	-12.2947
▁frontrunner	-12.2947
▁multilateral	-12.2947
▁string	-12.2948
▁neuss	-12.2948
▁empowerment	-12.2949
▁aludecor	-12.2949
▁aluar	-12.2949
▁brace	-12.295
,305	-12.295
▁wooden	-12.2951
▁dismissed	-12.2951
▁watchers	-12.2952
▁0.56	-12.2954
▁dna	-12.2954
▁softened	-12.2957
2025,	-12.2958
▁agl	-12.2961
▁nanoparticles	-12.2961
▁jen	-12.2962
▁emitting	-12.2962
▁gates	-12.2962
▁0.39	-12.2964
▁solving	-12.2964
▁saleable	-12.2966
▁kicked	-12.2968
▁argue	-12.2968
,515	-12.2968
▁210,000	-12.2969
▁$2.3	-12.297
▁135,000	-12.2973
200/	-12.2975
pace	-12.2975
▁ovens	-12.2977
▁sims	-12.2978
▁mandates	-12.298
▁sn	-12.298
▁glide	-12.298
-833	-12.2982
▁councils	-12.2982
eb	-12.2982
▁158	-12.2983
▁2008.	-12.2984
▁progresses	-12.2985
▁gem	-12.2986
$39	-12.2987
-663	-12.2988
tro	-12.2989
▁yards	-12.2991
▁linde	-12.2993
nar	-12.3
▁bicycles	-12.3002
▁1903	-12.3013
▁2)	-12.302
6,350	-12.3021
pin	-12.3024
antitrust	-12.3025
parliamentary	-12.3028
▁1807	-12.303
$95	-12.3033
▁terminals	-12.3035
▁0.41	-12.3037
▁pp	-12.3038
▁bha	-12.304
▁op	-12.3041
anda	-12.3044
▁incoming	-12.3048
fta	-12.3049
▁nod	-12.3049
7,850	-12.305
▁13,900	-12.305
▁valves	-12.3054
▁xu	-12.3054
mid	-12.306
ø	-12.3062
pol	-12.3062
needed	-12.3063
▁collectors	-12.3066
▁nam	-12.3069
▁1981	-12.3069
9.1	-12.3072
▁0.40	-12.3078
▁shells	-12.3081
,435	-12.3084
-2024-	-12.3085
cha	-12.3087
lit	-12.3088
▁terminate	-12.309
▁ol	-12.3092
▁notion	-12.3095
▁09	-12.3095
▁retrofit	-12.3096
▁signify	-12.3096
▁friguia	-12.3096
▁matrix	-12.3096
▁mempawah	-12.3096
▁nagoya	-12.3096
▁sambalpur	-12.3096
▁servicing	-12.3096
▁sunshine	-12.3096
▁vicinity	-12.3096
▁gaoual	-12.3096
▁skimming	-12.3096
▁credible	-12.3096
▁wilson	-12.3096
▁sandvik	-12.3096
▁subtle	-12.3096
▁drainage	-12.3096
▁hunan	-12.3096
▁compression	-12.3096
▁pharma	-12.3097
▁petrochemical	-12.3097
▁norte	-12.3097
▁1996	-12.3097
▁depot	-12.3097
▁uncompetitive	-12.3097
eous	-12.3098
▁academia	-12.3098
▁hurdle	-12.3098
▁barker	-12.3098
▁pink	-12.3098
▁britvic	-12.3098
▁catalogue	-12.3098
▁unknown	-12.31
▁branches	-12.3101
▁2205	-12.3101
340	-12.3102
eed	-12.3102
▁tranche	-12.3102
▁earns	-12.3103
▁brushed	-12.3104
▁18,350	-12.3104
▁drone	-12.3105
▁0.17	-12.3106
▁whatever	-12.3108
▁tam	-12.3108
▁2021-22	-12.311
▁phil	-12.311
▁likewise	-12.3112
▁31%	-12.3113
▁elections	-12.3113
gel	-12.3114
▁facts	-12.3116
▁193	-12.3117
dha	-12.3119
pod	-12.3122
iq	-12.3123
▁155,000	-12.3128
-2019	-12.3132
▁burning	-12.3132
▁axis	-12.3133
any	-12.3137
▁folding	-12.3137
offs	-12.3143
▁182	-12.3144
▁med	-12.3144
▁character	-12.3145
parts	-12.3146
▁15,500	-12.3146
spot	-12.3147
▁electrodes	-12.3147
▁reel	-12.3148
▁2024:	-12.3148
mwh	-12.3151
▁0.52	-12.3153
▁fronts	-12.3153
▁aftermarket	-12.3154
ough	-12.3155
▁advocates	-12.3156
▁experiments	-12.3164
▁organisers	-12.3168
▁mrf	-12.317
▁nv	-12.3171
▁7,500	-12.3173
6,800	-12.3174
2,800	-12.3176
▁emirati	-12.3179
30,000	-12.3181
▁08	-12.3188
▁installers	-12.3195
20,550	-12.32
▁wraps	-12.32
,215	-12.3208
▁nurture	-12.3212
political	-12.3214
▁coordinat	-12.3217
▁surround	-12.3223
▁cathodes	-12.3225
▁quench	-12.3226
create	-12.323
,495	-12.3236
▁kps	-12.3239
facing	-12.3239
▁tub	-12.3241
▁declare	-12.3243
▁festivals	-12.3245
▁gears	-12.3247
idusl	-12.3247
▁achievable	-12.3247
▁arkansas	-12.3247
▁celsius	-12.3247
▁inquiries	-12.3247
▁muscat	-12.3247
▁pilbara	-12.3247
▁shipbuilder	-12.3247
▁urquhart	-12.3247
▁wagerup	-12.3247
▁aseptic	-12.3247
▁belarus	-12.3247
▁coveted	-12.3248
▁admitted	-12.3248
▁preferential	-12.3248
▁ashanti	-12.3248
▁uniformity	-12.3248
▁kilotonnes	-12.3248
▁kai	-12.3248
▁radiation	-12.3249
▁epsilon	-12.325
▁imagine	-12.325
▁geely	-12.3251
▁1991	-12.3252
▁enlarged	-12.3253
▁breakout	-12.3253
▁subsidised	-12.3254
▁whi	-12.3255
▁solarcycle	-12.3255
▁tougher	-12.3255
▁mineralisation	-12.3256
▁0.64	-12.3259
▁fume	-12.3259
▁inadequate	-12.3262
▁monster	-12.3263
▁0.12	-12.3265
6,250	-12.3266
1,300	-12.3266
▁lobbying	-12.3266
2022,	-12.3266
▁110,000	-12.3268
▁accountable	-12.3269
slav	-12.3269
▁mesh	-12.3269
▁184	-12.327
▁scrapping	-12.327
▁μ	-12.3273
▁cita	-12.3274
-860	-12.3274
kuala	-12.3277
▁absorbed	-12.3278
▁voiced	-12.3278
▁curved	-12.3278
▁patrol	-12.3282
▁cum	-12.3284
▁dian	-12.3286
,545	-12.3288
▁pollutants	-12.329
-899	-12.3291
,195	-12.3292
▁1.31	-12.3294
▁liner	-12.3296
▁brothers	-12.3297
▁spearheading	-12.3302
▁eurasian	-12.3309
▁riv	-12.3315
80,000	-12.3319
▁mann	-12.3324
▁careers	-12.3325
cie	-12.3326
▁interventions	-12.3334
▁arrives	-12.3335
▁1.38	-12.3336
▁13.5	-12.3336
sport	-12.3337
▁1.57	-12.3339
▁beck	-12.334
7,700	-12.3354
into	-12.3355
▁easter	-12.3357
focus	-12.3357
▁spec	-12.3362
▁sec	-12.3367
expansion	-12.3368
major	-12.3368
positive	-12.3368
thanks	-12.3369
shift	-12.3369
local	-12.3369
cbg	-12.337
▁2035.	-12.3374
yi	-12.3377
engineering	-12.3377
▁excel	-12.3378
iim	-12.3379
▁$33	-12.3381
1,800	-12.3381
▁errors	-12.3381
▁$1.9	-12.3384
6,400	-12.3384
▁housed	-12.3387
▁contracting	-12.3387
8,850	-12.339
rp	-12.339
total	-12.3395
▁fault	-12.3398
sula	-12.3398
▁requesting	-12.3399
▁regulate	-12.34
▁equivalents	-12.34
▁differ	-12.3401
▁systematic	-12.3401
▁likelihood	-12.3401
▁nozzle	-12.3401
▁perception	-12.3401
▁scalability	-12.3401
▁surveillance	-12.3401
▁thirty	-12.3401
▁unaudited	-12.3401
▁inverted	-12.3401
▁iraq	-12.3401
▁nigel	-12.3401
▁wrapping	-12.3401
▁technal	-12.3402
▁backwardation	-12.3402
▁massena	-12.3402
▁alutrade	-12.3402
▁masterpiece	-12.3402
▁albania	-12.3403
▁1.36	-12.3403
▁208	-12.3403
▁resin	-12.3404
osa	-12.3404
▁ukrainian	-12.3405
▁humanity	-12.3405
▁brasil	-12.3405
▁bracket	-12.3407
▁18,910	-12.3407
▁vaccine	-12.3408
▁obviously	-12.3409
▁consciousness	-12.3409
▁fulfilled	-12.341
▁victorian	-12.3411
▁lever	-12.3412
8.3	-12.3412
▁clusters	-12.3414
▁motivation	-12.3415
▁rider	-12.3415
yuan	-12.3417
▁collapsed	-12.3418
▁$250	-12.3418
och	-12.3418
-689	-12.342
▁21,700	-12.3422
▁cutter	-12.3422
uma	-12.3428
▁fallout	-12.3429
▁27.5	-12.3431
,845	-12.3433
▁imp	-12.3436
▁seri	-12.3436
auto	-12.3437
▁61,000	-12.3442
▁silicone	-12.3447
▁$0.7	-12.3447
▁cur	-12.3449
cab	-12.3449
▁daytime	-12.3449
▁calm	-12.3451
mic	-12.3453
▁cil	-12.3456
720	-12.3458
▁2,850	-12.3458
ional	-12.3459
▁bore	-12.3459
▁1705	-12.3462
▁1707	-12.3466
▁governmental	-12.3468
▁3,400	-12.3469
9,850	-12.3469
▁lm	-12.3473
▁bur	-12.3474
once	-12.3474
▁avoided	-12.3474
▁printers	-12.3479
▁1710	-12.3479
▁founders	-12.348
,135	-12.348
▁dee	-12.3481
-35	-12.3482
tis	-12.3483
-897	-12.3484
rel	-12.3489
▁blank	-12.349
ign	-12.3491
alco	-12.3491
▁measurements	-12.3499
▁materially	-12.3499
▁ot	-12.35
▁sol	-12.35
▁rumours	-12.3502
ware	-12.3502
▁0.65	-12.3504
subsidy	-12.3524
refinery	-12.3524
people	-12.3524
recyclable	-12.3524
binding	-12.3525
▁cocktails	-12.3528
113	-12.353
▁mag	-12.353
▁greg	-12.3534
▁1901	-12.3534
▁10.2	-12.3534
zer	-12.3536
capital	-12.3536
▁strap	-12.3539
▁dak	-12.354
▁rand	-12.3542
▁uno	-12.3543
▁1706	-12.3545
▁640	-12.3547
▁redesign	-12.355
▁criticis	-12.3552
▁conde	-12.3553
▁sai	-12.3553
components	-12.3554
▁siberia	-12.3555
their	-12.3555
▁flue	-12.3556
ا	-12.3557
contemplating	-12.3558
▁acknowledging	-12.3558
▁cyclone	-12.3558
▁daimler	-12.3558
▁nawailevu	-12.3558
▁ottawa	-12.3558
▁scandinavia	-12.3558
▁suriname	-12.3558
▁mqp	-12.3558
▁brasileira	-12.3558
▁kingston	-12.3558
▁mangalam	-12.3558
▁phenomenal	-12.3558
▁toronto	-12.3558
▁fundraising	-12.3558
▁99.99%	-12.3558
▁minimalist	-12.3558
▁clever	-12.3558
▁huang	-12.3558
▁tbk	-12.3558
▁0.7%	-12.3559
▁1.5°	-12.3559
▁hyper	-12.3559
▁midstream	-12.3559
▁cpse	-12.3559
▁mohan	-12.356
▁reconstruction	-12.3561
societe	-12.3561
▁framing	-12.3562
▁0.68	-12.3562
▁0.77	-12.3562
▁srl	-12.3562
▁0.87	-12.3563
▁acclaimed	-12.3563
▁sensex	-12.3563
▁interruption	-12.3566
▁participant	-12.3567
▁$45	-12.357
–20	-12.357
ew	-12.3571
▁4.5%	-12.3571
▁0.73	-12.3572
▁retreated	-12.3572
▁13,700	-12.3573
▁20,050	-12.3573
▁materialise	-12.3574
▁2.6%	-12.3574
▁experimental	-12.3575
▁borrowing	-12.3577
▁actionable	-12.3578
▁softening	-12.3581
▁13,600	-12.3582
▁regulated	-12.3584
▁debentures	-12.3584
190	-12.3584
cker	-12.3585
,505	-12.3585
▁caam	-12.3585
change	-12.3588
▁$2.8	-12.3591
▁merchants	-12.3592
sur	-12.3594
▁sean	-12.3595
▁470	-12.3599
▁1972	-12.36
3000/	-12.3608
-923	-12.361
▁12.9	-12.361
▁10,500	-12.3611
▁1.42	-12.3613
▁dada	-12.3616
▁mil	-12.3619
▁proceeding	-12.3624
▁wash	-12.3625
▁hazards	-12.3628
▁demonstrations	-12.363
▁lti	-12.3635
▁alsi	-12.3635
spec	-12.364
▁228	-12.3642
▁2.23	-12.3644
▁awaited	-12.3644
▁gadgets	-12.3645
africa	-12.3645
▁1.29	-12.365
▁chase	-12.365
▁qu	-12.3665
▁constitut	-12.3665
uck	-12.3665
4000	-12.3668
sim	-12.3668
grow	-12.3669
▁ny	-12.3669
lot	-12.3674
▁fork	-12.3676
iri	-12.368
equivalent	-12.3683
announces	-12.3683
wuxi	-12.3683
▁computers	-12.3683
running	-12.3684
▁sm	-12.3684
effectiveness	-12.3686
bags	-12.3686
▁chang	-12.369
ire	-12.369
36,000	-12.3693
▁$2.7	-12.3702
▁spreading	-12.3708
▁356	-12.3709
▁exclude	-12.3709
charge	-12.3709
wc	-12.371
▁eagle	-12.3716
▁default	-12.3716
▁distributing	-12.3716
▁doldrums	-12.3716
▁erosion	-12.3716
▁jakarta	-12.3716
▁joseph	-12.3716
▁monsoon	-12.3716
▁undoubtedly	-12.3716
▁unrivalled	-12.3716
▁budweiser	-12.3716
▁fragrance	-12.3716
▁latvia	-12.3716
▁oligarch	-12.3716
▁rheinmetall	-12.3716
▁veolia	-12.3716
▁debris	-12.3716
▁infrastructural	-12.3716
▁brazing	-12.3716
▁cooksey	-12.3716
▁nivea	-12.3716
▁patronage	-12.3716
▁oregon	-12.3716
▁confederation	-12.3716
▁10:15	-12.3716
▁fujian	-12.3717
▁unibody	-12.3717
▁fabricating	-12.3717
▁vegas	-12.3717
▁solidification	-12.3717
ação	-12.3717
▁labelled	-12.3717
▁quad	-12.3718
4,900	-12.3718
▁ahmedabad	-12.3719
▁mother	-12.3719
▁19,950	-12.3719
▁circulated	-12.3719
▁scarce	-12.372
oj	-12.3721
▁jobless	-12.3721
▁0.49	-12.3721
▁opined	-12.3723
▁2.25	-12.3723
▁hampered	-12.3724
▁robustness	-12.3724
▁olympic	-12.3726
▁450,000	-12.3726
▁upbeat	-12.3726
▁candidate	-12.3727
-664	-12.3728
▁34%	-12.3728
▁65%	-12.3728
-730	-12.3728
▁gala	-12.3731
▁tyre	-12.3731
▁2.2%	-12.3731
▁surprised	-12.3732
▁struggled	-12.3733
▁1.6%	-12.3733
▁wellbeing	-12.3734
▁27,500	-12.3734
▁alleg	-12.3736
▁shyam	-12.3737
▁constraint	-12.3738
▁maaden	-12.3738
▁envisioned	-12.374
▁comeback	-12.3741
$70	-12.3745
.67%	-12.3747
seat	-12.3748
▁0.74	-12.3749
▁iced	-12.3749
▁timeless	-12.375
▁42,000	-12.3754
▁$95	-12.3757
3,350	-12.3757
▁1.58	-12.3758
▁flame	-12.3759
▁1.47	-12.3759
▁changer	-12.376
▁60-20	-12.376
apa	-12.3763
▁disrupting	-12.3766
4,350	-12.3766
▁mg	-12.3769
tar	-12.3772
▁($2	-12.3776
821	-12.3776
taking	-12.3786
▁1983	-12.3786
▁hinges	-12.3796
▁520	-12.38
amag	-12.3802
▁1.43	-12.3804
▁warn	-12.3804
▁marc	-12.3806
▁rc	-12.3807
-1)	-12.3808
▁1989	-12.3811
38,000	-12.3813
▁courses	-12.3813
▁theft	-12.3814
▁ppa	-12.3816
▁grapple	-12.3817
ella	-12.3823
-688	-12.3824
▁auditor	-12.3825
ula	-12.3827
▁axe	-12.3828
▁ola	-12.3828
gram	-12.3831
5.1	-12.3841
▁dampen	-12.3842
dimensional	-12.3844
sensitive	-12.3844
gdp	-12.3845
crisis	-12.3845
index	-12.3845
▁ger	-12.3845
currently	-12.3847
abx	-12.3847
feng	-12.385
▁1.84	-12.385
▁2301	-12.385
▁incur	-12.3851
▁confront	-12.3853
▁2007.	-12.3853
▁revolutionize	-12.3857
▁graphic	-12.3858
▁rea	-12.3863
▁boot	-12.3864
▁0.85	-12.3864
▁sin	-12.3869
$51	-12.3869
.35%	-12.387
▁mint	-12.3871
▁gare	-12.3871
-10-	-12.3874
410	-12.3874
▁wal	-12.3874
▁unifor	-12.3874
▁aip	-12.3875
▁aayog	-12.3878
[...]
